{"<|endoftext|>":0,"<|im_start|>":1,"<|im_end|>":2,"!":3,"\"":4,"#":5,"$":6,"%":7,"&":8,"'":9,"(":10,")":11,"*":12,"+":13,",":14,"-":15,".":16,"/":17,"0":18,"1":19,"2":20,"3":21,"4":22,"5":23,"6":24,"7":25,"8":26,"9":27,":":28,";":29,"<":30,"=":31,">":32,"?":33,"@":34,"A":35,"B":36,"C":37,"D":38,"E":39,"F":40,"G":41,"H":42,"I":43,"J":44,"K":45,"L":46,"M":47,"N":48,"O":49,"P":50,"Q":51,"R":52,"S":53,"T":54,"U":55,"V":56,"W":57,"X":58,"Y":59,"Z":60,"[":61,"\\":62,"]":63,"^":64,"_":65,"`":66,"a":67,"b":68,"c":69,"d":70,"e":71,"f":72,"g":73,"h":74,"i":75,"j":76,"k":77,"l":78,"m":79,"n":80,"o":81,"p":82,"q":83,"r":84,"s":85,"t":86,"u":87,"v":88,"w":89,"x":90,"y":91,"z":92,"{":93,"|":94,"}":95,"~":96,"¡":97,"¢":98,"£":99,"¤":100,"¥":101,"¦":102,"§":103,"¨":104,"©":105,"ª":106,"«":107,"¬":108,"®":109,"¯":110,"°":111,"±":112,"²":113,"³":114,"´":115,"µ":116,"¶":117,"·":118,"¸":119,"¹":120,"º":121,"»":122,"¼":123,"½":124,"¾":125,"¿":126,"À":127,"Á":128,"Â":129,"Ã":130,"Ä":131,"Å":132,"Æ":133,"Ç":134,"È":135,"É":136,"Ê":137,"Ë":138,"Ì":139,"Í":140,"Î":141,"Ï":142,"Ð":143,"Ñ":144,"Ò":145,"Ó":146,"Ô":147,"Õ":148,"Ö":149,"×":150,"Ø":151,"Ù":152,"Ú":153,"Û":154,"Ü":155,"Ý":156,"Þ":157,"ß":158,"à":159,"á":160,"â":161,"ã":162,"ä":163,"å":164,"æ":165,"ç":166,"è":167,"é":168,"ê":169,"ë":170,"ì":171,"í":172,"î":173,"ï":174,"ð":175,"ñ":176,"ò":177,"ó":178,"ô":179,"õ":180,"ö":181,"÷":182,"ø":183,"ù":184,"ú":185,"û":186,"ü":187,"ý":188,"þ":189,"ÿ":190,"Ā":191,"ā":192,"Ă":193,"ă":194,"Ą":195,"ą":196,"Ć":197,"ć":198,"Ĉ":199,"ĉ":200,"Ċ":201,"ċ":202,"Č":203,"č":204,"Ď":205,"ď":206,"Đ":207,"đ":208,"Ē":209,"ē":210,"Ĕ":211,"ĕ":212,"Ė":213,"ė":214,"Ę":215,"ę":216,"Ě":217,"ě":218,"Ĝ":219,"ĝ":220,"Ğ":221,"ğ":222,"Ġ":223,"ġ":224,"Ģ":225,"ģ":226,"Ĥ":227,"ĥ":228,"Ħ":229,"ħ":230,"Ĩ":231,"ĩ":232,"Ī":233,"ī":234,"Ĭ":235,"ĭ":236,"Į":237,"į":238,"İ":239,"ı":240,"Ĳ":241,"ĳ":242,"Ĵ":243,"ĵ":244,"Ķ":245,"ķ":246,"ĸ":247,"Ĺ":248,"ĺ":249,"Ļ":250,"ļ":251,"Ľ":252,"ľ":253,"Ŀ":254,"ŀ":255,"Ł":256,"ł":257,"Ń":258,"ï¼":259,"ä¸":260,"çļ":261,"ï¼Į":262,"çļĦ":263,"ãĢ":264,"ãĢĤ":265,"ä»":266,"äº":267,"åı":268,"æľ":269,"åĴ":270,"åħ":271,"åĴĮ":272,"è¿":273,"ä½":274,"åĪ":275,"æĪ":276,"å®":277,"å¤":278,"åĬ":279,"çĶ":280,"åľ":281,"æĺ":282,"åĲ":283,"æĸ":284,"ä¸Ģ":285,"è¯":286,"ä»¥":287,"ä¹":288,"ç»":289,"æĺ¯":290,"ãĢģ":291,"ï¼ļ":292,"å°":293,"è®":294,"åı¯":295,"åŃ":296,"ĥ½":297,"éĢ":298,"åľ¨":299,"åº":300,"ä¼":301,"æĹ":302,"äºº":303,"å¹":304,"å¸":305,"æĿ":306,"éĩ":307,"æķ":308,"åĽ":309,"èĥ½":310,"åĮ":311,"ä¸ª":312,"å·":313,"è¡":314,"æľī":315,"è§":316,"æĪĳ":317,"å¯":318,"è¦":319,"åı¯ä»¥":320,"çĶ¨":321,"è¦ģ":322,"ä¸Ń":323,"ä»¬":324,"åĩ":325,"æĢ":326,"å¼":327,"çİ":328,"è¿Ļ":329,"äºĨ":330,"æĬ":331,"çŃ":332,"çī":333,"ä¸º":334,"åĨ":335,"èĢ":336,"ç§":337,"å¾":338,"éĹ":339,"ä¿":340,"ä¸į":341,"é¢":342,"æī":343,"æ³":344,"çĽ":345,"èĩ":346,"æŀ":347,"çĶŁ":348,"å¥":349,"åį":350,"æŃ":351,"å½":352,"çĲ":353,"éĿ":354,"æł":355,"æĿ¥":356,"æĹ¶":357,"å¦":358,"æĦ":359,"æĽ":360,"ä¾":361,"æı":362,"åŃ¦":363,"æĶ":364,"åĵ":365,"æ°":366,"å¦Ĥ":367,"è´":368,"åľ°":369,"æĸ¹":370,"çŃī":371,"è¡Į":372,"æİ":373,"ä¼ļ":374,"éľ":375,"æĥ":376,"æĭ":377,"æĽ´":378,"æĪĲ":379,"å¯¹":380,"en":381,"te":382,"åĪ°":383,"èĩª":384,"åĪĨ":385,"æĻ":386,"do":387,"xt":388,"text":389,"endo":390,"<|":391,"|>":392,"ftext":393,"endoftext":394,"å¿":395,"æĮ":396,"åĳ":397,"éľĢ":398,"äºĽ":399,"æµ":400,"èµ":401,"ä½ľ":402,"å±":403,"äºİ":404,"ä»ĸ":405,"æį":406,"åİ":407,"å·¥":408,"æķ°":409,"æıĲ":410,"ä¸ĭ":411,"åĬ¨":412,"çĲĨ":413,"å¤§":414,"åĮĸ":415,"æ¯":416,"ãĢĤ<|":417,"æĪĳä»¬":418,"ä¿Ŀ":419,"å¤ļ":420,"ä¸Ĭ":421,"è¿ĩ":422,"æĤ":423,"çī©":424,"éĻ":425,"åıĳ":426,"æĸĩ":427,"éĢļ":428,"æ³ķ":429,"å¹¶":430,"æĢ§":431,"è¿Ľ":432,"åĬĽ":433,"åĩº":434,"ç®":435,"æ´":436,"éľĢè¦ģ":437,"çº":438,"å¥½":439,"é«":440,"âĢ":441,"ä½ł":442,"ä¸Ģä¸ª":443,"åĲĮ":444,"åĬł":445,"é«ĺ":446,"æį®":447,"åºĶ":448,"å®ļ":449,"é£":450,"è¾":451,"åŁ":452,"æĬĢ":453,"ç±":454,"ç§į":455,"éĿ¢":456,"é¢ĺ":457,"ä½ĵ":458,"éģ":459,"æ²":460,"è§£":461,"çİ°":462,"æ¸":463,"æ±":464,"ä½¿":465,"æĤ¨":466,"å°ı":467,"å°Ĩ":468,"åħ¶":469,"æĪĸ":470,"èī":471,"çļĦç":472,"è½":473,"åŃĲ":474,"åģ":475,"éĩį":476,"éĺ":477,"å¸¸":478,"ä¹Ł":479,"æŀľ":480,"åĽł":481,"åº¦":482,"éĩı":483,"æľº":484,"ç«":485,"éĹ´":486,"å®¶":487,"éĹ®":488,"å¹´":489,"ä¹ĭ":490,"åĬ©":491,"æĦŁ":492,"åĵģ":493,"æĥħ":494,"ç¡":495,"åħ³":496,"æľ¯":497,"æľĢ":498,"ç³":499,"å®ĥ":500,"å»":501,"èĢĮ":502,"ç±»":503,"è¶":504,"æ¬":505,"å¢":506,"åĲĪ":507,"ä¸ļ":508,"èĤ":509,"æĻº":510,"ç¨":511,"çĤ":512,"çĦ":513,"ä¹ł":514,"è°":515,"å»º":516,"å¾Ĺ":517,"ç¡®":518,"æĸ°":519,"åĪ¶":520,"ç¤":521,"ç»ı":522,"æĻºèĥ½":523,"æĦı":524,"åī":525,"è¡¨":526,"éĹ®é¢ĺ":527,"åħ¬":528,"çľ":529,"åĢ":530,"å®ŀ":531,"æľ¬":532,"çĦ¶":533,"çĿ":534,"è®¡":535,"æŃ¤":536,"ä½¿çĶ¨":537,"æĺİ":538,"åĬ¡":539,"åĽ½":540,"åĲİ":541,"å¸®":542,"æĮģ":543,"æĬĢæľ¯":544,"å¼ı":545,"ä¸İ":546,"èĬ":547,"èĢħ":548,"æŁ":549,"éļ":550,"å½±":551,"äº§":552,"ä¸ĢäºĽ":553,"å¸®åĬ©":554,"æ´»":555,"ç½":556,"æ°´":557,"ç³»":558,"ç´":559,"éĶ":560,"å¿ĥ":561,"å±ķ":562,"è¿Ľè¡Į":563,"çİ¯":564,"ä¸»":565,"çŁ":566,"æģ":567,"æķ°æį®":568,"ç¨ĭ":569,"æīĢ":570,"åħ¨":571,"åħ¥":572,"åı¯èĥ½":573,"èī²":574,"åŃ¦ä¹ł":575,"ä¿¡":576,"çĽ¸":577,"è¯Ń":578,"ä¾Ľ":579,"ç¾":580,"éķ":581,"ä¾ĭ":582,"çĸ":583,"ä»»":584,"å¤©":585,"çĶµ":586,"éĢļè¿ĩ":587,"å·±":588,"ç©":589,"èĩªå·±":590,"åħ·":591,"è·":592,"è¢":593,"çĿĢ":594,"éĥ½":595,"çĤ¹":596,"éĥ":597,"çĽ®":598,"é¡":599,"ä»¥ä¸ĭ":600,"äº¤":601,"çķ":602,"å¸Ĥ":603,"çī¹":604,"ä½Ĩ":605,"éĢĤ":606,"è¯¥":607,"æ·":608,"åĮħ":609,"åĻ":610,"é¦":611,"é£Ł":612,"æıĲä¾Ľ":613,"å¼Ģ":614,"äºĭ":615,"åĿ":616,"æķĪ":617,"æĪ·":618,"èģ":619,"éª":620,"éħ":621,"ä»İ":622,"æ°Ķ":623,"ï¼Ł":624,"åĨħ":625,"å½ĵ":626,"åŀ":627,"åľº":628,"åĻ¨":629,"è¿ĺ":630,"è®©":631,"æĹ¥":632,"åıĺ":633,"éĽ":634,"ç®Ĺ":635,"è¿ĻäºĽ":636,"è´¨":637,"éĢī":638,"è®¾":639,"äººå·¥":640,"âĢľ":641,"è¢«":642,"å¤ĸ":643,"âĢĿ":644,"å¹³":645,"çĲĥ":646,"éķ¿":647,"éĿŀ":648,"æ¯ı":649,"éĥ¨":650,"èº":651,"å¾Ī":652,"å®ī":653,"éģĵ":654,"äººå·¥æĻºèĥ½":655,"çĥ":656,"åıĬ":657,"æ¯Ķ":658,"èĻ":659,"åĪ©":660,"æĹ¶éĹ´":661,"åıĹ":662,"ä¾ĭå¦Ĥ":663,"èº«":664,"åĲį":665,"ä»ĸä»¬":666,"æ±Ĥ":667,"åĨ³":668,"æ³¨":669,"å°ĳ":670,"åĸ":671,"ç¾İ":672,"ç»Ł":673,"æıĲé«ĺ":674,"æĢ»":675,"å¤Ħ":676,"æ¡":677,"æº":678,"æ¶":679,"ï¼ī":680,"éĩįè¦ģ":681,"æĺ¯ä¸Ģ":682,"èµĦ":683,"åīį":684,"æłĩ":685,"ç¬":686,"èµ·":687,"ï¼Ī":688,"å¢ĥ":689,"éŁ":690,"ä»£":691,"æŃ£":692,"åĵį":693,"å§":694,"ä½į":695,"æľŁ":696,"è¿Ļä¸ª":697,"åĳĺ":698,"å¤Ł":699,"æł¹":700,"ç¤¾":701,"ä¸įåĲĮ":702,"è¯´":703,"èĲ":704,"åıĳå±ķ":705,"æīĭ":706,"åģ¥":707,"åıĸ":708,"éĤ":709,"éĩĮ":710,"è®®":711,"æĥ³":712,"åŀĭ":713,"æģ¯":714,"ç»Ļ":715,"ç»ĵ":716,"é£İ":717,"è¯Ĩ":718,"å½±åĵį":719,"å®¢":720,"éĿŀå¸¸":721,"æĭ¬":722,"åĮ»":723,"ä¹Ī":724,"é¥":725,"æĶ¾":726,"å¦Ĥæŀľ":727,"å·¥ä½ľ":728,"æ¨":729,"æľį":730,"åķ":731,"åĪ«":732,"å¼º":733,"éŁ³":734,"åĮħæĭ¬":735,"é¢Ĩ":736,"æºĲ":737,"æµģ":738,"æķĻ":739,"æĭ©":740,"ç¥":741,"éĢīæĭ©":742,"æŃ¥":743,"ç¼":744,"çİ¯å¢ĥ":745,"æ®":746,"å¯¼":747,"è°ĥ":748,"æł¹æį®":749,"çģ":750,"æ»":751,"æĬ¤":752,"æĽ´å¥½":753,"åĩı":754,"è½¦":755,"èį":756,"çĪ":757,"åĮº":758,"åĪĽ":759,"ä½ķ":760,"00":761,"ç®¡":762,"è¨":763,"èĪ":764,"åºĶçĶ¨":765,"åı¸":766,"æĹł":767,"ç§ĳ":768,"å°±":769,"ä»¶":770,"å£":771,"å®¹":772,"åŁŁ":773,"èĩªå·±çļĦ":774,"èĥ":775,"èĥ½å¤Ł":776,"ä¹Ĳ":777,"ä¼ł":778,"çĭ":779,"çł":780,"æ¬¡":781,"æĸŃ":782,"åĽłæŃ¤":783,"æĸ¹å¼ı":784,"çĹ":785,"ä¸ŃçļĦ":786,"æľĪ":787,"åº·":788,"çŁ¥":789,"æĸĻ":790,"æ¨¡":791,"èĢĥ":792,"åĽŀ":793,"èĬĤ":794,"å½¢":795,"æ·±":796,"è§Ĥ":797,"é©":798,"çİĩ":799,"çĶŁæ´»":800,"èĭ":801,"æĽ´åĬł":802,"æŀĲ":803,"ä¼ĺ":804,"åŁº":805,"çĶ±":806,"ç»Ħ":807,"éĢł":808,"ç´ł":809,"ç²":810,"æĶ¯":811,"åĪĨæŀĲ":812,"è¿Ĳ":813,"æĮĩ":814,"åģ¥åº·":815,"è±":816,"æµĭ":817,"äººç±»":818,"çľĭ":819,"æľª":820,"æĸ¹æ³ķ":821,"é»":822,"å¢ŀ":823,"çĸĹ":824,"ç«ĭ":825,"AI":826,"åĩĨ":827,"åİ»":828,"åĲĳ":829,"æł¼":830,"åħ¬åı¸":831,"æł·":832,"å»ºè®®":833,"åħĪ":834,"è¨Ģ":835,"åħĥ":836,"å¤ĩ":837,"æĶ¹":838,"åĲĮæĹ¶":839,"æ¸¸":840,"éĩĳ":841,"åı¯ä»¥å¸®åĬ©":842,"éĴ":843,"çĻ":844,"éªĮ":845,"æ¡Ī":846,"è¾¾":847,"æİ¨":848,"æµ·":849,"è¿°":850,"ä¿¡æģ¯":851,"åĲĦ":852,"å®ĥä»¬":853,"è¯į":854,"æĸ¹éĿ¢":855,"åºĶè¯¥":856,"ä»·":857,"åŃĹ":858,"æ¼":859,"äºĨè§£":860,"æĸĩåĮĸ":861,"èı":862,"åĪĴ":863,"æķ´":864,"è®¤":865,"åĨµ":866,"åħ¶ä»ĸ":867,"è§Ĩ":868,"èİ":869,"é¢Ħ":870,"æľºåĻ¨":871,"åİĨ":872,"é¢ĨåŁŁ":873,"å¸¦":874,"èĦ":875,"çĬ":876,"åįķ":877,"éĤ£":878,"æ®µ":879,"ä¸¤":880,"æŀģ":881,"å®Į":882,"åıª":883,"è£":884,"åı£":885,"æĻ¯":886,"å¤ĦçĲĨ":887,"å®īåħ¨":888,"å·²":889,"æĢģ":890,"åŃĺ":891,"å¹¿":892,"æĽ´å¥½åľ°":893,"æ¸ħ":894,"ä¸ī":895,"åıį":896,"è§Ħ":897,"è¯ķ":898,"èĩªçĦ¶":899,"ç¡®ä¿Ŀ":900,"åİŁ":901,"è¯·":902,"æī¾":903,"è®º":904,"åħ±":905,"äººä»¬":906,"ä»»åĬ¡":907,"ç¦":908,"ç³»ç»Ł":909,"éĺŁ":910,"åĢ¼":911,"éĻ©":912,"ä¸ĸ":913,"èĩ´":914,"æİ¥":915,"çŃĸ":916,"åģļ":917,"å¤ª":918,"æĶ¶":919,"ä¿ĿæĬ¤":920,"ç½ĳ":921,"çº¿":922,"è¯Ŀ":923,"åħī":924,"ç¤º":925,"å¤į":926,"åĳ³":927,"ä¿ĿæĮģ":928,"æĪĺ":929,"æĸĩæľ¬":930,"æĶ¿":931,"åĩıå°ĳ":932,"éĵ":933,"20":934,"åĬŁ":935,"ä»Ģ":936,"ç«ł":937,"è¶Ĭ":938,"éĩĩ":939,"æ²¡":940,"åŁİ":941,"è®¸":942,"å¼ķ":943,"èĻĳ":944,"å¿«":945,"æ£":946,"æľįåĬ¡":947,"æİĴ":948,"ç©º":949,"éĢŁ":950,"è¯Ħ":951,"æĬķ":952,"æĺŁ":953,"äº§åĵģ":954,"ä¸ªäºº":955,"åħį":956,"æĢĿ":957,"åĪĻ":958,"ä»¥ä¸ĭæĺ¯":959,"æľªæĿ¥":960,"æĸ½":961,"è·¯":962,"é¡¹":963,"ç»ĥ":964,"ä»Ģä¹Ī":965,"è§£åĨ³":966,"åĽłä¸º":967,"åĨĻ":968,"æĥħåĨµ":969,"ç®¡çĲĨ":970,"éħį":971,"èĮ":972,"ä¸Ķ":973,"è¶³":974,"çĮ":975,"æĸĩç«ł":976,"çķĮ":977,"æĤ¨çļĦ":978,"ä¾¿":979,"å§ĭ":980,"çĶ¨æĪ·":981,"ç¤¾ä¼ļ":982,"èĬ±":983,"åķĨ":984,"ç§¯":985,"åıĤ":986,"æ¤":987,"çħ":988,"è¯Ńè¨Ģ":989,"éļı":990,"ç¬¬":991,"é¦ĸ":992,"æ²»":993,"èĥ½åĬĽ":994,"éĽĨ":995,"èıľ":996,"åĩł":997,"çĹħ":998,"å¦Ĥä½ķ":999,"å®¢æĪ·":1000,"ä¸ŃåĽ½":1001,"è¾ĥ":1002,"ä¹ī":1003,"ç»Ń":1004,"æ°ĳ":1005,"çŃĶ":1006,"åıĭ":1007,"è®¡ç®Ĺ":1008,"åĽ¢":1009,"æ´»åĬ¨":1010,"çĪ±":1011,"çĽ®æłĩ":1012,"ãĢĭ":1013,"ãĢĬ":1014,"æĽ´å¤ļ":1015,"èĤ²":1016,"åĸľ":1017,"èĩ³":1018,"æ¬¢":1019,"ç©¶":1020,"åĶ":1021,"æİ§":1022,"æĺ¯ä¸Ģä¸ª":1023,"é¸":1024,"æ¸©":1025,"æĿĲ":1026,"æĪĳä»¬çļĦ":1027,"è®¡åĪĴ":1028,"æŀĦ":1029,"åĪĹ":1030,"åºı":1031,"æ»¡":1032,"è±¡":1033,"è¥":1034,"æĳ":1035,"æ²¡æľī":1036,"ä»¥åıĬ":1037,"åı¥":1038,"å¸Ĥåľº":1039,"ç¯":1040,"åı²":1041,"çłĶ":1042,"æ³¨æĦı":1043,"è§ģ":1044,"èº«ä½ĵ":1045,"è®°":1046,"çĽ´":1047,"å°ıæĺİ":1048,"è¥¿":1049,"æľĽ":1050,"ç»´":1051,"ä¸įæĸŃ":1052,"ç¥ŀ":1053,"åı¯èĥ½ä¼ļ":1054,"äºĴ":1055,"åĽ¾":1056,"æĺ¯ä¸Ģç§į":1057,"è½»":1058,"æŁ¥":1059,"ä½Ĩæĺ¯":1060,"è®¸å¤ļ":1061,"ä¸ĵ":1062,"åħĭ":1063,"æĥħæĦŁ":1064,"ä¸įåĲĮçļĦ":1065,"æŁĲ":1066,"èģĶ":1067,"éģ¿":1068,"ç»Ĩ":1069,"çĬ¶":1070,"è¿ĩç¨ĭ":1071,"çĲĨè§£":1072,"éĺ³":1073,"ä½łçļĦ":1074,"éľĢæ±Ĥ":1075,"ç®Ĺæ³ķ":1076,"éĢļå¸¸":1077,"10":1078,"ç®Ģ":1079,"æ¶Ī":1080,"èĳ":1081,"åĨħå®¹":1082,"è´¹":1083,"ä¹ĭä¸Ģ":1084,"ä½İ":1085,"çº¢":1086,"å¥¹":1087,"ä»İèĢĮ":1088,"æĹħ":1089,"å®ŀçİ°":1090,"å¥½çļĦ":1091,"æĺĵ":1092,"èĲ¥":1093,"å±±":1094,"å²":1095,"è§Ĵ":1096,"èĢĥèĻĳ":1097,"æĶ¯æĮģ":1098,"è®¾è®¡":1099,"ä¹ĭéĹ´":1100,"è¯ģ":1101,"åĲ¸":1102,"ç¢":1103,"æĪĲä¸º":1104,"å¸Ī":1105,"èİ·":1106,"è®Ń":1107,"åĥ":1108,"ä¹¦":1109,"éĩįè¦ģçļĦ":1110,"19":1111,"ĠĠ":1112,"æħ":1113,"æıı":1114,"è´¨éĩı":1115,"å¯¼èĩ´":1116,"ä»½":1117,"å·²ç»ı":1118,"è¿ĳ":1119,"å¥³":1120,"éģ¿åħį":1121,"èĤī":1122,"éĶĢ":1123,"æĸ¯":1124,"è¿ĲåĬ¨":1125,"æķħ":1126,"åĮ»çĸĹ":1127,"é¥®":1128,"æĬ¥":1129,"éļ¾":1130,"æ¼Ķ":1131,"åĳĬ":1132,"ï¼Ľ":1133,"åĢĻ":1134,"çº¦":1135,"çİ¯ä¿Ŀ":1136,"åı¯ä»¥éĢļè¿ĩ":1137,"äºĮ":1138,"è§ī":1139,"æĬķèµĦ":1140,"åĭ":1141,"ç½®":1142,"æļ":1143,"æĿ¡":1144,"ç±³":1145,"æĲ":1146,"è£ħ":1147,"å¼Ģå§ĭ":1148,"çĶµå½±":1149,"éŁ³ä¹Ĳ":1150,"åĬ¿":1151,"ç²¾":1152,"çĥŃ":1153,"è¿Ļç§į":1154,"æ¨¡åŀĭ":1155,"çĻ½":1156,"çľŁ":1157,"å¤±":1158,"æķĻèĤ²":1159,"ä¸»è¦ģ":1160,"èĢģ":1161,"åıĺåĮĸ":1162,"åĪĨç±»":1163,"åĪ°äºĨ":1164,"è¯»":1165,"å¾ĭ":1166,"ä¸ĸçķĮ":1167,"åĲ¦":1168,"åĥı":1169,"åį³":1170,"å¤´":1171,"é¤":1172,"åħ»":1173,"æŃ¤å¤ĸ":1174,"å¯¹äºİ":1175,"å¯»":1176,"åħ·æľī":1177,"åįĹ":1178,"æķĪçİĩ":1179,"åĪ¶å®ļ":1180,"åŁİå¸Ĥ":1181,"éĻ¤":1182,"ç¿":1183,"è½¬":1184,"çļĦäºº":1185,"åħħ":1186,"èĩªåĬ¨":1187,"åŃ¦çĶŁ":1188,"å»ºç«ĭ":1189,"æĸ°çļĦ":1190,"å¤§çļĦ":1191,"å¼ł":1192,"èģĮ":1193,"ä¼ģ":1194,"æĢ»ä¹ĭ":1195,"èīº":1196,"åĨį":1197,"å¿ħ":1198,"åİĭ":1199,"é¤Ĳ":1200,"å°½":1201,"æİ¢":1202,"å¡":1203,"å¸¦æĿ¥":1204,"ç¯ĩ":1205,"çłĶç©¶":1206,"åĳ½":1207,"è´Ń":1208,"äº«":1209,"å¢ŀåĬł":1210,"éĻħ":1211,"åĲ¬":1212,"ä¸Ģç§į":1213,"æīĵ":1214,"é£İéĻ©":1215,"è¡Įä¸º":1216,"äººçļĦ":1217,"åİĨåı²":1218,"çīĩ":1219,"å¸Į":1220,"åĽ¢éĺŁ":1221,"åĪ©çĶ¨":1222,"æ¢":1223,"æīį":1224,"åħ´":1225,"è¶£":1226,"æĵ":1227,"å®ļçļĦ":1228,"èĽ":1229,"å¸ĥ":1230,"éĹ¨":1231,"åı°":1232,"åįĩ":1233,"æııè¿°":1234,"ç´¢":1235,"åıĳçİ°":1236,"åĲĦç§į":1237,"åħ³ç³»":1238,"äº§çĶŁ":1239,"çĶŁæĪĲ":1240,"åºŃ":1241,"èħ":1242,"éĶ®":1243,"Ġ=":1244,"ä¼ģä¸ļ":1245,"çª":1246,"åĳ¨":1247,"æĪĸèĢħ":1248,"ä»ħ":1249,"ç³ĸ":1250,"èµĦæºĲ":1251,"æİ§åĪ¶":1252,"æİª":1253,"éĺ²":1254,"é²":1255,"åĽ´":1256,"ç§°":1257,"åĬ¨çī©":1258,"éĢĤåĲĪ":1259,"ä»ĸä»¬çļĦ":1260,"åĸľæ¬¢":1261,"çĶ¨äºİ":1262,"çĽĳ":1263,"çĭ¬":1264,"å®ĮæĪĲ":1265,"åĲ«":1266,"ç¡®å®ļ":1267,"èŃ":1268,"æľĭ":1269,"é¦ĸåħĪ":1270,"æ¯ıä¸ª":1271,"å¨":1272,"æĿ¾":1273,"æĮĳ":1274,"æĪĳä»¬åı¯ä»¥":1275,"åŃ©":1276,"çļĦå½±åĵį":1277,"å¾·":1278,"å¯Ĩ":1279,"è®¤ä¸º":1280,"æĴ":1281,"æ²¹":1282,"æİªæĸ½":1283,"çļĦåıĳå±ķ":1284,"æĪ¿":1285,"ä¸ľ":1286,"æľĭåıĭ":1287,"ç§¯æŀģ":1288,"çı":1289,"Ġ1":1290,"è¯ĨåĪ«":1291,"äº¤éĢļ":1292,"ä¹°":1293,"æľºåĻ¨åŃ¦ä¹ł":1294,"é¦Ļ":1295,"æĪı":1296,"æĺ¯åĲ¦":1297,"æĸ¹æ¡Ī":1298,"æĢ§åĴĮ":1299,"æ¬¾":1300,"çĽ¸åħ³":1301,"éĻį":1302,"Â·":1303,"æ¤į":1304,"åľ°çĲĥ":1305,"åı¤":1306,"åŃĺåľ¨":1307,"å®¶åºŃ":1308,"ç«Ļ":1309,"åħ³éĶ®":1310,"å¯Į":1311,"ï¼ģ":1312,"ä¼Ĺ":1313,"ç¦»":1314,"èŀ":1315,"åįģ":1316,"æĽ´å¤ļçļĦ":1317,"å·§":1318,"é»ĳ":1319,"éĻĲ":1320,"çĽĬ":1321,"äºī":1322,"åĮĹ":1323,"è°¢":1324,"éĩĩåıĸ":1325,"åĽłç´ł":1326,"å°Ķ":1327,"æŁĵ":1328,"åħ¶ä¸Ń":1329,"æĮĳæĪĺ":1330,"ä¸»é¢ĺ":1331,"å¹²":1332,"ä¼°":1333,"å°Ŀ":1334,"å£«":1335,"åħ¨çĲĥ":1336,"åĸĦ":1337,"èµĽ":1338,"æĭī":1339,"ç§ĳæĬĢ":1340,"èĽĭ":1341,"è¡¨è¾¾":1342,"çķ¥":1343,"åħ·ä½ĵ":1344,"ä»¥ä¸ĭæĺ¯ä¸ĢäºĽ":1345,"çħ§":1346,"çº§":1347,"æµİ":1348,"Ġ-":1349,"æľīæķĪ":1350,"å¹¶ä¸Ķ":1351,"è®Ńç»ĥ":1352,"ä¸½":1353,"ä»Ĭ":1354,"åºľ":1355,"å¸ĮæľĽ":1356,"å¾ĹåĪ°":1357,"æľĢåĲİ":1358,"æŃĮ":1359,"çģ«":1360,"åħ³äºİ":1361,"å¾Īå¤ļ":1362,"å±ħ":1363,"èĭ±":1364,"åı·":1365,"åĩĨç¡®":1366,"ç»Ī":1367,"æĿĥ":1368,"æīĢæľī":1369,"åĽĽ":1370,"èĲ½":1371,"åĽŀçŃĶ":1372,"æ³Ľ":1373,"èŀį":1374,"ä¼łç»Ł":1375,"èī¯":1376,"æ¸¸æĪı":1377,"éĥ¨åĪĨ":1378,"éļıçĿĢ":1379,"æĿĤ":1380,"æ¹":1381,"åĬłåħ¥":1382,"å·¥åħ·":1383,"æŀĹ":1384,"é©¬":1385,"å¾ģ":1386,"è´Ł":1387,"æ¦":1388,"çİĭ":1389,"æĮģç»Ń":1390,"ä»¥ä¸Ĭ":1391,"æ¿":1392,"å®³":1393,"é¢Ħæµĭ":1394,"ç»ıæµİ":1395,"æĿİ":1396,"çīĮ":1397,"æķ°åŃĹ":1398,"æĿĲæĸĻ":1399,"ç»ľ":1400,"åĪ¶ä½ľ":1401,"åĶ®":1402,"åĿĩ":1403,"è¾ĵ":1404,"ç§ĳåŃ¦":1405,"éĶĻ":1406,"ä»·åĢ¼":1407,"é¼":1408,"åĪĩ":1409,"ä¸Ģèµ·":1410,"è¿Ļæł·":1411,"åł":1412,"åįİ":1413,"çĭĹ":1414,"è¿ľ":1415,"æĿ¥è¯´":1416,"å¤ªéĺ³":1417,"çĶ»":1418,"çŁŃ":1419,"èİ·å¾Ĺ":1420,"æ²»çĸĹ":1421,"è¡¨çİ°":1422,"æĬĬ":1423,"å£°":1424,"ç¤¾äº¤":1425,"åĦ":1426,"æĪĳä»¬éľĢè¦ģ":1427,"æ£Ģ":1428,"ä¿®":1429,"æĪĲåĬŁ":1430,"ä½ľä¸º":1431,"æķħäºĭ":1432,"åĮ»çĶŁ":1433,"æĬĢèĥ½":1434,"äºļ":1435,"èīºæľ¯":1436,"éĩĬ":1437,"çĨ":1438,"éª¤":1439,"éĩıçļĦ":1440,"åįı":1441,"ä½ľçĶ¨":1442,"æĤ¨åı¯ä»¥":1443,"èĥ½æºĲ":1444,"æŃ¥éª¤":1445,"åĵª":1446,"å®¤":1447,"å¹¿æ³Ľ":1448,"å¾Ģ":1449,"å¿µ":1450,"åħ³æ³¨":1451,"çĶŁäº§":1452,"ä»ĭ":1453,"ä¹ĭéĹ´çļĦ":1454,"åı¦":1455,"è¯Ħä¼°":1456,"çļĦéĹ®é¢ĺ":1457,"ç»ĵæŀľ":1458,"åĬĽåĴĮ":1459,"ä¸¤ä¸ª":1460,"åı¥åŃĲ":1461,"åĬ±":1462,"åª":1463,"æ²Ł":1464,"èŃ¦":1465,"åĬŁèĥ½":1466,"é±":1467,"æ¿Ģ":1468,"åıĹåĪ°":1469,"åĩºçİ°":1470,"ä½ĵéªĮ":1471,"æ½":1472,"éħĴ":1473,"æ±¡":1474,"åĽŃ":1475,"é±¼":1476,"ä¸ĬçļĦ":1477,"è®¾å¤ĩ":1478,"è´£":1479,"ç½ĳç»ľ":1480,"é¾":1481,"æĦŁåĪ°":1482,"ä»¥ä¾¿":1483,"çŃīçŃī":1484,"éĻ¢":1485,"çĦ¶åĲİ":1486,"åŃ£":1487,"è¾¹":1488,"å±Ĥ":1489,"æĭ¥":1490,"æī¾åĪ°":1491,"èµ°":1492,"æľºä¼ļ":1493,"çļĦéĩįè¦ģ":1494,"æĪĳçļĦ":1495,"è¡¡":1496,"é¥®é£Ł":1497,"æĮī":1498,"é¸¡":1499,"å°Ŀè¯ķ":1500,"åĪĽéĢł":1501,"åĲĪä½ľ":1502,"åªĴ":1503,"åıĳçĶŁ":1504,"å±ŀ":1505,"ä¸ĵä¸ļ":1506,"çŃĳ":1507,"èĳĹ":1508,"åŃ©åŃĲ":1509,"æĶ¿åºľ":1510,"æ²ŁéĢļ":1511,"é»Ħ":1512,"èį¯":1513,"éĤ£ä¹Ī":1514,"ä»ĸçļĦ":1515,"çļĦæĺ¯":1516,"é£Łçī©":1517,"äººå·¥æĻºèĥ½æĬĢæľ¯":1518,"é¢ľ":1519,"åĲĹ":1520,"ç»ĩ":1521,"ç¼ĸ":1522,"å»ºçŃĳ":1523,"æ±¡æŁĵ":1524,"ä¸įä»ħ":1525,"çŁ¥è¯Ĩ":1526,"åĿĹ":1527,"åĦ¿":1528,"å¤įæĿĤ":1529,"Ġ2":1530,"èĮĥ":1531,"å¯¹è¯Ŀ":1532,"åĲĥ":1533,"in":1534,"è´¢":1535,"èĴ":1536,"è°ĥæķ´":1537,"æ¤įçī©":1538,"ä¸įæĺ¯":1539,"éĴŁ":1540,"ä¹Łæĺ¯":1541,"æĬĢå·§":1542,"çļĦåºĶçĶ¨":1543,"åĤ":1544,"çİ©":1545,"åĨ³çŃĸ":1546,"çĥ¤":1547,"æĹłæ³ķ":1548,"æ¯Ķå¦Ĥ":1549,"çĶ·":1550,"ä¼ĺåĮĸ":1551,"ä¿ĥ":1552,"ä»»ä½ķ":1553,"äºĨä¸Ģ":1554,"åĨĽ":1555,"ç¬¦":1556,"çļĦä¸Ģ":1557,"æłĳ":1558,"åĽ°":1559,"è¡Įä¸ļ":1560,"åĬª":1561,"ç§ģ":1562,"åªĴä½ĵ":1563,"æķĪæŀľ":1564,"è¯¯":1565,"ç¼º":1566,"æĤ£":1567,"çªģ":1568,"éļĲ":1569,"çŁ³":1570,"éģĩ":1571,"æīĢä»¥":1572,"çİ°ä»£":1573,"è¡¨ç¤º":1574,"äºĶ":1575,"ä¸¥":1576,"å¼Ĥ":1577,"å·®":1578,"ä½ı":1579,"æĻ®":1580,"åĩ»":1581,"çĮ«":1582,"é¡¹çĽ®":1583,"é£ŀ":1584,"æ°ĶåĢĻ":1585,"åľŁ":1586,"ä¸ºäºĨ":1587,"åĩłä¸ª":1588,"è¶ħ":1589,"æĽ²":1590,"çĶŁçī©":1591,"çļĦåľ°":1592,"è¿ĩç¨ĭä¸Ń":1593,"ç»į":1594,"çĶ±äºİ":1595,"é¢ľèī²":1596,"å¾ħ":1597,"åĳĺå·¥":1598,"åĵģçīĮ":1599,"å¿ĥçĲĨ":1600,"çīĽ":1601,"è®¡ç®Ĺæľº":1602,"ç»ĵæŀĦ":1603,"åĮĸçļĦ":1604,"æį¢":1605,"ç»ıéªĮ":1606,"åŁ¹":1607,"éĥ½æĺ¯":1608,"è´Ńä¹°":1609,"çĳ":1610,"ç¦ı":1611,"æ¯Ķè¾ĥ":1612,"æ³¢":1613,"äº¤æµģ":1614,"æĺ¾":1615,"èįī":1616,"æľºåĻ¨äºº":1617,"åħ±åĲĮ":1618,"é²ľ":1619,"çĵ":1620,"æ¥":1621,"æ©":1622,"ç»Ħç»ĩ":1623,"å·ŀ":1624,"æľīåĬ©":1625,"èĥĮ":1626,"¾çĹħ":1627,"åĬłå¼º":1628,"å°Ĭ":1629,"ç®Ģåįķ":1630,"ä»ĭç»į":1631,"è®¨":1632,"ä»·æł¼":1633,"æ±½":1634,"ç´§":1635,"æŃ¢":1636,"æĢ§çļĦ":1637,"çī¹å¾ģ":1638,"æīįèĥ½":1639,"å½ķ":1640,"è¦ģæ±Ĥ":1641,"æĿ¥è¶Ĭ":1642,"15":1643,"å®Ŀ":1644,"ä½ľåĵģ":1645,"ä¼¼":1646,"ä¸ĩ":1647,"è¿½":1648,"è¶ĬæĿ¥è¶Ĭ":1649,"æŃ£åľ¨":1650,"èµ·æĿ¥":1651,"ä¸įè¦ģ":1652,"éĺħ":1653,"12":1654,"ç¾¤":1655,"é£İæł¼":1656,"çŃĸçķ¥":1657,"æľīåĬ©äºİ":1658,"åĪ»":1659,"è¿ŀ":1660,"è§£éĩĬ":1661,"åº¦åĴĮ":1662,"å·´":1663,"äº²":1664,"æĪĲåĳĺ":1665,"åĿļ":1666,"æ¦Ĥ":1667,"èĶ":1668,"åĳ¼":1669,"æ´ĭ":1670,"é©¶":1671,"åĩĨå¤ĩ":1672,"ç±»åŀĭ":1673,"æĻļ":1674,"åį¡":1675,"ä¸°":1676,"çŁ¥éģĵ":1677,"æĹı":1678,"è½¯":1679,"çĶŁæĢģ":1680,"éĶĢåĶ®":1681,"ä»¥ç¡®ä¿Ŀ":1682,"ä¹Łåı¯ä»¥":1683,"å¾®":1684,"å¥¶":1685,"æł¡":1686,"å©":1687,"éĨ":1688,"ç»¿":1689,"ç»ª":1690,"å¯»æī¾":1691,"èĩªçĦ¶è¯Ńè¨Ģ":1692,"æĭŁ":1693,"åºĹ":1694,"åĪ¤":1695,"ä¸Ģç¯ĩ":1696,"èĵ":1697,"æĳĦ":1698,"éº":1699,"åī§":1700,"ä¼¤":1701,"æ¯į":1702,"æĭ¥æľī":1703,"éĢĲ":1704,"æİ¢ç´¢":1705,"æĹ©":1706,"åĬªåĬĽ":1707,"çĸ¾çĹħ":1708,"ç»ĥä¹ł":1709,"å½ĵåľ°":1710,"æ²³":1711,"åĪĽæĸ°":1712,"ç²ī":1713,"é¼ĵ":1714,"è¿ĺæľī":1715,"çļĦæĸ¹æ³ķ":1716,"èįĲ":1717,"èĪĴ":1718,"éĿĻ":1719,"è¡ĮåĬ¨":1720,"è§Ĵèī²":1721,"çĶŁåĳ½":1722,"æ²Ļ":1723,"ä¸´":1724,"à¸":1725,"æ´ģ":1726,"æİ¨èįĲ":1727,"å¿«éĢŁ":1728,"å½Ĵ":1729,"è¶ĭ":1730,"çķĻ":1731,"éĩĩçĶ¨":1732,"ç»¼":1733,"æŃ£ç¡®":1734,"åĪĨéĴŁ":1735,"å¥ĩ":1736,"è¯ī":1737,"æĶ¹åıĺ":1738,"å±Ģ":1739,"ç¨ĭåºı":1740,"æħ¢":1741,"çľģ":1742,"AIæĬĢæľ¯":1743,"åıĪ":1744,"èģĮä¸ļ":1745,"éĺħè¯»":1746,"çĶµåŃĲ":1747,"å¦ĤæŀľæĤ¨":1748,"èĪŀ":1749,"æķ£":1750,"ï¼īï¼Į":1751,"æĿ¿":1752,"åħ´è¶£":1753,"è®²":1754,"æ°§":1755,"ä¿ĥè¿Ľ":1756,"æĥħç»ª":1757,"200":1758,"ç½Ĺ":1759,"éĹ»":1760,"æķ°éĩı":1761,"åıĺå¾Ĺ":1762,"é¢ĳ":1763,"è¯ŃéŁ³":1764,"éĻįä½İ":1765,"éĩĳèŀį":1766,"åģļåĩº":1767,"å®ŀéĻħ":1768,"å°Ĩä¼ļ":1769,"éĢłæĪĲ":1770,"è¶ĭåĬ¿":1771,"æµª":1772,"åİ¿":1773,"çī©è´¨":1774,"ç§»":1775,"æĭħ":1776,"æĹħæ¸¸":1777,"è¯Ĭ":1778,"åħĥç´ł":1779,"à¤":1780,"æ³ķå¾ĭ":1781,"åİĭåĬĽ":1782,"åı¯ä»¥åľ¨":1783,"é£Łåĵģ":1784,"åľ°åĮº":1785,"åİħ":1786,"æ¸Ĳ":1787,"æĽ´å¥½çļĦ":1788,"æ±½è½¦":1789,"çĩ":1790,"é©¾":1791,"äººåĳĺ":1792,"æĶ¾æĿ¾":1793,"æĹħè¡Į":1794,"æľĢç»Ī":1795,"ä¸ĢæŃ¥":1796,"æĪĲæľ¬":1797,"åĨľ":1798,"åıĤä¸İ":1799,"æ°´å¹³":1800,"åİŁåĽł":1801,"å¢ŀå¼º":1802,"èĻ½":1803,"åĴĸ":1804,"ä»£è¡¨":1805,"æī¿":1806,"èª":1807,"å®ĥçļĦ":1808,"å¼Ģåıĳ":1809,"çī¹çĤ¹":1810,"Ġ3":1811,"ç¥¨":1812,"ä»¤":1813,"é¢Ŀ":1814,"åı¯æĮģç»Ń":1815,"æ½ľ":1816,"äº¬":1817,"åħ¸":1818,"éŃ":1819,"èĤ¡":1820,"ç¨³":1821,"åĲ¸å¼ķ":1822,"çİ°åľ¨":1823,"çļ®":1824,"èģĶç³»":1825,"æľ¨":1826,"å¹³è¡¡":1827,"å¤ı":1828,"ç¾İåĽ½":1829,"ç¼ĵ":1830,"ä¸Ģä¸ĭ":1831,"ä¸¾":1832,"è¡Ģ":1833,"é¡»":1834,"æ·±åº¦":1835,"èľ":1836,"åº§":1837,"»çĤ":1838,"å½©":1839,"ä½įç½®":1840,"å¯Ł":1841,"é¦Ī":1842,"å®ļæľŁ":1843,"åģĩ":1844,"åħ¬åı¸çļĦ":1845,"æļĸ":1846,"èĻ½çĦ¶":1847,"ä¸°å¯Į":1848,"æĦıè¯Ĩ":1849,"è¿Ļæĺ¯":1850,"æĤ£èĢħ":1851,"æĥ¯":1852,"ŀäºī":1853,"åıĮ":1854,"åŁºæľ¬":1855,"åŁºäºİ":1856,"æ¯ıä¸ªäºº":1857,"éĢĤåºĶ":1858,"å°±æĺ¯":1859,"ä¸ªæĢ§":1860,"çģµ":1861,"å°Ħ":1862,"èĶ¬":1863,"çºª":1864,"ĥåľ":1865,"åĪĿ":1866,"åŀĥåľ":1867,"åŀĥåľ¾":1868,"åºĶå¯¹":1869,"åıįé¦Ī":1870,"éļĲç§ģ":1871,"ä¸Ģä»½":1872,"çļĦæĹ¶éĹ´":1873,"åķ¡":1874,"è¯¢":1875,"è¡£":1876,"ä¾Ŀ":1877,"å¿Ĺ":1878,"è±Ĩ":1879,"æĶ¹è¿Ľ":1880,"åį°":1881,"äºĭä»¶":1882,"æİĮ":1883,"å¤ļç§į":1884,"éļľ":1885,"åģı":1886,"èĩªçĦ¶è¯Ńè¨Ģå¤ĦçĲĨ":1887,"åĴĸåķ¡":1888,"æľĢè¿ĳ":1889,"èĭ¹":1890,"åıĤåĬł":1891,"èĭ¹æŀľ":1892,"åıĬæĹ¶":1893,"æ´Ĺ":1894,"çļĦç¾":1895,"å¸¸è§ģ":1896,"å®¹æĺĵ":1897,"å¨ģ":1898,"ç»§":1899,"é¦Ĩ":1900,"çĦ¶èĢĮ":1901,"æĵį":1902,"æł¸":1903,"ä»į":1904,"æ´²":1905,"æ°´æŀľ":1906,"åı¯ä»¥è®©":1907,"éĺ¿":1908,"æĿĳ":1909,"çŃīæĸ¹éĿ¢":1910,"ä¸įèĥ½":1911,"èĹ":1912,"èĶ¬èıľ":1913,"ä¸Ģæ®µ":1914,"åĨ°":1915,"ä½¿å¾Ĺ":1916,"é¼ĵåĬ±":1917,"çŃĶæ¡Ī":1918,"æĢĿèĢĥ":1919,"ç¤¾äº¤åªĴä½ĵ":1920,"å¿ħé¡»":1921,"ä¸įä¼ļ":1922,"éĿĴ":1923,"æĺ¯æĮĩ":1924,"ä¹łæĥ¯":1925,"å°ıè¯´":1926,"å½¢æĪĲ":1927,"è¯Ĺ":1928,"åŁºç¡":1929,"åŁºç¡Ģ":1930,"åĬŀ":1931,"å®ĺ":1932,"éĥ½æľī":1933,"âĢĿï¼Į":1934,"åį«":1935,"æ¯ĶèµĽ":1936,"æ¶ī":1937,"çł´":1938,"18":1939,"æī§":1940,"èĪĴéĢĤ":1941,"èĦĳ":1942,"æĶ¹åĸĦ":1943,"ä¸Ģä½į":1944,"ä»ĺ":1945,"å°¼":1946,"é©¾é©¶":1947,"ing":1948,"çľł":1949,"ä¼ĳ":1950,"æĦ¿":1951,"éĢŁåº¦":1952,"èī²çļĦ":1953,"30":1954,"åľºæĻ¯":1955,"ç©¿":1956,"å¯»æ±Ĥ":1957,"éĿł":1958,"åı¶":1959,"èĩªåĬ¨åĮĸ":1960,"æĦıä¹ī":1961,"Ġ+":1962,"èĲ¥éĶĢ":1963,"äººç±»çļĦ":1964,"ä¸Ģæ¬¡":1965,"è¯¦":1966,"è¿ĺåı¯ä»¥":1967,"åĽ½å®¶":1968,"æķ´ä¸ª":1969,"è¯ĬæĸŃ":1970,"ä¸Ńå¿ĥ":1971,"ä½³":1972,"éĽ¨":1973,"æ»¡è¶³":1974,"å¤ľ":1975,"åı¯ä»¥å¸®åĬ©æĤ¨":1976,"åħ¶æ¬¡":1977,"èĩªæĪĳ":1978,"é¡¾":1979,"æĹ¶åĢĻ":1980,"æĽ¾":1981,"æķ°åŃ¦":1982,"è´£ä»»":1983,"åĨ·":1984,"é¥°":1985,"çĭ¬çī¹":1986,"è¯¾":1987,"âĢĶ":1988,"çĮ®":1989,"æįŁ":1990,"æĿ¯":1991,"æľĿ":1992,"æ°ĶåĢĻåıĺåĮĸ":1993,"æĥħåĨµä¸ĭ":1994,"çĽĲ":1995,"æ¶Īè´¹":1996,"æĺİç¡®":1997,"æĶ¿çŃĸ":1998,"éĵģ":1999,"æ£ĢæŁ¥":2000,"æĲŃ":2001,"çļĦç¾İ":2002,"ç¤¼":2003,"èĻļ":2004,"åĤ¨":2005,"ç¬Ķ":2006,"åĲĮæĹ¶ä¹Ł":2007,"æ¢¦":2008,"è·Ł":2009,"æīĭæľº":2010,"å¤ļä¸ª":2011,"ä¸ĢçĽ´":2012,"å·¨":2013,"çĦ¦":2014,"å½¢å¼ı":2015,"éĢı":2016,"ç»Ļåĩº":2017,"çļĦå·¥ä½ľ":2018,"æı¡":2019,"æ··":2020,"éĴĪ":2021,"äºĳ":2022,"çļĦç¤":2023,"åıªæľī":2024,"æ´ŀ":2025,"çļĦæĸĩç«ł":2026,"è¿ĺæĺ¯":2027,"é«ĺæķĪ":2028,"å®ĥä»¬çļĦ":2029,"åĳ¼åĲ¸":2030,"æĦŁè§ī":2031,"å°Ĭéĩį":2032,"è¿İ":2033,"åĨ²":2034,"äº®":2035,"æĶ¶éĽĨ":2036,"åı¯ä»¥ä½¿çĶ¨":2037,"åºķ":2038,"éĢĤå½ĵ":2039,"èī¯å¥½çļĦ":2040,"äºĨä¸Ģä¸ª":2041,"èĵĿ":2042,"è§£åĨ³æĸ¹æ¡Ī":2043,"è¶³å¤Ł":2044,"Ġåľ¨":2045,"åĮħåĲ«":2046,"æ±Ł":2047,"æĸ¹åĲĳ":2048,"ç»ĦæĪĲ":2049,"éħ±":2050,"çĨŁ":2051,"æ¯ıå¤©":2052,"å¤§éĩıçļĦ":2053,"é«ĺçļĦ":2054,"è¾Ĩ":2055,"çľ¼":2056,"æĪĳä¼ļ":2057,"æĸ°éĹ»":2058,"èĩªçĶ±":2059,"æľªæĿ¥çļĦ":2060,"é¾Ļ":2061,"å¥ĸ":2062,"éĵ¾":2063,"èĲ¥åħ»":2064,"éĩİ":2065,"é¸Ł":2066,"èĸ":2067,"åħ°":2068,"è¯¦ç»Ĩ":2069,"æĦŁåıĹ":2070,"åįļ":2071,"å³":2072,"åĲĪéĢĤ":2073,"æľīåħ³":2074,"åıįåºĶ":2075,"ç«ŀäºī":2076,"__":2077,"åĪĨäº«":2078,"çļĦçĶŁæ´»":2079,"èĮĥåĽ´":2080,"çĹĩ":2081,"å®£":2082,"æĮīçħ§":2083,"æĵįä½ľ":2084,"åħħæ»¡":2085,"åģľ":2086,"æµģç¨ĭ":2087,"è·ĳ":2088,"çĿ¡":2089,"æĢ¥":2090,"æ¨¡å¼ı":2091,"åĿı":2092,"çĽ®åīį":2093,"å°ļ":2094,"çº³":2095,"éĶ»çĤ":2096,"éĶ»çĤ¼":2097,"æŁĲäºĽ":2098,"æŃ§":2099,"ç»§ç»Ń":2100,"åŃ¦ä¹łåĴĮ":2101,"èĥĮæĻ¯":2102,"åĲĪçĲĨ":2103,"çľĭåĪ°":2104,"å²ģ":2105,"æĺ¥":2106,"ä½łåı¯ä»¥":2107,"ç§ĺ":2108,"æıĲåıĸ":2109,"æĺ¯åľ¨":2110,"è¿ĻéĩĮ":2111,"å¹¸":2112,"å¤ļå°ĳ":2113,"å¡ĳ":2114,"çļĦæķ°æį®":2115,"èĢĮä¸Ķ":2116,"è®°å½ķ":2117,"å¹³åı°":2118,"è§ĤçĤ¹":2119,"åĽ¾åĥı":2120,"åĪĨéħį":2121,"æľºæŀĦ":2122,"åĳ¢":2123,"åľ¨è¿Ļä¸ª":2124,"ä¸Ģå®ļ":2125,"æİĴåºı":2126,"å¤©æ°Ķ":2127,"an":2128,"åı¯ä»¥å¸®åĬ©ä½ł":2129,"è¾ĳ":2130,"ä½įäºİ":2131,"å®Ī":2132,"å¿ħè¦ģ":2133,"çħ®":2134,"å²Ľ":2135,"æĥ³æ³ķ":2136,"èĳĹåĲį":2137,"ç©ºæ°Ķ":2138,"çļĦçŁ":2139,"æ¤Ĵ":2140,"æĸĩåŃ¦":2141,"åį±":2142,"çĸĳ":2143,"æĿ¡ä»¶":2144,"çļĦä¿¡æģ¯":2145,"éĶĻè¯¯":2146,"æłĩåĩĨ":2147,"åĵªäºĽ":2148,"åĽ°éļ¾":2149,"ä¼¦":2150,"ä½Ļ":2151,"æµĭè¯ķ":2152,"èĨ":2153,"å®ĩ":2154,"Ġ\"":2155,"èĮ¶":2156,"000":2157,"è·Ŀ":2158,"ä¸ºæĤ¨":2159,"ç¹":2160,"åĨ³å®ļ":2161,"åı£æĦŁ":2162,"çļĦçł":2163,"çļĦå»ºè®®":2164,"çĽĸ":2165,"11":2166,"ç¿»":2167,"éĿ¢çļĦ":2168,"æĶ»":2169,"çĸ«":2170,"é¤Ĳåİħ":2171,"ç»ıåİĨ":2172,"åĪĽä½ľ":2173,"å¦Ĥæŀľä½ł":2174,"åĵĪ":2175,"Ġ5":2176,"è¿Ľä¸ĢæŃ¥":2177,"ä¸ĢåĲį":2178,"éĴ±":2179,"æ·»":2180,"ç³ĸæŀľ":2181,"éĢĲæ¸Ĳ":2182,"éĢģ":2183,"æķĪçİĩåĴĮ":2184,"æĴŃ":2185,"åĬĽéĩı":2186,"å¹´è½»":2187,"æķĳ":2188,"æ¯Ĵ":2189,"ä¹ĭåīį":2190,"è§ĦåĪĴ":2191,"è¾ĵåħ¥":2192,"è´§":2193,"å¤ļæł·":2194,"éľĢè¦ģæ³¨æĦı":2195,"äº«åıĹ":2196,"å®¶å±ħ":2197,"16":2198,"åįĬ":2199,"æİĴæĶ¾":2200,"âĢĿãĢĤ":2201,"ç©ºéĹ´":2202,"ç¥ŀç»ı":2203,"éĵ¶":2204,"æľīè¶£":2205,"çī¹åĪ«":2206,"äºĭæĥħ":2207,"Ba":2208,"æ¸©åº¦":2209,"å·¦":2210,"ç«¯":2211,"ãĢĤâĢĿ":2212,"æĮ¥":2213,"æ¯Ľ":2214,"ä¸įåı¯":2215,"éħ¸":2216,"éķĩ":2217,"æĢ»çļĦ":2218,"å¤«":2219,"æĩ":2220,"åı³":2221,"ç¬¬äºĮ":2222,"æĹ¥å¸¸":2223,"è¸":2224,"æ·±åħ¥":2225,"ç¾İä¸½":2226,"æ¶īåıĬ":2227,"æ³¨éĩį":2228,"å°Ĩåħ¶":2229,"æĺ¯çļĦ":2230,"åį´":2231,"çģ¯":2232,"çļĦç¤¾":2233,"è¿ĽæŃ¥":2234,"ä¸¥éĩį":2235,"Ġ(":2236,"åħ³éĶ®è¯į":2237,"èĪª":2238,"èĢħçļĦ":2239,"æĢ»çļĦæĿ¥è¯´":2240,"ç¢³":2241,"éĿ¢ä¸´":2242,"æıĲåĩº":2243,"æ±¤":2244,"éĤ®":2245,"åķĨä¸ļ":2246,"çĬ¶æĢģ":2247,"æİĮæı¡":2248,"é¡º":2249,"éģĹ":2250,"çĬ¯":2251,"ä»Ĭå¤©":2252,"å¤§åŃ¦":2253,"å¯¹è¯ĿåĨħå®¹":2254,"å©ļ":2255,"ä¸īä¸ª":2256,"çº¸":2257,"ĠĠĠĠ":2258,"æ£®":2259,"æĹ¥æľ¬":2260,"åĴĮåħ¶ä»ĸ":2261,"éĶħ":2262,"èĪ¬":2263,"ç»Ļå®ļçļĦ":2264,"æľīäºĽ":2265,"é¢Ĺ":2266,"å®ŀéªĮ":2267,"å®¡":2268,"æĢ»ç»ĵ":2269,"è¿Ļæ®µ":2270,"çģ¾":2271,"æĬĺ":2272,"èĥľ":2273,"ç¬¦åĲĪ":2274,"æĹ¶éĹ´åĴĮ":2275,"éĿ©":2276,"éĹ®é¢ĺçļĦ":2277,"è½¯ä»¶":2278,"æĢİ":2279,"zing":2280,"èģļ":2281,"Bazing":2282,"Bazinga":2283,"åĳĬè¯ī":2284,"åĭĩ":2285,"èĦĤ":2286,"åŁ¹è®Ń":2287,"çļĦçľ":2288,"æĢ§èĥ½":2289,"åĢĴ":2290,"å®ł":2291,"ç½ª":2292,"èģĶç½ĳ":2293,"çī©åĵģ":2294,"éĢĶ":2295,"çĽ¸äºĴ":2296,"è´ŁéĿ¢":2297,"æĽ´å¥½åľ°çĲĨè§£":2298,"æľīçĿĢ":2299,"éĻĲåĪ¶":2300,"è´¡":2301,"æŃ§è§Ĩ":2302,"åŃ¦æł¡":2303,"ä¼´":2304,"ï¼ļâĢľ":2305,"è®¨è®º":2306,"æİ¨åĬ¨":2307,"ä¼½":2308,"çĬ¶åĨµ":2309,"éģµ":2310,"åįĥ":2311,"æıĲä¾ĽäºĨ":2312,"èį¯çī©":2313,"éģĵå¾·":2314,"å°ıçº¢":2315,"åĺ":2316,"çĻ¾":2317,"è¯´æĺİ":2318,"æĲľ":2319,"ç®±":2320,"æĲŃéħį":2321,"åĪ¶éĢł":2322,"æŃ»":2323,"XX":2324,"ä¹Łä¼ļ":2325,"ä¹ħ":2326,"æķ°æį®çļĦ":2327,"èĤĮ":2328,"çİ°å®ŀ":2329,"ä¿Ŀè¯ģ":2330,"çĦ¦èĻĳ":2331,"å¥ı":2332,"åĮĸåŃ¦":2333,"é¢ĺçĽ®":2334,"50":2335,"æĬĢæľ¯çļĦ":2336,"å¤§åĪ©":2337,"å¼ºè°ĥ":2338,"éĢĻ":2339,"æ¥¼":2340,"ç¹ģ":2341,"çıŃ":2342,"çļĦçĥ":2343,"æĹ¥æľŁ":2344,"å¼ķèµ·":2345,"è´µ":2346,"Ġå°Ĩ":2347,"è°ĥæŁ¥":2348,"ç¾İé£Ł":2349,"å§Ķ":2350,"æ·±åº¦åŃ¦ä¹ł":2351,"æ±ī":2352,"ç¨³å®ļ":2353,"åįĪ":2354,"çļĦæĸ¹å¼ı":2355,"å½ĵçĦ¶":2356,"æİ¥åıĹ":2357,"æµ·æ´ĭ":2358,"åĮ»åŃ¦":2359,"éľĢæ±ĤåĴĮ":2360,"è´¢åĬ¡":2361,"èĹı":2362,"åĽº":2363,"å®łçī©":2364,"å¹³åĿĩ":2365,"ĠÐ":2366,"å°ıæĹ¶":2367,"æĪĳä»¬åºĶè¯¥":2368,"ç»´æĬ¤":2369,"æ¸ħæ´ģ":2370,"æĥ³è¦ģ":2371,"çĥĪ":2372,"åķĨåĵģ":2373,"è®¿":2374,"æ¼«":2375,"æıĲåįĩ":2376,"ľä¼½":2377,"å¤§éĩı":2378,"æĢĿæĥ³":2379,"å®Ĺ":2380,"åĢĭ":2381,"æİ¨å¹¿":2382,"æľīæīĢ":2383,"ä¸ºä»Ģä¹Ī":2384,"å«":2385,"æĺ¯ä»Ģä¹Ī":2386,"å±ķç¤º":2387,"åĴĮæĸĩåĮĸ":2388,"è´¡çĮ®":2389,"æī©":2390,"è¡¨æĺİ":2391,"çĶ¨çļĦ":2392,"çĽ¸ä¿¡":2393,"æ¬¢è¿İ":2394,"è¾¾åĪ°":2395,"è¯ļ":2396,"äºĴåĬ¨":2397,"ä¸ĭæĿ¥":2398,"èĢģå¸Ī":2399,"æ¹ĸ":2400,"èĥ¡":2401,"æĮĩå¯¼":2402,"åĬĽçļĦ":2403,"äººæ°ĳ":2404,"ç»Ŀ":2405,"çĽĺ":2406,"åĿĲ":2407,"é¥Ń":2408,"æī§è¡Į":2409,"å¹¶åľ¨":2410,"çĶ¨æĪ·çļĦ":2411,"è¡ĮæĺŁ":2412,"ç£":2413,"åºĵ":2414,"åĬ³":2415,"æĽ¿":2416,"å®Ļ":2417,"åĲĪéĢĤçļĦ":2418,"æĪĲéķ¿":2419,"çī©ä½ĵ":2420,"åħ¬åħ±":2421,"åĽ¢éĺŁæĪĲåĳĺ":2422,"çļĦä¸»è¦ģ":2423,"ä»įçĦ¶":2424,"èĽĭçĻ½":2425,"è¯ĳ":2426,"åıĸå¾Ĺ":2427,"è·³":2428,"éĿŀå¸¸éĩįè¦ģçļĦ":2429,"æĢĿç»´":2430,"è¿Ļä¸Ģ":2431,"ä¹ĺ":2432,"æľĢä½³":2433,"æ¶²":2434,"å¾ª":2435,"ĠÃ":2436,"ar":2437,"æ®µèĲ½":2438,"éĤ®ä»¶":2439,"æ±ĩ":2440,"ä¸ļåĬ¡":2441,"ä¸ĭéĿ¢":2442,"äººçī©":2443,"æ··åĲĪ":2444,"æ»¡æĦı":2445,"èĢĲ":2446,"éľ²":2447,"ç³»åĪĹ":2448,"å¤§å°ı":2449,"åı¦å¤ĸ":2450,"åĮĢ":2451,"éĻ¤äºĨ":2452,"è·µ":2453,"å®ĩå®Ļ":2454,"Ġ4":2455,"ç¤¾åĮº":2456,"çĭ¬çī¹çļĦ":2457,"å¥¥":2458,"åĴ¨":2459,"æ¦Ĥå¿µ":2460,"åĩıè½»":2461,"éĴĪå¯¹":2462,"çĽ¸å¯¹":2463,"çĽĳæµĭ":2464,"å¯¹æĸ¹":2465,"èµı":2466,"çļĦæĥħæĦŁ":2467,"åįķè¯į":2468,"å®īæİĴ":2469,"çĶµè§Ĩ":2470,"çī©çĲĨ":2471,"Jo":2472,"æĹłè®º":2473,"æĳĺ":2474,"èģĬ":2475,"å¥³æĢ§":2476,"éķ¿æľŁ":2477,"æ´¾":2478,"åĩĢ":2479,"è´Ńçī©":2480,"åĴ¨è¯¢":2481,"å±ŀäºİ":2482,"éĿ¢å¯¹":2483,"åºĶçĶ¨ç¨ĭåºı":2484,"åı«":2485,"æ±ģ":2486,"éĢĤéĩı":2487,"æ¸ħæĻ":2488,"å®ŀè·µ":2489,"åģ¥èº«":2490,"èĤ¥":2491,"æĳĦåħ¥":2492,"å¿Ĩ":2493,"14":2494,"ç¨ĭåº¦":2495,"å®Įåħ¨":2496,"æ·»åĬł":2497,"é¹":2498,"è·Ŀç¦»":2499,"è¡Ĺ":2500,"èĳ±":2501,"çļĦçĪ":2502,"çļĦçłĶ":2503,"åŃ¦ä¼ļ":2504,"éĩįæĸ°":2505,"çłģ":2506,"ç§°ä¸º":2507,"çİ°è±¡":2508,"åŃ¸":2509,"èĲ¨":2510,"çĽ¸åħ³çļĦ":2511,"æĬĹ":2512,"å¾Ħ":2513,"å¸¸è§ģçļĦ":2514,"æľīæķĪçļĦ":2515,"éĻĪ":2516,"æĬ¥åĳĬ":2517,"åıĳæĮ¥":2518,"çĿ£":2519,"åĽ½éĻħ":2520,"éĢĤå½ĵçļĦ":2521,"çĽ¸åºĶ":2522,"ç»ıå¸¸":2523,"æĿŁ":2524,"éľĢè¦ģèĢĥèĻĳ":2525,"è§ĦåĪĻ":2526,"çĶľ":2527,"er":2528,"çĳľä¼½":2529,"å·¥ç¨ĭ":2530,"çĩĥ":2531,"æĺ¯çĶ±":2532,"è¿½æ±Ĥ":2533,"ç»©":2534,"è¹":2535,"çļĦåľ°æĸ¹":2536,"ä¼ļè®®":2537,"åĪ¤æĸŃ":2538,"çĹĽ":2539,"æŃ¦":2540,"ç»¼ä¸Ĭ":2541,"çĥ§":2542,"æĶ¾åľ¨":2543,"ä»¥ä¸ĭåĩłä¸ª":2544,"æīĢè¿°":2545,"æľ«":2546,"è§īå¾Ĺ":2547,"æĹ¶æľŁ":2548,"èĥ½éĩı":2549,"hn":2550,"æŁĶ":2551,"çĪ¶":2552,"èĭı":2553,"æĸĩåĮĸåĴĮ":2554,"æ°¸":2555,"åĳĪ":2556,"å¡Ķ":2557,"æľīä¸Ģ":2558,"åı¯ä»¥æł¹æį®":2559,"John":2560,"æµĵ":2561,"ç»ĨèĬĤ":2562,"éĨĴ":2563,"èĤ¡ç¥¨":2564,"è®©æĪĳä»¬":2565,"ä¾ĭåŃĲ":2566,"ä¼ĳæģ¯":2567,"å¢ŀéķ¿":2568,"æľīå¾Īå¤ļ":2569,"Ð°":2570,"å¦Ĥä¸ĭ":2571,"ç§Ģ":2572,"æļ´":2573,"è¡¨éĿ¢":2574,"çĶŁæ´»ä¸Ń":2575,"åı¯éĿł":2576,"çĤĴ":2577,"åī©":2578,"æĲľç´¢":2579,"è§Ĩè§ī":2580,"±ä¹Ĳ":2581,"çĶŁéķ¿":2582,"å»¶":2583,"ä¿Ŀåģ¥":2584,"ä¼ĺåĬ¿":2585,"çīĪ":2586,"çĶŁæĢģç³»ç»Ł":2587,"è¯¾ç¨ĭ":2588,"17":2589,"æĥĬ":2590,"è¿Ľåħ¥":2591,"æĦıåĳ³":2592,"æĹ¶å°ļ":2593,"å¸¦æĿ¥äºĨ":2594,"æ±ł":2595,"åķĬ":2596,"ç½ĳç«Ļ":2597,"æľĢå¤§":2598,"æ°Ķä½ĵ":2599,"å¹¿åĳĬ":2600,"åľ¨åĮ»çĸĹ":2601,"é¢Ħç®Ĺ":2602,"ï¼īãĢĤ":2603,"è¯Ħè®º":2604,"è¿Ļä¸ªéĹ®é¢ĺ":2605,"ä¸ĸçºª":2606,"æ¬§":2607,"ç§¯æŀģçļĦ":2608,"åģ¥åº·çļĦ":2609,"è¾£":2610,"æĶ¶åħ¥":2611,"åĲ¯":2612,"ç¨İ":2613,"éĽĨä¸Ń":2614,"æ¸ħæĻ°":2615,"æĦıå¤§åĪ©":2616,"è®¾ç½®":2617,"ä¼ĺåħĪ":2618,"äº¤æĺĵ":2619,"å¸ģ":2620,"ä¿¡ä»»":2621,"ç»¼ä¸ĬæīĢè¿°":2622,"ç»¿èī²":2623,"ä¸Ŀ":2624,"æķ°æį®åĪĨæŀĲ":2625,"è½®":2626,"åħŃ":2627,"åºŁ":2628,"æĭĮ":2629,"è¿ĩåº¦":2630,"åľĨ":2631,"åħ¬åĽŃ":2632,"ç¼ĵè§£":2633,"åĲ§":2634,"å¹¸ç¦ı":2635,"è½¦è¾Ĩ":2636,"çļĦé£İéĻ©":2637,"ä¸ĢèĪ¬":2638,"çĽ´æİ¥":2639,"25":2640,"åħħåĪĨ":2641,"çİĽ":2642,"æĭ¿":2643,"æĦıåĳ³çĿĢ":2644,"æŃ£ç¡®çļĦ":2645,"æ²ī":2646,"100":2647,"åĢ¾":2648,"å¡ĳæĸĻ":2649,"on":2650,"åľ¨çº¿":2651,"èĤ¤":2652,"çļĦç¬":2653,"è¢ĭ":2654,"ç»ĵåĲĪ":2655,"å®«":2656,"æĪĲä¸ºäºĨ":2657,"åĲįç§°":2658,"è°Ī":2659,"çļĦå®īåħ¨":2660,"å§Ĩ":2661,"çŃ¾":2662,"é¾Ħ":2663,"å·®å¼Ĥ":2664,"èĢĹ":2665,"è§£åĨ³éĹ®é¢ĺ":2666,"çĶ¨æĿ¥":2667,"ç¾İåĳ³":2668,"ä¹¡":2669,"æ£®æŀĹ":2670,"çļĦçłĶç©¶":2671,"é£ŁæĿĲ":2672,"13":2673,"æ³¡":2674,"ç»ıè¿ĩ":2675,"æĽ´å¥½åľ°äºĨè§£":2676,"åĿļæĮģ":2677,"è¿·":2678,"è®©æĪĳ":2679,"åį³åı¯":2680,"è§Ĥä¼Ĺ":2681,"çľŁæŃ£":2682,"æķı":2683,"ä¸»ä¹ī":2684,"åı¤ä»£":2685,"æĬ¥éģĵ":2686,"åĨĻä½ľ":2687,"è¿Ļå°Ĩ":2688,"æ¹¿":2689,"æĶ¾åħ¥":2690,"æĤ¨éľĢè¦ģ":2691,"åı¥è¯Ŀ":2692,"åĢĳ":2693,"çİ¯å¢ĥä¿ĿæĬ¤":2694,"åī¯":2695,"å³°":2696,"æĻĤ":2697,"éĢĴ":2698,"åįł":2699,"ï¼ģ<|":2700,"åĪĨä¸º":2701,"éĩįå¤į":2702,"om":2703,"æĻºèĥ½å®¶å±ħ":2704,"æĬ½":2705,"é¢Ĩå¯¼":2706,"æĦıè§ģ":2707,"ç¿»è¯ĳ":2708,"ä½ľèĢħ":2709,"åºĶçĶ¨äºİ":2710,"ä½Ľ":2711,"åŃĲçļĦ":2712,"ç±»åĪ«":2713,"çĽ´åĪ°":2714,"ä»¥ä¸ĭæĺ¯ä¸Ģ":2715,"æĶ¿æ²»":2716,"åĨĻä¸Ģç¯ĩ":2717,"å·Ŀ":2718,"éĸ":2719,"çļĦä¸Ģä¸ª":2720,"æīĢéľĢ":2721,"æĿ¥æºĲ":2722,"çīĻ":2723,"èķ":2724,"è¯Ħä»·":2725,"ç³ķ":2726,"å®ŀæĸ½":2727,"èĻļæĭŁ":2728,"å®£ä¼ł":2729,"æ°Ľ":2730,"æĢİä¹Ī":2731,"æĦŁè°¢":2732,"ç±į":2733,"ãģ":2734,"çĻ»":2735,"éŀ":2736,"ä»ĸäºº":2737,"æľĢéĩįè¦ģçļĦ":2738,"ãĢĮ":2739,"è³":2740,"ãĢį":2741,"éĻĦ":2742,"å¿ħè¦ģçļĦ":2743,"åı¯æĮģç»Ńåıĳå±ķ":2744,"æĥħèĬĤ":2745,"æ·±åĪ»":2746,"æĪĳè®¤ä¸º":2747,"è¶³å¤ŁçļĦ":2748,"åĴĮæĶ¯æĮģ":2749,"è°¢è°¢":2750,"çŃīé¢ĨåŁŁ":2751,"é«ĺåº¦":2752,"è¿ĩåİ»":2753,"è²":2754,"æĳĺè¦ģ":2755,"çİī":2756,"æī¹":2757,"æĹĭ":2758,"å°ģ":2759,"å¹¶ä¸į":2760,"å®¢æĪ·çļĦ":2761,"åºĬ":2762,"åŃ¦çĶŁçļĦ":2763,"åĳ³éģĵ":2764,"ç»Ļå®ļ":2765,"æİĪ":2766,"21":2767,"äºĴèģĶç½ĳ":2768,"å¦Ī":2769,"åĳ¨åĽ´":2770,"èĮĦ":2771,"ç®ĢåįķçļĦ":2772,"ä¸ĵæ³¨":2773,"åĮºåŁŁ":2774,"å®½":2775,"æ¶¦":2776,"åĴĮç¤¾ä¼ļ":2777,"æĦī":2778,"æ½ľåľ¨":2779,"åı¯ä»¥æıĲé«ĺ":2780,"ä¹³":2781,"è®¤è¯Ĩ":2782,"å°½åı¯èĥ½":2783,"æ»©":2784,"åĬ¨ä½ľ":2785,"ä½łå¥½":2786,"éĺ³åħī":2787,"ç¬¬ä¸Ģ":2788,"åĪĽå»º":2789,"è®©äºº":2790,"æŀ¶":2791,"éŃĶ":2792,"å·¥ä¸ļ":2793,"èĦļ":2794,"å¤§å®¶":2795,"å°½ç®¡":2796,"åĩºæĿ¥":2797,"åĨħéĥ¨":2798,"åīĤ":2799,"çİ©å®¶":2800,"åħ«":2801,"ç»ĦåĲĪ":2802,"æļĹ":2803,"å¼ĥ":2804,"ç²¾ç¥ŀ":2805,"èĽĭçĻ½è´¨":2806,"è§Ĥå¯Ł":2807,"è´¥":2808,"æĿ¥èĩª":2809,"å£°éŁ³":2810,"å®¶äºº":2811,"Ġ'":2812,"åĨĴ":2813,"åĿĩåĮĢ":2814,"è§Ĩé¢ĳ":2815,"èĭ±è¯Ń":2816,"å¹´çļĦ":2817,"ç»¼åĲĪ":2818,"è¡¥":2819,"çŃīæĸ¹å¼ı":2820,"çļĦå°ı":2821,"ç»ĺ":2822,"åĮĹäº¬":2823,"åĹ":2824,"èĤª":2825,"èĦĤèĤª":2826,"ä»¤äºº":2827,"è¸ª":2828,"è©":2829,"ç¼©":2830,"è¿ŀæİ¥":2831,"åį·":2832,"æµªè´¹":2833,"æĸ¹ä¾¿":2834,"çĶŁåŃĺ":2835,"çļĦæĬĢæľ¯":2836,"å¿ĺ":2837,"åĪļ":2838,"çĽ¸åĲĮ":2839,"æ¸¯":2840,"è¡ĮçļĦ":2841,"ç¥Ŀ":2842,"å½¢è±¡":2843,"æĶ»åĩ»":2844,"è§¦":2845,"éĤ£äºĽ":2846,"è¾ħ":2847,"æĪĳåı¯ä»¥":2848,"æľŁéĹ´":2849,"ä¸ªæĢ§åĮĸ":2850,"å¤ļçļĦ":2851,"åı£åĳ³":2852,"le":2853,"å¹¶æıĲä¾Ľ":2854,"åľ°æĸ¹":2855,"ä»·åĢ¼è§Ĥ":2856,"æľīä¸Ģä¸ª":2857,"çĲĨè®º":2858,"æĭĽ":2859,"å¥¹çļĦ":2860,"éģĩåĪ°":2861,"å¹³çŃī":2862,"èĳĹåĲįçļĦ":2863,"éĢĢ":2864,"éĺ¶":2865,"æĪĳæĥ³":2866,"èĩªä¿¡":2867,"è¯»èĢħ":2868,"åĢ¼å¾Ĺ":2869,"èĴľ":2870,"åŃ¤":2871,"ä¹ı":2872,"æĻ¯çĤ¹":2873,"æ³¨æĦıåĬĽ":2874,"æĺł":2875,"æĶ¯ä»ĺ":2876,"åĨ¥":2877,"åłĤ":2878,"éĽª":2879,"å¨±ä¹Ĳ":2880,"æĺ¯ä¸ŃåĽ½":2881,"èĥģ":2882,"ç»ıåħ¸":2883,"ç§ĭ":2884,"æķ¬":2885,"æ»ĳ":2886,"åĲĦä¸ª":2887,"äºĪ":2888,"æģ¶":2889,"åı¯èĥ½æĺ¯":2890,"çĽ®çļĦ":2891,"æ¬£":2892,"éģį":2893,"éĿ¢ç§¯":2894,"åĬ©æīĭ":2895,"åĩºäºĨ":2896,"ä¸Ģæł·":2897,"è¯ŃéŁ³è¯ĨåĪ«":2898,"çļĦçĽ®æłĩ":2899,"è§Ħå®ļ":2900,"æĢģåº¦":2901,"åı¯ä»¥çĶ¨äºİ":2902,"åĴĮåıĳå±ķ":2903,"ä½łéľĢè¦ģ":2904,"ä¿Ŀéļľ":2905,"å°±ä¸ļ":2906,"æ³³":2907,"æĻºèĥ½åĮĸ":2908,"å´":2909,"ä¾Ĩ":2910,"çĶ³":2911,"çĶļ":2912,"ä¹ĭåĲİ":2913,"è¿Ļæĺ¯ä¸Ģä¸ª":2914,"æ¨¡æĭŁ":2915,"å¨ģèĥģ":2916,"çĿ¡çľł":2917,"æ¡¥":2918,"æ¶Īè´¹èĢħ":2919,"å¸Ŀ":2920,"çĶ²":2921,"Ø§":2922,"éº¦":2923,"ç¬ĳ":2924,"æ©Ļ":2925,"å½¼":2926,"èĤĮèĤī":2927,"ç¥ŀç»ıç½ĳç»ľ":2928,"æľīä»Ģä¹Ī":2929,"éĽ¶":2930,"199":2931,"çķª":2932,"åĪº":2933,"éľĩ":2934,"çļĦçİ¯å¢ĥ":2935,"å»ºè®¾":2936,"ç§»åĬ¨":2937,"å¢Ļ":2938,"é¸¡èĽĭ":2939,"èªī":2940,"æĸĹ":2941,"çļĦåħ³éĶ®":2942,"èĢĮä¸įæĺ¯":2943,"è£ħé¥°":2944,"ç¥ŀç§ĺ":2945,"åŁ¹åħ»":2946,"ä½łä»¬":2947,"å°¤":2948,"å¹´é¾Ħ":2949,"åıªæĺ¯":2950,"é¢Ħéĺ²":2951,"é»ĳæ´ŀ":2952,"åĪĨåĪ«":2953,"èµŀ":2954,"æķĻåŃ¦":2955,"åºĨ":2956,"äº§åĵģçļĦ":2957,"å±ĭ":2958,"æĭį":2959,"å¯¹çİ¯å¢ĥ":2960,"é¥¼":2961,"è´¹çĶ¨":2962,"æĶ¯æĮģåĴĮ":2963,"åħ¬éĩĮ":2964,"éŀĭ":2965,"è°±":2966,"é¡¶":2967,"åľ¨ä¸Ģèµ·":2968,"éª¨":2969,"è°·":2970,"çĽ¸åºĶçļĦ":2971,"æĢ§åĪ«":2972,"å¤§æ°Ķ":2973,"éĻĨ":2974,"è®¢":2975,"æĹ¶ä»£":2976,"å½¢çĬ¶":2977,"æľīæķĪåľ°":2978,"æī°":2979,"ç«¥":2980,"å°¾":2981,"ç¾İä¸½çļĦ":2982,"å¿«ä¹Ĳ":2983,"ä¾§":2984,"åĨ¥æĥ³":2985,"æ£Ģæµĭ":2986,"èİ·åıĸ":2987,"å®¶åħ·":2988,"åĵģè´¨":2989,"è½½":2990,"çļĦéĩįè¦ģæĢ§":2991,"åĸĿ":2992,"æ°§åĮĸ":2993,"éĥ¨éĹ¨":2994,"ç§ĳåŃ¦å®¶":2995,"æĥł":2996,"çĨĬ":2997,"èī¾":2998,"è®¾æĸ½":2999,"åĴĮå®īåħ¨":3000,"æİ¢è®¨":3001,"æŃĮæĽ²":3002,"æĸ°é²ľ":3003,"ä¸°å¯ĮçļĦ":3004,"åıĺå¾ĹæĽ´åĬł":3005,"ä¹Łæľī":3006,"å°º":3007,"åĽłä¸ºå®ĥ":3008,"éļıæĹ¶":3009,"æ®Ĭ":3010,"æľºåĻ¨åŃ¦ä¹łç®Ĺæ³ķ":3011,"éĺ²æŃ¢":3012,"æĦŁåıĹåĪ°":3013,"ä¹İ":3014,"æģĴ":3015,"åĨ²çªģ":3016,"60":3017,"22":3018,"åĪĹè¡¨":3019,"ä¸ĬæľĢ":3020,"è¿Ļç¯ĩ":3021,"é¡¿":3022,"åħ·ä½ĵçļĦ":3023,"éĩıåŃĲ":3024,"å½ĵåīį":3025,"è®¿éĹ®":3026,"åĸľæ¬¢çļĦ":3027,"èĥ½åĬĽåĴĮ":3028,"éĹŃ":3029,"çıį":3030,"èĪ¹":3031,"æİªæĸ½æĿ¥":3032,"çļĦçģ":3033,"æĲħ":3034,"é½":3035,"æł¸å¿ĥ":3036,"çĶļèĩ³":3037,"çĥ¹":3038,"æģĲ":3039,"æ¯ıä¸ªäººéĥ½":3040,"å®ģ":3041,"çĶ°":3042,"å¥Ĺ":3043,"åĨľä¸ļ":3044,"æĸ¹éĿ¢çļĦ":3045,"å·¨å¤§çļĦ":3046,"æħ§":3047,"äºĭå®ŀ":3048,"äººä»¬çļĦ":3049,"åįıä½ľ":3050,"è°ģ":3051,"åľ¨æľªæĿ¥":3052,"èģĬå¤©":3053,"çµ":3054,"åľ£":3055,"ï¼ĮâĢľ":3056,"åŃ£èĬĤ":3057,"æīĺ":3058,"çļĦç©":3059,"æĸĩæľ¬ä¸Ń":3060,"èĩ³å°ĳ":3061,"åĲī":3062,"åĪĨæŀĲåĴĮ":3063,"çĽĳçĿ£":3064,"å®ľ":3065,"åıĺæļĸ":3066,"ç¬¬ä¸ī":3067,"åı¯èĥ½ä¼ļå¯¼èĩ´":3068,"æį·":3069,"æľºåĪ¶":3070,"çĤº":3071,"åŁºéĩĳ":3072,"åĩ½":3073,"èĭ¦":3074,"æ³ķè§Ħ":3075,"éĿŀå¸¸éĩįè¦ģ":3076,"çī¹æ®Ĭ":3077,"é¥ª":3078,"å¼¹":3079,"èĩªåĬ¨é©¾é©¶":3080,"çļĦçŁ¥":3081,"åŃĺåĤ¨":3082,"ä¸įéĶĻ":3083,"Ð¾":3084,"éªĳ":3085,"è½»æĿ¾":3086,"åĴĮåĪĨæŀĲ":3087,"åĨįçĶŁ":3088,"åı¯ä»¥å¸®åĬ©æĪĳä»¬":3089,"çº¢èī²":3090,"åı¯ä»¥ä¸º":3091,"æĽ´å®¹æĺĵ":3092,"åĶ±":3093,"åıĳå¸ĥ":3094,"èĦ±":3095,"ä¼ĺç§Ģ":3096,"å¹»":3097,"æĲħæĭĮ":3098,"è§Ħæ¨¡":3099,"äºĨä¸ĢäºĽ":3100,"æĿ°":3101,"çĽ¸ä¼¼":3102,"çīĽå¥¶":3103,"èį£":3104,"çĪ±æĥħ":3105,"äººå·¥æĻºèĥ½çļĦ":3106,"èĩªè¡Į":3107,"æĽ´æĸ°":3108,"è¹Ī":3109,"ä»ĸä»¬çļĦå¯¹è¯ĿåĨħå®¹":3110,"æİī":3111,"or":3112,"è®²è¿°":3113,"æ¸¸æ³³":3114,"èļ":3115,"èµĸ":3116,"éĵ¶è¡Į":3117,"åĵ²":3118,"æľĹ":3119,"å®¤åĨħ":3120,"Tom":3121,"åĭķ":3122,"èĿ":3123,"ä»ª":3124,"è¡¨æ¼Ķ":3125,"ĠåĪ¶å®ļ":3126,"ä¸ĥ":3127,"è¿Ŀ":3128,"éĥģ":3129,"äº¡":3130,"ä¼Ĭ":3131,"å¤ªéĺ³èĥ½":3132,"åħµ":3133,"åĶĲ":3134,"çļĩ":3135,"ä¸įæĸŃåľ°":3136,"èĪŀè¹Ī":3137,"å¼ĢæĶ¾":3138,"åĽŀçŃĶéĹ®é¢ĺ":3139,"æĢĢ":3140,"ä¸Ĭåįĩ":3141,"éĥ½ä¼ļ":3142,"åħļ":3143,"çĶŁæ´»æĸ¹å¼ı":3144,"ä»°":3145,"çĭ¬ç«ĭ":3146,"åĪ©çĽĬ":3147,"åıĹæ¬¢è¿İ":3148,"åĬ¨åĬĽ":3149,"å¤ªç©º":3150,"ç¡¬":3151,"é£ŀè¡Į":3152,"å®ļä¹ī":3153,"å¯¹æīĭ":3154,"æ¾":3155,"å¿ł":3156,"ç¼ºä¹ı":3157,"è¿Ľå±ķ":3158,"å¹ħ":3159,"å¼±":3160,"åĪĨåŃĲ":3161,"è¯Ńæ³ķ":3162,"çļĦæĹ¶åĢĻ":3163,"è½¬æį¢":3164,"ç±»ä¼¼":3165,"å¯¿":3166,"æ³°":3167,"łéģĵ":3168,"çķªèĮĦ":3169,"à¦":3170,"..":3171,"èĽĭç³ķ":3172,"äººçĶŁ":3173,"çļĦç²":3174,"æłĩé¢ĺ":3175,"åĴĮæľįåĬ¡":3176,"åĳĪçİ°":3177,"å¸®åĬ©æĤ¨":3178,"ĠæĪĳ":3179,"ä¼ĺçĤ¹":3180,"å°į":3181,"çĶŁæĪĲä¸Ģæ®µ":3182,"è´Ŀ":3183,"è¯Ŀé¢ĺ":3184,"é¥®æĸĻ":3185,"Ġä½¿çĶ¨":3186,"åº¦çļĦ":3187,"âĢĶâĢĶ":3188,"åĪĨå¸ĥ":3189,"åı¯ä»¥éĢīæĭ©":3190,"èĥŀ":3191,"åį±éĻ©":3192,"ç»ĵæĿŁ":3193,"åı¯èĥ½çļĦ":3194,"ä¿ĿéĻ©":3195,"äººåı£":3196,"è¯ģæį®":3197,"åĢº":3198,"çļĦæķħäºĭ":3199,"æĻºæħ§":3200,"è¯įæ±ĩ":3201,"å°½éĩı":3202,"é£ŁçĶ¨":3203,"åŁºåĽł":3204,"å·¦åı³":3205,"çī¹å®ļ":3206,"çİ°åľº":3207,"æķ°æį®éĽĨ":3208,"åĴĮä¸į":3209,"è¿Ļéĥ¨":3210,"ä¸Ģå®ļçļĦ":3211,"èĻ«":3212,"æĢ»æĺ¯":3213,"åĵ¥":3214,"ä¼łæĴŃ":3215,"èħ¿":3216,"èī²å½©":3217,"èº«ä½ĵåģ¥åº·":3218,"è§Ħå¾ĭ":3219,"åĢŁ":3220,"ä»İèĢĮæıĲé«ĺ":3221,"èľľ":3222,"å¤įæĿĤçļĦ":3223,"çļĦä½¿çĶ¨":3224,"ä¸įæĸŃåıĳå±ķ":3225,"è¿¹":3226,"å±ħæ°ĳ":3227,"å¾ĹåĪ°äºĨ":3228,"çļĦç¨":3229,"æĿĢ":3230,"æĪ¿éĹ´":3231,"è¿ĺéľĢè¦ģ":3232,"åİļ":3233,"ä¸İåħ¶ä»ĸ":3234,"æ°ĽåĽ´":3235,"è§Ī":3236,"çļĦçĪ±":3237,"éĽħ":3238,"çĴ":3239,"ä¸ªæĢ§åĮĸçļĦ":3240,"ä¸įè¿ĩ":3241,"åĴĮæĮĳæĪĺ":3242,"èĤ´":3243,"çļĦçĥŃ":3244,"å¸ĮæľĽè¿ĻäºĽ":3245,"åĩ½æķ°":3246,"éº»":3247,"åı¯ä»¥è¢«":3248,"æķ°æį®åĴĮ":3249,"ç¿Ĵ":3250,"æĪĲåĪĨ":3251,"æĬĢèĥ½åĴĮ":3252,"å§¿":3253,"ç´§æĢ¥":3254,"å±ķçİ°":3255,"è¶ħè¿ĩ":3256,"èµĦéĩĳ":3257,"æıĲéĨĴ":3258,"èĩªä¸»":3259,"çļĦçĭ":3260,"çļĦç³":3261,"Ġ8":3262,"æĪĸåħ¶ä»ĸ":3263,"çĥŁ":3264,"åľ¨å®¶":3265,"åį«çĶŁ":3266,"ä¸ģ":3267,"äº¤äºĴ":3268,"äº§çĶŁäºĨ":3269,"éĿ¢åĮħ":3270,"è®°å¿Ĩ":3271,"ä»Ķ":3272,"è¿Ļæĺ¯ä¸Ģ":3273,"åĪĩæĪĲ":3274,"çļĦç¤¾ä¼ļ":3275,"åİŁçĲĨ":3276,"å·§åħĭ":3277,"ä¾ĽåºĶ":3278,"is":3279,"å½¼æŃ¤":3280,"æİ¨çĲĨ":3281,"çĵ¶":3282,"éĢ»":3283,"ä¸Ģä¸ªäºº":3284,"çķħ":3285,"æŃ£å¸¸":3286,"å£¤":3287,"24":3288,"çī©çļĦ":3289,"æ¶īåıĬåĪ°":3290,"è°ĥåĳ³":3291,"æĹ¨":3292,"æĮĩæłĩ":3293,"åĩĨç¡®æĢ§":3294,"åħ¬æŃ£":3295,"åĲĮäºĭ":3296,"æ¸©æļĸ":3297,"çļĦä¸»é¢ĺ":3298,"ä¸Ģåıª":3299,"è¯º":3300,"è´ŁéĿ¢å½±åĵį":3301,"å¿ĥåĴĮ":3302,"ä¾µ":3303,"å¹³æĸ¹":3304,"çļĦç©º":3305,"åĩºçļĦ":3306,"çĽĳæİ§":3307,"æģ¢":3308,"å«Į":3309,"éĢ²":3310,"ç¾İå¥½çļĦ":3311,"è´¨éĩıåĴĮ":3312,"è¿ħ":3313,"æ°ı":3314,"åı¯ä»¥å°Ĩ":3315,"',":3316,"åħ·å¤ĩ":3317,"ç¢İ":3318,"çĶµèĦĳ":3319,"éĢıæĺİ":3320,"æįķ":3321,"æľĥ":3322,"é¡¾å®¢":3323,"æ¬£èµı":3324,"ĊĠĠ":3325,"æ¢¦æĥ³":3326,"è´¦":3327,"ä»¥ä¸Ĭæĺ¯":3328,"åľ°çĤ¹":3329,"ç¾İçļĦ":3330,"éķľ":3331,"éªĮè¯ģ":3332,"èĢ³":3333,"ç§įç±»":3334,"æĬĢæľ¯åĴĮ":3335,"éĢĥ":3336,"åħ¨çĲĥåıĺæļĸ":3337,"ä¹Ŀ":3338,"æ¹¾":3339,"è¿Ľè¡ĮåĪĨç±»":3340,"è¶³çĲĥ":3341,"éģĵè·¯":3342,"çļĦåİĨåı²":3343,"éľĢè¦ģæ³¨æĦıçļĦæĺ¯":3344,"èĴ¸":3345,"éļ¾ä»¥":3346,"éĽ·":3347,"æ¡Į":3348,"å°¤åħ¶":3349,"ç»Ĩèĥŀ":3350,"çļĦç¬¬":3351,"åĿ¦":3352,"Ðµ":3353,"çĪ±å¥½":3354,"å¤ıåŃ£":3355,"çļĦç½":3356,"åįļçī©":3357,"äºĭæķħ":3358,"æĪĳä»¬å°Ĩ":3359,"åĨ¬":3360,"çł´åĿı":3361,"éĩįè§Ĩ":3362,"éģµå®Ī":3363,"ä¾¿åĪ©":3364,"èħĲ":3365,"ä¹ŁéľĢè¦ģ":3366,"çļĦçŁ¥è¯Ĩ":3367,"æ¨¡åŀĭçļĦ":3368,"å¥ĭ":3369,"å¿Ļ":3370,"åĮ»çĸĹä¿Ŀåģ¥":3371,"åĽŀæĶ¶":3372,"ä¸ĭçļĦ":3373,"åı¯åĨįçĶŁ":3374,"åĪĹåĩº":3375,"ç¾İåħĥ":3376,"åħĭæľį":3377,"åĴĮæ²»çĸĹ":3378,"ä¸ľè¥¿":3379,"çĽĳç®¡":3380,"åı¯ä»¥æıĲä¾Ľ":3381,"Ġx":3382,"æ¶ĪèĢĹ":3383,"çģ¾å®³":3384,"çªĹ":3385,"åīª":3386,"æľµ":3387,"åľŁå£¤":3388,"å¾Īå¥½":3389,"è§Ĵåº¦":3390,"åľ¨ä¸Ģä¸ª":3391,"åĪĺ":3392,"æĪĺäºī":3393,"äººå£«":3394,"è¾ĵåĩº":3395,"çļĦç«":3396,"ä¼łç»ŁçļĦ":3397,"ä¹¦ç±į":3398,"çļĦåİŁåĽł":3399,"çļĦæĥħåĨµ":3400,"ç±»åŀĭçļĦ":3401,"è¯ģæĺİ":3402,"ç³»ç»ŁçļĦ":3403,"è®¯":3404,"åıĮæĸ¹":3405,"çĬ¯ç½ª":3406,"æĸ¹ç¨ĭ":3407,"çĲĨè§£åĴĮ":3408,"æģ¢å¤į":3409,"çļĦçĿ":3410,"ä½¿åħ¶":3411,"æŁĲä¸ª":3412,"çļĦç¥":3413,"å®īè£ħ":3414,"æľĢå¤§çļĦ":3415,"è·¨":3416,"åĵ²åŃ¦":3417,"ç¢į":3418,"æĺ¾ç¤º":3419,"ç§Ł":3420,"æ¸łéģĵ":3421,"åįĸ":3422,"ç²Ĵ":3423,"æĳ©":3424,"çıł":3425,"å½ĵæĹ¶":3426,"çļĦçĹ":3427,"Ġ6":3428,"Ġå»ºç«ĭ":3429,"æĦıæĢĿ":3430,"çī¹èī²":3431,"èıľèĤ´":3432,"å®ĮæĪĲä»»åĬ¡":3433,"åħħè¶³":3434,"ãĢĤ\\":3435,"å°ıçļĦ":3436,"èĩªèº«":3437,"ä½ĵçļĦ":3438,"æĪĲå°±":3439,"æľīçļĦ":3440,"èº«å¿ĥ":3441,"é»İ":3442,"æĽ´å¿«":3443,"åħīçº¿":3444,"åı¯èĥ½å¯¼èĩ´":3445,"Ġ0":3446,"å¡ŀ":3447,"åĴĮå»ºè®®":3448,"èĦ¸":3449,"ç¶":3450,"åįķä½į":3451,"çĤ¸":3452,"åĴĮè°":3453,"éħĴåºĹ":3454,"è¯ĹæŃĮ":3455,"èģĺ":3456,"å¤±åİ»":3457,"æ£Ĵ":3458,"éķ¿åº¦":3459,"å¹ķ":3460,"æĸĩåŃĹ":3461,"èº«ä»½":3462,"ç¼ĸåĨĻ":3463,"æľīè®¸å¤ļ":3464,"ä¸Ĭæµ·":3465,"å·§åħĭåĬĽ":3466,"æĬĢæľ¯æĿ¥":3467,"åı¦ä¸Ģä¸ª":3468,"äºĨè®¸å¤ļ":3469,"åı¦ä¸Ģ":3470,"åĪ¸":3471,"åĮºåĿĹ":3472,"æ·±è¿ľ":3473,"åīįå¾Ģ":3474,"çŃīéĹ®é¢ĺ":3475,"é«ĺåħ´":3476,"çĪĨ":3477,"è´Łè´£":3478,"é²ģ":3479,"åĲİçļĦ":3480,"å¹«":3481,"æ¸©å®¤":3482,"çľŁå®ŀ":3483,"ä»¿":3484,"Ġæķ°æį®":3485,"åīįæĻ¯":3486,"åºĦ":3487,"èĬĤå¥ı":3488,"Ġ20":3489,"40":3490,"èĭ±åĽ½":3491,"èĦı":3492,"åĨįæ¬¡":3493,"éĢ»è¾ĳ":3494,"çĥ¹é¥ª":3495,"èĢĮæĺ¯":3496,"çľĭèµ·æĿ¥":3497,"æĭ¼":3498,"çļĦçĿ¡":3499,"åĴĮåºĶçĶ¨":3500,"åĨħå¿ĥ":3501,"ä¹ĭå¤ĸ":3502,"èĩªè¡Įè½¦":3503,"é³":3504,"é»ĺ":3505,"çī©ç§į":3506,"è¯·éĹ®":3507,"åıĹä¼Ĺ":3508,"çĶµæ±ł":3509,"æīĭæ®µ":3510,"ä¼¦çĲĨ":3511,"ç½ļ":3512,"à¥":3513,"å§ľ":3514,"è½¬åĮĸ":3515,"å¹«åĬ©":3516,"åģĩè®¾":3517,"åħ¬ä¼Ĺ":3518,"ç´§å¼ł":3519,"åŁĥ":3520,"çļĦé£Łçī©":3521,"ç»ĵè®º":3522,"çĸ²":3523,"å£®":3524,"åģıå¥½":3525,"åĪĽæĦı":3526,"åĩī":3527,"Ġ7":3528,"åįģåĪĨ":3529,"èī¯å¥½":3530,"ç¤¾ä¼ļçļĦ":3531,"åĲįåŃĹ":3532,"æķĻå¸Ī":3533,"å®Įæķ´":3534,"çĵľ":3535,"åĪĨæĪĲ":3536,"æģ©":3537,"æĤ¦":3538,"åı¯èĥ½éľĢè¦ģ":3539,"å¿ĥæĢģ":3540,"äºĴçĽ¸":3541,"èĵĿèī²":3542,"ä»¥ä¸ĭåĩłä¸ªæĸ¹éĿ¢":3543,"è¡£æľį":3544,"çģµæ´»":3545,"çľŁçļĦ":3546,"åĨł":3547,"é»Ħèī²":3548,"è¢«è®¤ä¸º":3549,"æĦŁåĴĮ":3550,"å¯º":3551,"åĮĸåĴĮ":3552,"çļĦçĿ¡çľł":3553,"æıĴ":3554,"ä¼ĺåħĪçº§":3555,"è¿ª":3556,"èĭĹ":3557,"æ´Ľ":3558,"æĶ¶çĽĬ":3559,"åĴĮç®¡çĲĨ":3560,"åĦ¿ç«¥":3561,"ä¸»äºº":3562,"ä»¥æıĲé«ĺ":3563,"____":3564,"åľ°çĲĥçļĦ":3565,"Ð¸":3566,"ç»ĻæĪĳ":3567,"ç²¾åĬĽ":3568,"ä½ĵèĤ²":3569,"Ð½":3570,"Ġ10":3571,"å®ĹæķĻ":3572,"æĻ®åıĬ":3573,"æ·¡":3574,"åįļçī©é¦Ĩ":3575,"åıĤèĢĥ":3576,"éĢīæĭ©éĢĤåĲĪ":3577,"åĨħçļĦ":3578,"éĺ¶æ®µ":3579,"è½¨":3580,"æľīè¶£çļĦ":3581,"æķ°æį®è¿Ľè¡Į":3582,"æĻļä¸Ĭ":3583,"ä¸¦":3584,"ç¼ĸè¾ĳ":3585,"æķ¢":3586,"ä¾Ŀèµĸ":3587,"è®¤çŁ¥":3588,"ä¿¡åı·":3589,"èıľåĵģ":3590,"åıĸåĨ³":3591,"çļĦåŁºç¡Ģ":3592,"ç»´æĮģ":3593,"åıĸåĨ³äºİ":3594,"æ²¿":3595,"å²©":3596,"æī®":3597,"çļĦè¡Įä¸º":3598,"ä¿ĿæĬ¤çİ¯å¢ĥ":3599,"åĢĴåħ¥":3600,"æĹ¢":3601,"åł¡":3602,"å½ĵåľ°çļĦ":3603,"çļĦåıĺåĮĸ":3604,"ç¯®":3605,"æ¸ħåįķ":3606,"çļĦä»»åĬ¡":3607,"åį³ä½¿":3608,"ä¸Ģå®¶":3609,"çļĦè¿ĩç¨ĭ":3610,"å¼ºçĥĪ":3611,"es":3612,"æİ¥ä¸ĭæĿ¥":3613,"çļĦå¤§":3614,"åİĭåĬĽåĴĮ":3615,"æİĺ":3616,"éĴ¢":3617,"ä½¿çĶ¨çļĦ":3618,"å¡«":3619,"éĺ»":3620,"æµģè¡Į":3621,"æĺİæĺ¾":3622,"ä¸įè¶³":3623,"æ¸¸å®¢":3624,"åĮºåĿĹéĵ¾":3625,"å®¾":3626,"æ¼Ķåĳĺ":3627,"æ¯ķ":3628,"æ¶µ":3629,"åĲ«æľī":3630,"çļĦå¥½":3631,"æª":3632,"æ³ķåĽ½":3633,"å®¢æľį":3634,"¸æĵ":3635,"æıĲä¾ĽçļĦ":3636,"ĠÃĹ":3637,"åħĪçĶŁ":3638,"äº¿":3639,"åĮ»éĻ¢":3640,"æ°´åĪĨ":3641,"æĥ³è±¡":3642,"èµĦäº§":3643,"åľ¨äºİ":3644,"åİ¨":3645,"198":3646,"éļĶ":3647,"åı¯åĨįçĶŁèĥ½æºĲ":3648,"å¾Īå¤§çļĦ":3649,"ä¼Ļ":3650,"ä¹ĭå¤Ħ":3651,"è¿ħéĢŁ":3652,"æįŁå¤±":3653,"æ¸©å®¤æ°Ķä½ĵ":3654,"ä¸Ģå¤©":3655,"æı´":3656,"è¿Ļç¯ĩæĸĩç«ł":3657,"æĺ¯éĿŀå¸¸éĩįè¦ģçļĦ":3658,"çļĦåģ¥åº·":3659,"åĬłå¯Ĩ":3660,"æµ®":3661,"å¾ªçİ¯":3662,"æ¯Ķä¾ĭ":3663,"åįıè°ĥ":3664,"çĿĽ":3665,"åĲĪåĲĮ":3666,"ä¸¤ç§į":3667,"çļĦç²¾":3668,"ÑĢ":3669,"åĲįè¯į":3670,"å¿½":3671,"åŃ¤çĭ¬":3672,"åĲ¬èµ·æĿ¥":3673,"çĽĽ":3674,"æĿ¥å®ŀçİ°":3675,"åĮĻ":3676,"çİĽä¸½":3677,"Ġç¡®å®ļ":3678,"åıĸä»£":3679,"ç§įæĹı":3680,"çŁŃè¯Ń":3681,"ä¿¡ä»°":3682,"çĶŁæĪĲä¸Ģæ®µä»ĸä»¬çļĦå¯¹è¯ĿåĨħå®¹":3683,"åĪĳ":3684,"å¦Ļ":3685,"æ¡Īä»¶":3686,"ç¿°":3687,"çĶ·åŃĲ":3688,"éĵħ":3689,"th":3690,"çĹĩçĬ¶":3691,"æĪ·å¤ĸ":3692,"éł":3693,"ç»ķ":3694,"è¿Ļæ®µæĸĩæľ¬":3695,"æĬ±":3696,"èĳ¡":3697,"è¿Ļéĥ¨çĶµå½±":3698,"åŃ¸ç¿Ĵ":3699,"ç¦»å¼Ģ":3700,"å¤ªéĺ³ç³»":3701,"èľĤ":3702,"éĽĦ":3703,"æ»¤":3704,"éĩĮçļĦ":3705,"ä¼¸":3706,"åĵº":3707,"è¯¦ç»ĨçļĦ":3708,"è¡ĵ":3709,"æĪĳæĺ¯":3710,"ÙĦ":3711,"æľ¬ä¹¦":3712,"é¢ĨåŁŁä¸Ń":3713,"åħ¬å¼ı":3714,"èĩ³åħ³":3715,"çŃīåĽłç´ł":3716,"æĪĲç»©":3717,"å¹¶ä¸º":3718,"il":3719,"çŁ¿":3720,"åħ¬å¹³":3721,"å¥ĸåĬ±":3722,"æĸ¼":3723,"éŃĶæ³ķ":3724,"åĩĨç¡®åľ°":3725,"æł·çļĦ":3726,"å¾Ģå¾Ģ":3727,"ä¸ĵå®¶":3728,"æĽ¾ç»ı":3729,"çļĦçĬ":3730,"å¹¶ç¡®ä¿Ŀ":3731,"éģŃ":3732,"ç»Łè®¡":3733,"ä¸Ģç»Ħ":3734,"æłĩå¿Ĺ":3735,"æ°Ķæ¸©":3736,"ä¼ļå¯¼èĩ´":3737,"è¢«ç§°ä¸º":3738,"æµĭéĩı":3739,"åĪĢ":3740,"è¿ĻæĦıåĳ³çĿĢ":3741,"ä¸ĭéĻį":3742,"è¦Ĩ":3743,"å¤©ç©º":3744,"ç»ĻäºĪ":3745,"æĪĲæŀľ":3746,"è®¤çľŁ":3747,"çļĦæķ°éĩı":3748,"åİĺ":3749,"èĲĦ":3750,"èĳ¡èĲĦ":3751,"æĢķ":3752,"æĬ«":3753,"åĭĩæ°Ķ":3754,"çļĦä¸Ģéĥ¨åĪĨ":3755,"èĢĮè¨Ģ":3756,"çĽ®çļĦåľ°":3757,"éĩĬæĶ¾":3758,"èį·":3759,"ç¦ģ":3760,"è®¾å®ļ":3761,"æľĢå¥½":3762,"é¢ĨåŁŁçļĦ":3763,"æľĢå¥½çļĦ":3764,"çģ°":3765,"é¸¡èĤī":3766,"å¾Ĺåĩº":3767,"åĸľå¥½":3768,"å¼ķåĬĽ":3769,"éĻ·":3770,"ç§įæ¤į":3771,"æľīéĻĲ":3772,"è§Ĩä¸º":3773,"åĮ¹":3774,"æ®ĸ":3775,"åıĺæĪĲ":3776,"æľīä¸ĢäºĽ":3777,"è¾ħåĬ©":3778,"âĢ¦":3779,"åĪ°çļĦ":3780,"çĹħæ¯Ĵ":3781,"è¿Ļåı¥è¯Ŀ":3782,"çļ®èĤ¤":3783,"å¼łä¸ī":3784,"éĻĦè¿ĳ":3785,"éģİ":3786,"å®ŀä½ĵ":3787,"ãĢģãĢĬ":3788,"æµ·æ»©":3789,"æĸ°åŀĭ":3790,"ĠÃ·":3791,"åĴĮè°Ĳ":3792,"ä¼¯":3793,"æĪĳå¾Ī":3794,"çĬ¬":3795,"æ¡£":3796,"åĪ°è¾¾":3797,"çģŃ":3798,"ä¸ªèĭ¹æŀľ":3799,"çº½":3800,"é¡µ":3801,"æł¹æį®ç»Ļå®ļçļĦ":3802,"ç¼ºçĤ¹":3803,"ä¸ĬéĿ¢":3804,"åħ¶ä¸ŃçļĦ":3805,"å®ĥåı¯ä»¥":3806,"èº«ä½ĵåĴĮ":3807,"è¡¨çİ°åĩº":3808,"å®ŀæĹ¶":3809,"ä¸Ńåįİ":3810,"æī¬":3811,"æīĢæľīçļĦ":3812,"èıĮ":3813,"è§ĦèĮĥ":3814,"çĺ":3815,"å¤®":3816,"å¹´ä»£":3817,"æĹ§":3818,"æĭĵ":3819,"åį°åº¦":3820,"å¼Ĥå¸¸":3821,"å¯Ĩçłģ":3822,"æĹ¶éĹ´çļĦ":3823,"æ¶Ĥ":3824,"è·ĳæŃ¥":3825,"åĵºä¹³":3826,"çºł":3827,"éĩįéĩı":3828,"ä¸įçŁ¥éģĵ":3829,"äºĭçī©":3830,"éĩįçĤ¹":3831,"è·Łè¸ª":3832,"æĽ´å¥½åľ°ç®¡çĲĨ":3833,"æĽ¿ä»£":3834,"çļĦéŁ³ä¹Ĳ":3835,"ĠâĢľ":3836,"åľĪ":3837,"æ¬§æ´²":3838,"æĬķåħ¥":3839,"åĴĮéľĢæ±Ĥ":3840,"ç´«":3841,"çļĦåŁºæľ¬":3842,"åĵģç§į":3843,"å°±ä¼ļ":3844,"è¦ģæ³¨æĦı":3845,"å¸®åĬ©ä½ł":3846,"æ¼ı":3847,"çļĦè¿ĩç¨ĭä¸Ń":3848,"çĲ´":3849,"âĢĿãĢģ":3850,"Ġà¤":3851,"å¤įæĿĤåº¦":3852,"åİĤ":3853,"ä¸Ģæ¬¾":3854,"è¿ĲçĶ¨":3855,"åħ±äº«":3856,"éģµå¾ª":3857,"å¤ıå¤©":3858,"çĪ±çļĦ":3859,"ä¸ŃæľĢ":3860,"äººéĻħ":3861,"èİĵ":3862,"èĤº":3863,"æ¿ĢåĬ±":3864,"çĶµè¯Ŀ":3865,"çĶµåŃĲéĤ®ä»¶":3866,"äºĭé¡¹":3867,"åĴĮæĥħæĦŁ":3868,"çº¤":3869,"æ¯ıæ¬¡":3870,"ä»¥ä¸ĭåĩł":3871,"çı¾":3872,"è´´":3873,"çļĦç½ĳ":3874,"çļĦåĨħå®¹":3875,"ä»ĸåľ¨":3876,"æģĭ":3877,"åĬŀåħ¬":3878,"èķī":3879,"è°Ĭ":3880,"ç´¯":3881,"æ½®":3882,"éĢīé¡¹":3883,"èĸĦ":3884,"æ°ĳèŃ¦":3885,"åĲ¸æĶ¶":3886,"æī®æ¼Ķ":3887,"çİ¯å¢ĥæ±¡æŁĵ":3888,"ä¹±":3889,"çĽĹ":3890,"æŃĮè¯į":3891,"ä¸¥æł¼":3892,"æĺŁçĲĥ":3893,"åħįçĸ«":3894,"åľºæīĢ":3895,"å¤ļæł·æĢ§":3896,"åģļå¥½":3897,"éĵħç¬Ķ":3898,"ä½ĵéĩį":3899,"å²¸":3900,"çļĦä¸ĢäºĽ":3901,"æĺ¯ä¸Ģä½į":3902,"æ»¡æĦıåº¦":3903,"çĤİ":3904,"æĤī":3905,"æ³Ħ":3906,"èĬĤçº¦":3907,"éĢļå¸¸æĺ¯":3908,"çļĦäº§åĵģ":3909,"åľºåĲĪ":3910,"å®ĥæĺ¯":3911,"çĶŁç´ł":3912,"çłĶåıĳ":3913,"éĩİçĶŁ":3914,"çŃīå¾ħ":3915,"çī¹å®ļçļĦ":3916,"é¼ł":3917,"æħ¢æħ¢":3918,"æ°§æ°Ķ":3919,"æķ´ä½ĵ":3920,"è°ĥèĬĤ":3921,"æĹ¨åľ¨":3922,"éľĢè¦ģè¿Ľè¡Į":3923,"å¥³åŃ©":3924,"åħ¨éĿ¢":3925,"çļĦé¢ľèī²":3926,"åĲ¬è¯´":3927,"æ¯«":3928,"al":3929,"å¸¸å¸¸":3930,"å¹´æĿ¥":3931,"æĢ§è´¨":3932,"éļľç¢į":3933,"å¹¶å°Ĩ":3934,"æľįè£ħ":3935,"èĬĿ":3936,"å®īåħ¨åĴĮ":3937,"åĭĴ":3938,"é¦Ļèķī":3939,"ç¾¤ä½ĵ":3940,"å°±åı¯ä»¥":3941,"å·¥èīº":3942,"éĢīæĭ©åĲĪéĢĤçļĦ":3943,"åĳĬè¯īæĪĳ":3944,"èĦī":3945,"æĮĳæĪĺåĴĮ":3946,"çĶ³è¯·":3947,"âĢĿãĢģâĢľ":3948,"éī":3949,"ä¸Ĭä¸ĭ":3950,"è¿Ļæł·åı¯ä»¥":3951,"çļĦèĥ½åĬĽ":3952,"åıįæĺł":3953,"ä¸ĸçķĮä¸ĬæľĢ":3954,"ç¡®è®¤":3955,"ç¾İå¥½":3956,"å¯¸":3957,"è®ºæĸĩ":3958,"çī©çĲĨåŃ¦":3959,"æ´ĭèĳ±":3960,"æĪĳä¹Ł":3961,"åĴĮçĲĨè§£":3962,"æĪ´":3963,"ä¸ºæĤ¨æıĲä¾Ľ":3964,"å¯¹äººç±»":3965,"è®©ä½ł":3966,"å®¶çļĦ":3967,"çº¹":3968,"è½¦ç«Ļ":3969,"ÑĤ":3970,"ä¼ĺæĥł":3971,"åĪºæ¿Ģ":3972,"23":3973,"ä¼łè¾¾":3974,"æĬķèµĦèĢħ":3975,"çķ¶":3976,"æ¸ħæ´Ĺ":3977,"çļĦäºĭæĥħ":3978,"çº¦ç¿°":3979,"å®ĮåĸĦ":3980,"èĴĻ":3981,"å·´é»İ":3982,"èĲ¥éĶĢçŃĸçķ¥":3983,"æŃ£éĿ¢":3984,"å¦»":3985,"å¤§åŀĭ":3986,"èĥ¡æ¤Ĵ":3987,"ä¼¤å®³":3988,"èĬĤçĤ¹":3989,"æĽ´æľī":3990,"æĩī":3991,"åĬłéĢŁ":3992,"åĪ©æ¶¦":3993,"åĪĨç»Ļ":3994,"åĪĨè§£":3995,"åģ¥åº·é¥®é£Ł":3996,"åĲ«ä¹ī":3997,"ç¡®å®ŀ":3998,"çĶŁæĪĲä¸Ģä¸ª":3999,"çªģçĦ¶":4000,"åģ¶":4001,"åıĭè°Ĭ":4002,"éķ¿çļĦ":4003,"æĴ°":4004,"æľŁå¾ħ":4005,"éī´":4006,"ç¥ĸ":4007,"é«Ķ":4008,"è¿Ĳè¾ĵ":4009,"èĭ¥":4010,"æĪĳä»¬çļĦçĶŁæ´»":4011,"Ġä¿ĿæĮģ":4012,"éĺµ":4013,"å®īåħ¨æĢ§":4014,"è²Į":4015,"æŁ¥çľĭ":4016,"å¿ĥçĲĨåģ¥åº·":4017,"å¹¶æ²¡æľī":4018,"éĢĤéĩıçļĦ":4019,"åĵģå°Ŀ":4020,"æ½ľåĬĽ":4021,"çĽ®æłĩåĴĮ":4022,"äºĭä¸ļ":4023,"æĦŁåħ´è¶£":4024,"çŀ":4025,"æĦ¿æĦı":4026,"æĺĵäºİ":4027,"æĤ²":4028,"åıĬåħ¶":4029,"æķ°ä¸º":4030,"è¿ĻäºĽéĹ®é¢ĺ":4031,"çĹħäºº":4032,"é¡ºåºı":4033,"åĨĴéĻ©":4034,"ä¸Ńæĸĩ":4035,"æī©å¤§":4036,"æĸĩä»¶":4037,"æ´ª":4038,"å¿łè¯ļ":4039,"åŃĲåĴĮ":4040,"çļĦä¸Ģç§į":4041,"am":4042,"èİī":4043,"ĠæıĲä¾Ľ":4044,"åĴĮå·¥ä½ľ":4045,"æĸĩæĺİ":4046,"æĬĵ":4047,"æĽ´ä¸º":4048,"æ¬º":4049,"èĢĥè¯ķ":4050,"æł¹æį®ä»¥ä¸ĭ":4051,"éĢļå¸¸ä¼ļ":4052,"éĢĤçĶ¨äºİ":4053,"å«Įçĸĳ":4054,"28":4055,"èĥ¸":4056,"è·¯çº¿":4057,"å±ı":4058,"å¼Ł":4059,"ç»ıçĲĨ":4060,"äº§ä¸ļ":4061,"ĠS":4062,"ç®Ģæ´ģ":4063,"è¿ĩäºİ":4064,"åŃĻ":4065,"500":4066,"ĠØ":4067,"åĴĮæĬĢæľ¯":4068,"ä»Ģä¹Īæĺ¯":4069,"ãĢĭãĢģãĢĬ":4070,"çº·":4071,"æ©Ħ":4072,"çĮª":4073,"éĶħä¸Ń":4074,"å¤§èĦĳ":4075,"å¹²æī°":4076,"åĴĮè¡Įä¸º":4077,"åĿĢ":4078,"çĻĮ":4079,"èĲĿ":4080,"åĪĻæĺ¯":4081,"åĪĨç±»ä¸º":4082,"ä¸ĵä¸ļçļĦ":4083,"çļĦç»ĵæŀľ":4084,"ä¸²":4085,"åıªèĥ½":4086,"è´«":4087,"æıĲç¤º":4088,"é¦Ļæ¸¯":4089,"æĶ¯åĩº":4090,"æľŁæľĽ":4091,"ä¸Ģç³»åĪĹ":4092,"åĴĮæĬĢèĥ½":4093,"ç«ĭåį³":4094,"æĳĨ":4095,"å¤ļåħĥ":4096,"æĽ¼":4097,"æĪĲç«ĭ":4098,"åĲįä¸º":4099,"å¤§èĩªçĦ¶":4100,"å§ĵ":4101,"çº¤ç»´":4102,"èĤ¯":4103,"æĪĲåĬŁçļĦ":4104,"éĺ´":4105,"åı¯ä»¥èĢĥèĻĳ":4106,"ä¹ĭéĹ´çļĦåħ³ç³»":4107,"Ñģ":4108,"æ°´ä¸Ń":4109,"Ġ9":4110,"ä¿¡çĶ¨":4111,"ä»ģ":4112,"åģıè§ģ":4113,"æ·±åĳ¼åĲ¸":4114,"ä¸ĵæ³¨äºİ":4115,"åĪ¶åº¦":4116,"äººä½ĵ":4117,"ç¢º":4118,"æīĭæľ¯":4119,"æ¦Ħ":4120,"åĪ¶å®ļä¸Ģä¸ª":4121,"æĮĸ":4122,"æĴŀ":4123,"æĹ¶éĹ´è¡¨":4124,"æľīæīĢå¸®åĬ©":4125,"å¦ĤæŃ¤":4126,"çļĦç¤¾äº¤":4127,"åŁİå¸ĤçļĦ":4128,"è®©ä»ĸä»¬":4129,"ï¼īï¼ļ":4130,"åľ¨è¿Ļ":4131,"æ©Ł":4132,"ä¼łæĦŁ":4133,"æĽ´é«ĺçļĦ":4134,"ç·":4135,"å£ģ":4136,"ä»¥å¸®åĬ©":4137,"æ¯ıä¸ªæľĭåıĭ":4138,"ä¸ªç³ĸæŀľ":4139,"çļĦéľĢæ±Ĥ":4140,"æĹ¶åĪ»":4141,"åĵºä¹³åĬ¨çī©":4142,"æĭħä»»":4143,"æĿĥåĪ©":4144,"ãĤ":4145,"æĦıè¯ĨåĪ°":4146,"æ©Ħæ¦Ħ":4147,"è¿ĻæľīåĬ©äºİ":4148,"å®¢æĪ·æľįåĬ¡":4149,"ä¼łéĢĴ":4150,"å°ıåŃ¦":4151,"ä¸Ńå¤®":4152,"åľ°ä½į":4153,"è£ģ":4154,"æĦīå¿«":4155,"æķ°çļĦ":4156,"æİ¥è§¦":4157,"æĭĽèģĺ":4158,"éĩĳå±ŀ":4159,"çķĻä¸ĭ":4160,"çļĦçĶŁæ´»æĸ¹å¼ı":4161,"å¼ºå¤§çļĦ":4162,"è®©äººä»¬":4163,"éĺĶ":4164,"åĪ·":4165,"æĥħæĦŁåĪĨæŀĲ":4166,"ä¼łæĦŁåĻ¨":4167,"äººåľ¨":4168,"éĶĢåĶ®é¢Ŀ":4169,"ä¸ĭåįĪ":4170,"éĹ²":4171,"çĽĴ":4172,"é¢ĨåŁŁçļĦåºĶçĶ¨":4173,"çĽŁ":4174,"åłµ":4175,"åħħæ»¡äºĨ":4176,"èµ¢":4177,"éľĢè¦ģæł¹æį®":4178,"å°¿":4179,"æ¥ļ":4180,"ç«ŀäºīå¯¹æīĭ":4181,"å¾Ĵ":4182,"èģª":4183,"åŃĹç¬¦":4184,"çļĦéĢīæĭ©":4185,"è¡Įé©¶":4186,"å¤ĸè§Ĥ":4187,"çļĦçľŁ":4188,"çĮİ":4189,"éĸĵ":4190,"ç¾Ĭ":4191,"é»ĳèī²":4192,"äººå·¥æĻºèĥ½åľ¨":4193,"çĶµåĻ¨":4194,"å¯Ĵ":4195,"ç¢Ĺ":4196,"è¾£æ¤Ĵ":4197,"å¤±è´¥":4198,"æĺ¨":4199,"åħĶ":4200,"éĹª":4201,"çļĦç³ĸ":4202,"åĮĸåĲĪ":4203,"å¹³éĿ¢":4204,"èİ«":4205,"æ²Ļæĭī":4206,"el":4207,"æĪ¿å±ĭ":4208,"æĦıå¤§åĪ©éĿ¢":4209,"åĴĮä¼ĺåĮĸ":4210,"æīĵå¼Ģ":4211,"æĪª":4212,"åĩºçĶŁ":4213,"å¹¶ä¸įæĺ¯":4214,"èĬĤæĹ¥":4215,"è¿Ļæł·çļĦ":4216,"è¢«å¹¿æ³Ľ":4217,"æīĢéľĢçļĦ":4218,"æµªæ¼«":4219,"åŃ©åŃĲä»¬":4220,"åĴĮæķ°æį®":4221,"çĳŀ":4222,"èģĮä½į":4223,"æŃ£å¼ı":4224,"èº«ä½ĵçļĦ":4225,"å¹¿æ³ĽçļĦåºĶçĶ¨":4226,"å¤§å¤ļ":4227,"è¡¨è¾¾äºĨ":4228,"æĭĸ":4229,"æĿ¥æıĲé«ĺ":4230,"åĽŀæĬ¥":4231,"çĻ½èī²":4232,"æĬĳ":4233,"çīĽèĤī":4234,"æĸĩåĮĸçļĦ":4235,"åľ¨å·¥ä½ľ":4236,"åľŁåľ°":4237,"ç£ģ":4238,"ä¸įä»ħä»ħ":4239,"åĴĮçĽ®æłĩ":4240,"çĽ¾":4241,"èĩªçĦ¶çģ¾å®³":4242,"ãĥ":4243,"åĴĮæ°´":4244,"æŀģç«¯":4245,"åıĳæĺİ":4246,"çľĭçľĭ":4247,"è¢«åĳĬ":4248,"ç§Ĵ":4249,"ä¹Į":4250,"çļĦè®¾è®¡":4251,"åŃĶ":4252,"è¯įè¯Ń":4253,"åĩºè¡Į":4254,"æīĢåľ¨":4255,"ä¸»è§Ĵ":4256,"è¿Ĳè¡Į":4257,"åĩĨç¡®æĢ§åĴĮ":4258,"éļıæľº":4259,"çĻ¼":4260,"æĢ§æł¼":4261,"æĬµ":4262,"ç¨®":4263,"æŃ»äº¡":4264,"åį§":4265,"æłĩçŃ¾":4266,"åħ±æľī":4267,"ä¿Ĺ":4268,"é½Ĳ":4269,"æĺ¯æĪĳä»¬":4270,"è´·":4271,"éĿ¢è¯ķ":4272,"çŁ¥åĲį":4273,"åį°è±¡":4274,"èĬ±è´¹":4275,"çĪ¬":4276,"åĪĨæķ£":4277,"æĴĴ":4278,"éĤ£éĩĮ":4279,"åĶ¯":4280,"åľ°åĮºçļĦ":4281,"è±¡å¾ģ":4282,"çªģåĩº":4283,"ä¾¿æį·":4284,"å·²ç»ıæĪĲä¸º":4285,"è³ĩ":4286,"æĻ®éĢļ":4287,"æī¾åĩº":4288,"ä»¥ä¸ĭæŃ¥éª¤":4289,"è¡Ģåİĭ":4290,"ç»ĦæĪĲéĥ¨åĪĨ":4291,"åĩĨç¡®çļĦ":4292,"å½¢å®¹":4293,"æ·±è¿ľçļĦå½±åĵį":4294,"æľĢæĸ°":4295,"åĴĮåŃ¦ä¹ł":4296,"åĪĨåĪ°":4297,"å½ĵä»Ĭ":4298,"æĦŁæŁĵ":4299,"ĠA":4300,"èģĮåľº":4301,"çļĦæĥħåĨµä¸ĭ":4302,"å®ŀçĶ¨":4303,"å¦ĩ":4304,"è´¸":4305,"åİŁåĪĻ":4306,"åī©ä¸ĭ":4307,"çĶ·æĢ§":4308,"åķı":4309,"åıĤè§Ĥ":4310,"çŃīäºİ":4311,"æĬ«èĲ¨":4312,"æ°ĳæĹı":4313,"å¤§çº¦":4314,"åĢį":4315,"ç»´çĶŁç´ł":4316,"çļĦæĢ»":4317,"çļĦæľºä¼ļ":4318,"æĸĩæľ¬åĨħå®¹":4319,"è¯ķåĽ¾":4320,"åºıåĪĹ":4321,"ç¾İåĳ³çļĦ":4322,"è±ĨèħĲ":4323,"æħİ":4324,"èĻļæĭŁçİ°å®ŀ":4325,"è¯Ī":4326,"å©ļç¤¼":4327,"æ¢°":4328,"ä¼ļå¯¹":4329,"æľīæľº":4330,"å¿ĹæĦ¿":4331,"ä¸Ģèĩ´":4332,"æĺ¯åĲ¦æľī":4333,"æ·ĭ":4334,"åľ¨è¿ĻéĩĮ":4335,"ä¿®æĶ¹":4336,"å®¿":4337,"è¿«":4338,"äººå·¥æĻºèĥ½çļĦåıĳå±ķ":4339,"ä¼Ł":4340,"èĬ±åĽŃ":4341,"çļĦç¼":4342,"æĦŁæĥħ":4343,"åŀĥåľ¾åĪĨç±»":4344,"å¹¶æł¹æį®":4345,"éģĩåĪ°äºĨ":4346,"è¿Ľè¡ĮäºĨ":4347,"çº¯":4348,"æĶ¾å¼ĥ":4349,"è¿Ļæ¬¾":4350,"æľĢé«ĺ":4351,"åľ°éľĩ":4352,"çī©æµģ":4353,"åģ¥åº·åĴĮ":4354,"çĶŁæ´»çļĦ":4355,"äºĮæ°§åĮĸ":4356,"æ©ĻåŃĲ":4357,"ä¸ŃåĽ½çļĦ":4358,"ħåĬĽ":4359,"ä¸ŃçļĦåºĶçĶ¨":4360,"é¡Į":4361,"80":4362,"æĮĩåĩº":4363,"à¹":4364,"è¿Ļä¸¤ä¸ª":4365,"åıªè¦ģ":4366,"åºĶè¯¥æĺ¯":4367,"æŀĦæĪĲ":4368,"åĪĽä¸ļ":4369,"æİ¢éĻ©":4370,"å¸¦æĿ¥çļĦ":4371,"æ³ķéĻ¢":4372,"ä»»åĬ¡çļĦ":4373,"lo":4374,"éĿŀå¸¸æľī":4375,"ç£¨":4376,"èµ¶":4377,"åĲĪçĲĨçļĦ":4378,"çļĦç¥ŀ":4379,"ä¼Ļä¼´":4380,"åĲĮæł·":4381,"æ¼Ĥ":4382,"åı°æ¹¾":4383,"åıĤæķ°":4384,"æ°¸è¿ľ":4385,"æī¿åıĹ":4386,"çĲĨå¿µ":4387,"åı¤èĢģ":4388,"èı²":4389,"çļĦç´":4390,"ä»ĸäººçļĦ":4391,"æĦīæĤ¦":4392,"å¹¶æıĲé«ĺ":4393,"éĻª":4394,"æķ°åŃĹåĮĸ":4395,"áĢ":4396,"é«ĺè´¨éĩı":4397,"æĮĩåįĹ":4398,"ä¸Ģå¹´":4399,"æŀĦå»º":4400,"ä¸įéľĢè¦ģ":4401,"åłĨ":4402,"ä¹Łåľ¨":4403,"å§¿åĬ¿":4404,"åħ¬åħ±äº¤éĢļ":4405,"åħ³éĹŃ":4406,"åľĭ":4407,"éĩıåĴĮ":4408,"åĨ·éĿĻ":4409,"æĩĤ":4410,"ä¸įåĨį":4411,"ĠæĻºèĥ½":4412,"éķ¿æĹ¶éĹ´":4413,"æ±¤å§Ĩ":4414,"æĭħå¿ĥ":4415,"æĪĳå°Ĩ":4416,"é£ŀæľº":4417,"æ°´åĴĮ":4418,"ä¸Ģé¡¹":4419,"æıĲä¾ĽæĽ´å¥½çļĦ":4420,"åĲĮåŃ¦":4421,"åıĹæ¬¢è¿İçļĦ":4422,"è±ª":4423,"å®¶åºŃæĪĲåĳĺ":4424,"å¦Ĩ":4425,"å¦Īå¦Ī":4426,"åįľ":4427,"å¿ĥæĥħ":4428,"çļĦç¾İé£Ł":4429,"å®ļä½į":4430,"è·ĥ":4431,"çļĦæķĪæŀľ":4432,"å¾ĭå¸Ī":4433,"åĬ¨è¯į":4434,"åĻª":4435,"åı£è¯Ń":4436,"ä»Ķç»Ĩ":4437,"åıī":4438,"æĭĶ":4439,"å§ĭç»Ī":4440,"çļĦä»·æł¼":4441,"èģªæĺİ":4442,"æĿ¨":4443,"ä¹Łå¾Ī":4444,"æĹłäºº":4445,"ä¿Ħ":4446,"ç²¾åĩĨ":4447,"ç¬¬ä¸Ģä¸ª":4448,"æ¼Ķè®²":4449,"è¦ĨçĽĸ":4450,"ä¼ĺè´¨":4451,"åĢ¾åĲ¬":4452,"åĭĩæķ¢":4453,"èŃ¦æĸ¹":4454,"åĽŀå½Ĵ":4455,"åı¯ä»¥åĩıå°ĳ":4456,"åºĻ":4457,"çħİ":4458,"åı¯éĿłæĢ§":4459,"çļĦçĬ¶":4460,"å©´":4461,"è¢«è®¤ä¸ºæĺ¯":4462,"ç¼ĺ":4463,"ĠãĢĬ":4464,"è´§å¸ģ":4465,"åľ°çļĦ":4466,"Ġ*":4467,"è£¤":4468,"æ©Ħæ¦Ħæ²¹":4469,"éģĹäº§":4470,"æĺ¯æĪĳ":4471,"ĠåĬłåħ¥":4472,"at":4473,"æ¯ıåĳ¨":4474,"å¾¡":4475,"æĺ¯ä¸Ģé¡¹":4476,"åĽłä¸ºå®ĥä»¬":4477,"çļĦæľįåĬ¡":4478,"æŁł":4479,"æģĴæĺŁ":4480,"å¿§":4481,"ç©¿çĿĢ":4482,"æĪĸæľįåĬ¡":4483,"å¢¨":4484,"èĮĥåĽ´åĨħ":4485,"ç©Ĩ":4486,"æ¶Īæģ¯":4487,"æĹ©ä¸Ĭ":4488,"éĤ»":4489,"çĪ¶æ¯į":4490,"åħĪè¿Ľ":4491,"ä¸Ĭè¿°":4492,"æ¿Ģåıĳ":4493,"å¼ºåº¦":4494,"è®ĵ":4495,"æĸ°éĹ»æĬ¥éģĵ":4496,"å¼Ģå±ķ":4497,"åİĺç±³":4498,"29":4499,"è¿Ķ":4500,"æĽ´æį¢":4501,"å¯¹æĸ¹çļĦ":4502,"æª¬":4503,"45":4504,"å¼ķåıĳ":4505,"çĵ¦":4506,"ä»¥æĿ¥":4507,"å»ºè®®æĤ¨":4508,"èĬĤèĥ½":4509,"çļĦçī¹çĤ¹":4510,"çĥ¤ç®±":4511,"å·¥ä½ľæķĪçİĩ":4512,"éŁ©":4513,"è£Ĥ":4514,"æľ¬æĸĩ":4515,"æĵİ":4516,"çĽĨ":4517,"æĬĢè¡ĵ":4518,"çļĦä½įç½®":4519,"é£İæĻ¯":4520,"èĺ":4521,"ĽçĽ¾":4522,"çĸ«èĭĹ":4523,"å®ļåĪ¶":4524,"æī£":4525,"èŀįåĲĪ":4526,"æĥħæĦŁåĴĮ":4527,"èİ±":4528,"çļĦçľĭ":4529,"çĶĺ":4530,"äºĮæ°§åĮĸç¢³":4531,"ä¸įèī¯":4532,"æĺ¯éĢļè¿ĩ":4533,"é«ĺéĢŁ":4534,"çİ»":4535,"å¹´è½»çļĦ":4536,"å¤Ħäºİ":4537,"çº½çº¦":4538,"æĮĤ":4539,"èĥ½å¤Łåľ¨":4540,"ç§ĳæĬĢçļĦ":4541,"åķĨåĬ¡":4542,"æľªçŁ¥":4543,"åıĺéĿ©":4544,"åĴĮèµĦæºĲ":4545,"ä»¥éģ¿åħį":4546,"å¼ķæĵİ":4547,"å½Ĵç±»":4548,"æ³¥":4549,"æıĲä¾ĽæĽ´åĬł":4550,"å§Ķåĳĺ":4551,"ä¸ºä¸»":4552,"åŃ©åŃĲçļĦ":4553,"é¸Ń":4554,"çĩĥæĸĻ":4555,"è½¬åĮĸä¸º":4556,"æĻĭ":4557,"æķ£æŃ¥":4558,"èĩªçĦ¶çİ¯å¢ĥ":4559,"é¢ĳçİĩ":4560,"çĽ¸åıį":4561,"æĺ¯ä¸ĢåĲį":4562,"æŁłæª¬":4563,"åĴĮä½¿çĶ¨":4564,"åĮĸåĲĪçī©":4565,"æ£ĭ":4566,"çļĦæĦŁè§ī":4567,"å¿ĥèĦı":4568,"æ®ĭ":4569,"è¯¢éĹ®":4570,"åĳ¨æľŁ":4571,"åĽ¢éĺŁåĲĪä½ľ":4572,"éĿ©åĳ½":4573,"æķ°ç»Ħ":4574,"æ¦Ĥçİĩ":4575,"åĸ·":4576,"äººå·¥æĻºèĥ½æĬĢæľ¯çļĦ":4577,"åī²":4578,"åĲİæĿ¥":4579,"é©±":4580,"éĺĲ":4581,"ç¼ĸç¨ĭ":4582,"æĮĸæİĺ":4583,"æī¿æĭħ":4584,"æľīæ°§":4585,"Ġ$":4586,"åĴĮå¹³":4587,"å¼ķå¯¼":4588,"ä¸ĢæĿ¡":4589,"çĽ¸æ¯Ķ":4590,"è®°èĢħ":4591,"åı¥åŃĲä¸Ń":4592,"ç®¡çĲĨåĴĮ":4593,"æĽ´é«ĺ":4594,"åĪ¶æĪĲ":4595,"70":4596,"çĸ²åĬ³":4597,"éĩįå¤§":4598,"èħ¹":4599,"æĹ¥å¸¸çĶŁæ´»ä¸Ń":4600,"çľŁæŃ£çļĦ":4601,"è°¨":4602,"å«Įçĸĳäºº":4603,"åĬłçĥŃ":4604,"ï¼Ł<|":4605,"æĴĳ":4606,"è¿ģ":4607,"ĠçļĦ":4608,"çĶµåĬ¨":4609,"éĽķ":4610,"çĶ¢":4611,"äººéĻħåħ³ç³»":4612,"æ¬²":4613,"èµĦæĸĻ":4614,"åľ¨æŁĲäºĽ":4615,"å¹²åĩĢ":4616,"æĺŁæľŁ":4617,"æĪĳåĢĳ":4618,"æĢª":4619,"è¿ĳå¹´æĿ¥":4620,"çĴĥ":4621,"èŃ¦å¯Ł":4622,"æĻ®éģį":4623,"åıĸå¾ĹäºĨ":4624,"æ¢ħ":4625,"ä½ĵç³»":4626,"å¥½å¤Ħ":4627,"äºİæĺ¯":4628,"åı¯èĥ½æĢ§":4629,"é¸Łç±»":4630,"æĦŁçŁ¥":4631,"æĬĢæľ¯çļĦåıĳå±ķ":4632,"çļĦåħ³ç³»":4633,"å¹¶å°Ĩåħ¶":4634,"éĻ¤ä»¥":4635,"æĹ¦":4636,"åĪĽéĢłåĩº":4637,"å°ıæĿİ":4638,"å²Ĺ":4639,"è¯¸":4640,"æľĪçĲĥ":4641,"çļĦçĸ":4642,"æĪĳä»¬åı¯ä»¥éĢļè¿ĩ":4643,"æ¥Ń":4644,"çİ©åħ·":4645,"è´¾":4646,"ä¸įå¤ª":4647,"åĵªä¸ª":4648,"ä¼ĺç§ĢçļĦ":4649,"æłĸ":4650,"å¸Ń":4651,"æľīä»»ä½ķ":4652,"ä½łåľ¨":4653,"è´¸æĺĵ":4654,"à´":4655,"åľ°éĿ¢":4656,"ç»ıèĲ¥":4657,"åħ±åĲĮåĬªåĬĽ":4658,"åı¯ä»¥çĶ¨":4659,"å°Ĭæķ¬":4660,"éľĢè¦ģåľ¨":4661,"æĤ¨å¥½":4662,"æ°´çļĦ":4663,"è½¨éģĵ":4664,"èĬĤçĽ®":4665,"çŃīä¿¡æģ¯":4666,"ä»Ļ":4667,"è¾ĥä½İ":4668,"çľ¼çĿĽ":4669,"åĩĿ":4670,"ç¯ĩåħ³äºİ":4671,"å¹´è½»äºº":4672,"çĪ¸":4673,"æ¯ķä¸ļ":4674,"æ¢ģ":4675,"çĸ«æĥħ":4676,"æķĮ":4677,"æľĢéĢĤåĲĪ":4678,"åĺī":4679,"éħª":4680,"åĬłä¸Ĭ":4681,"æĺİçĻ½":4682,"éĩĩåıĸè¡ĮåĬ¨":4683,"åŃ¦èĢħ":4684,"åŃĹæ¯į":4685,"è¯ĬæĸŃåĴĮæ²»çĸĹ":4686,"ä¸¹":4687,"åŃ¦çĶŁçļĦåŃ¦ä¹ł":4688,"çļĦè¯Ńè¨Ģ":4689,"éªĹ":4690,"æ¤ħ":4691,"ä»ĸä»¬åľ¨":4692,"çĭĹçĭĹ":4693,"æĵ¦":4694,"åĴĮå¤ĦçĲĨ":4695,"åı¹":4696,"çļĦçľĭæ³ķ":4697,"åĭ¤":4698,"åº¦è¿ĩ":4699,"æķıæĦŁ":4700,"éĩİçĶŁåĬ¨çī©":4701,"ç»Ļä½ł":4702,"çĪ½":4703,"è¿Ļæĺ¯åĽłä¸º":4704,"è¾ĥé«ĺ":4705,"åį«æĺŁ":4706,"æĢ»ä½ĵ":4707,"æ²ŁéĢļåĴĮ":4708,"æ³ī":4709,"åħ±åĴĮ":4710,"ĠÙ":4711,"ä¼¼ä¹İ":4712,"ç¥ŀç§ĺçļĦ":4713,"2021":4714,"æľ¬èº«":4715,"åŃ¦ç§ĳ":4716,"å¾Īå¥½çļĦ":4717,"èģĬå¤©æľºåĻ¨äºº":4718,"è½¬æį¢ä¸º":4719,"çļĦçĻ":4720,"Ġå¯»æ±Ĥ":4721,"ç½²":4722,"æĺ¾èĳĹ":4723,"åıĸåĩº":4724,"çİ»çĴĥ":4725,"ä¸Ģéģĵ":4726,"å¯¹åħ¶":4727,"åĲĮæĹ¶ä¹Łåı¯ä»¥":4728,"åįģå¹´":4729,"çĥŃæĥħ":4730,"çĶ¨åĵģ":4731,"»çĤĴ":4732,"è£ħä¿®":4733,"åĴĮæĶ¹è¿Ľ":4734,"äººå·¥æĻºèĥ½åı¯ä»¥":4735,"ä»¥ä¾¿æĽ´å¥½åľ°":4736,"ç¿»çĤĴ":4737,"æĹģ":4738,"çļĦè´¨éĩı":4739,"é¸£":4740,"å¤©çĦ¶":4741,"éĢļçŁ¥":4742,"åı¯ä»¥æĺ¯":4743,"éĶģ":4744,"as":4745,"æĪĳä»¬ä¼ļ":4746,"ä½¿çĶ¨äºĨ":4747,"å®ĭ":4748,"æĶ¾ç½®":4749,"æĤł":4750,"ç®Ĺæ³ķçļĦ":4751,"è¡ĮæĶ¿":4752,"NA":4753,"åľ¨ä¸ŃåĽ½":4754,"æĺ¯ä¸Ģéĥ¨":4755,"æī©å±ķ":4756,"èįīèİĵ":4757,"ĠAI":4758,"ä¸Ĭä¸ĭæĸĩ":4759,"å±Ĭ":4760,"çĽĲåĴĮ":4761,"è¿Ľåº¦":4762,"å°ıåŀĭ":4763,"æĸĩæľ¬ä¸ŃçļĦ":4764,"å¤§å¤ļæķ°":4765,"æĪĳåľ¨":4766,"æıĲåīį":4767,"æĹ¶åħī":4768,"Ġå¦Ĥæŀľ":4769,"ä½ľä¸ºä¸Ģä¸ª":4770,"Ġå®ļæľŁ":4771,"å¤ĩçĶ¨":4772,"éĹľ":4773,"æĿ¥çľĭ":4774,"è¾Ĳ":4775,"æ²»çĸĹæĸ¹æ¡Ī":4776,"æĪĳä»¬åı¯ä»¥ä½¿çĶ¨":4777,"ĠĠĠĠĠĠĠĠ":4778,"éļĨ":4779,"é¢Ĺç³ĸæŀľ":4780,"åıĹä¼¤":4781,"åĮ¹éħį":4782,"ç»ıéªĮåĴĮ":4783,"çĶŁåĳ½çļĦ":4784,"éĢ²è¡Į":4785,"ç³Ĭ":4786,"æİ¨åĩº":4787,"æµģçķħ":4788,"æ³Ħéľ²":4789,"åĬĽäºİ":4790,"çļĦçŁŃ":4791,"æķĻèĤ²åĴĮ":4792,"åľ¨ä½¿çĶ¨":4793,"Ð¾Ð":4794,"åĪĽéĢłåĬĽ":4795,"ä¸ĭéĿ¢æĺ¯":4796,"åĽ¾åĥıè¯ĨåĪ«":4797,"èıĩ":4798,"çļĦæĸ°":4799,"éĥ½åı¯ä»¥":4800,"çĽĪ":4801,"è¼":4802,"å¼ºåĮĸ":4803,"å¯¿åĳ½":4804,"ä¼ģä¸ļçļĦ":4805,"å½¢æĢģ":4806,"åĪ¶åĵģ":4807,"åĴª":4808,"å¹¿æ³ĽçļĦ":4809,"å¤©çļĦ":4810,"ãĢĤ\"":4811,"èĤīç±»":4812,"å®¶æĹı":4813,"éĵº":4814,"ä¸įç¡®å®ļ":4815,"åĨĮ":4816,"æĻ¯è§Ĥ":4817,"å®īéĿĻ":4818,"ä¸ªäººä¿¡æģ¯":4819,"æİĴåĪĹ":4820,"æµ¸":4821,"çİ¯ä¿ĿæĦıè¯Ĩ":4822,"åŃ¦éĻ¢":4823,"ç«¹":4824,"å¹¶è¿Ľè¡Į":4825,"ä¿ĿæĬ¤æĪĳä»¬çļĦ":4826,"åĮºåĪ«":4827,"å®ŀéĻħä¸Ĭ":4828,"æĹ¥å¸¸çĶŁæ´»":4829,"èīºæľ¯å®¶":4830,"çĶ¨æĪ·ä½ĵéªĮ":4831,"çĩ¥":4832,"è½»è½»":4833,"å±ķå¼Ģ":4834,"èĸª":4835,"æĤ¬":4836,"è¯Ńè¨Ģæ¨¡åŀĭ":4837,"èıľåįķ":4838,"çĶŁæĪĲä¸Ģç¯ĩ":4839,"éĻĪè¿°":4840,"æŁ¥æī¾":4841,"å·¥ç¨ĭå¸Ī":4842,"æħĪ":4843,"æ°¢":4844,"éĤĢ":4845,"å°ıæĺİæľī":4846,"æıĲä¾Ľä¸ĢäºĽ":4847,"èħĬ":4848,"å¯¹æĤ¨":4849,"åŃĲéĩĮ":4850,"æĭľ":4851,"å¤ĸçļĦ":4852,"åı¯ä»¥ä½¿":4853,"æĿ¥è§£åĨ³":4854,"æľīæĹ¶":4855,"ï¼īãĢģ":4856,"çĽ¸äºĴä½ľçĶ¨":4857,"åİŁåŃĲ":4858,"èĲĿåįľ":4859,"å¾Īæľī":4860,"åĿĩè¡¡":4861,"æļĤ":4862,"æ¶ĪéĻ¤":4863,"è¾¾æĪĲ":4864,"åĬĽåŃ¦":4865,"èĩªçĦ¶è¯Ńè¨Ģå¤ĦçĲĨæĬĢæľ¯":4866,"èŃ°":4867,"è¿Ļæ¬¡":4868,"éĨĭ":4869,"æĥľ":4870,"å½¢çļĦ":4871,"è¿Ļé¡¹":4872,"æĭĴ":4873,"æł¹æį®èĩªå·±çļĦ":4874,"å·¨å¤§":4875,"å±Ĥæ¬¡":4876,"å§»":4877,"èģĶåĲĪ":4878,"åįıè®®":4879,"å£³":4880,"å»ºéĢł":4881,"ç¢ĳ":4882,"æ¡ĥ":4883,"èĢģæĿ¿":4884,"ä¼łç»ŁæĸĩåĮĸ":4885,"ä½ĨæĪĳ":4886,"å¥³åŃĲ":4887,"åºĨç¥Ŀ":4888,"æ¸ħçĲĨ":4889,"é«ĺæķĪçļĦ":4890,"æĽ´å¤§çļĦ":4891,"åĽŀå¿Ĩ":4892,"æ¶Īæŀģ":4893,"è´¦æĪ·":4894,"é¦¨":4895,"æľºéģĩ":4896,"è¿Ļä¹Ł":4897,"å¯Ĩåº¦":4898,"åı¯ä»¥ä»İ":4899,"æł¼å¼ı":4900,"ÙĬ":4901,"ä¿®å¤į":4902,"çĲĥéĺŁ":4903,"ä¸ĢåĪĩ":4904,"ä¹Ļ":4905,"èĦĨ":4906,"çĩķ":4907,"è°ĵ":4908,"èĢĲå¿ĥ":4909,"çļĦæĬķèµĦ":4910,"åĴĮäººç±»":4911,"åĩºèī²":4912,"èĻ¾":4913,"çļĦåıĳçĶŁ":4914,"åĽŀå¤į":4915,"é£Łè°±":4916,"å¤ļæ¬¡":4917,"çĭ®":4918,"ä½ĵçİ°":4919,"åħ¨åĽ½":4920,"æĻ¨":4921,"æĹłéĻĲ":4922,"æ»´":4923,"å¹¼":4924,"æŀĿ":4925,"éĢĻäºĽ":4926,"it":4927,"åĴĮåģ¥åº·":4928,"æµħ":4929,"åİŁå§ĭ":4930,"æĺ¯åĽłä¸º":4931,"éĢļè¿ĩå¯¹":4932,"åĽŀåĪ°":4933,"çļĦæĸĩåĮĸ":4934,"æĮĩç¤º":4935,"çļĦçĬ¶æĢģ":4936,"åħ¬å®ī":4937,"æľĢæĸ°çļĦ":4938,"æľĢåĸľæ¬¢çļĦ":4939,"è¾ĥä¸º":4940,"æ¯ıä¸Ģä¸ª":4941,"åı¯èĥ½ä¼ļå¯¹":4942,"å®¶éķ¿":4943,"çļĦå¸®åĬ©":4944,"èĨľ":4945,"å±ħä½ı":4946,"çªĥ":4947,"ç»ĺçĶ»":4948,"æĹ¶éĹ´ç®¡çĲĨ":4949,"27":4950,"åħ´å¥ĭ":4951,"æĹĭè½¬":4952,"èİ·å¾ĹäºĨ":4953,"çļĦè¿ĲåĬ¨":4954,"äº¦":4955,"æĹ©é¤Ĳ":4956,"195":4957,"åĲĪæ³ķ":4958,"åħģ":4959,"åľ¨è¿Ļç§į":4960,"èĻİ":4961,"å®ļå¾ĭ":4962,"èĬĤçľģ":4963,"35":4964,"å©ļå§»":4965,"åĴĮçİ¯å¢ĥ":4966,"éĿ¢ä¸´çĿĢ":4967,"æ³Ĭ":4968,"æķ´çĲĨ":4969,"å¸¦æĿ¥æĽ´å¤ļçļĦ":4970,"åħ¼":4971,"å¼Ĺ":4972,"çļĦæ°´":4973,"ç®ĢçŁŃ":4974,"ou":4975,"åĪ«äºº":4976,"ä»¥ä¸ĭæĺ¯æĪĳ":4977,"è¯·æ±Ĥ":4978,"æł·æľ¬":4979,"åı¯ä»¥å¸®åĬ©äººä»¬":4980,"è¿ĲèĲ¥":4981,"ç¬¦åı·":4982,"æıŃ":4983,"æİ¨è¿Ľ":4984,"èĴĤ":4985,"åĴĮä¸ªäºº":4986,"çĶµå½±çļĦ":4987,"å¹´äºº":4988,"ä½Ĩåľ¨":4989,"åıĳå±ķçļĦ":4990,"å¾·åĽ½":4991,"å½ĵæĪĳä»¬":4992,"å¤©ä½ĵ":4993,"çļĦçľ¼":4994,"éĤ£ä¸ª":4995,"æĹĭå¾ĭ":4996,"ä¸ĢåĢĭ":4997,"åĶ¯ä¸Ģ":4998,"è«":4999,"çļĦç«ŀäºī":5000,"æĹ¶éĹ´åĨħ":5001,"Ġéģ¿åħį":5002,"æĿ¥åĪ°":5003,"æĽ´å¿«åľ°":5004,"æĮ«":5005,"å¸¸çĶ¨çļĦ":5006,"æĺĨ":5007,"ä¹Łå°±æĺ¯":5008,"èĩĤ":5009,"çŃīæĬĢæľ¯":5010,"æłĩè®°":5011,"æĭ¥åłµ":5012,"æľīæ°§è¿ĲåĬ¨":5013,"æ¢¯":5014,"å°ıåĿĹ":5015,"ç´łè´¨":5016,"ä¸įå¤Ł":5017,"åķıé¡Į":5018,"å¯ĮåĲ«":5019,"å»ºç«ĭä¸Ģä¸ª":5020,"èī¾ç±³":5021,"å¼¯":5022,"ç»ĵæŀĦåĴĮ":5023,"æĻºèĥ½æīĭæľº":5024,"èµĦæºĲçļĦ":5025,"æıĲåĪ°äºĨ":5026,"æıĲåĪ°":5027,"æĺ¯éĿŀå¸¸":5028,"çİ¯ä¿ĿçļĦ":5029,"çĶ·åŃ©":5030,"ç¯®çĲĥ":5031,"çļĦçĭ¬":5032,"å¤§æķ°æį®":5033,"ä¸Ģä»¶":5034,"çĲĥåĳĺ":5035,"æııç»ĺ":5036,"à®":5037,"26":5038,"æ³¢åĬ¨":5039,"é¢Ī":5040,"åħ±åĴĮåĽ½":5041,"éľĢè¦ģæĪĳä»¬":5042,"æĦŁæ¿Ģ":5043,"åĪĽå»ºä¸Ģä¸ª":5044,"ä¸Ńæľī":5045,"ä¸Ģåľº":5046,"éĻ¤æŃ¤":5047,"197":5048,"æ¡Īä¾ĭ":5049,"èĵĦ":5050,"ä»¥ä¸ĭæĺ¯ä¸ĢäºĽå»ºè®®":5051,"æľīæīĢä¸įåĲĮ":5052,"ä½łæĺ¯":5053,"äººå·¥æĻºèĥ½åľ¨åĮ»çĸĹ":5054,"åĴĮåĪĽæĸ°":5055,"Ø±":5056,"è¿Ļå®¶":5057,"å¼ºçļĦ":5058,"å°ĩ":5059,"éĢļä¿¡":5060,"èµ¢å¾Ĺ":5061,"åĴĮç»ıæµİ":5062,"å°ĺ":5063,"ç»³":5064,"éĿ¢ç²ī":5065,"å¯¹è±¡":5066,"è¾Ĳå°Ħ":5067,"èĩ´åĬĽäºİ":5068,"æĿİæĺİ":5069,"çī¹æĢ§":5070,"åı¯ä»¥å¸®åĬ©åĮ»çĶŁ":5071,"æ¶µçĽĸ":5072,"æµģéĩı":5073,"éĢīæĭ©ä¸Ģä¸ª":5074,"èĬ³":5075,"XXX":5076,"åĴĮé«ĺ":5077,"éĥ½èĥ½":5078,"æĪĺçķ¥":5079,"æķĻæİĪ":5080,"åĵįåºĶ":5081,"åľ°çĲĨ":5082,"çļĦä¸»":5083,"Ġ12":5084,"çĶ»éĿ¢":5085,"èĬĿå£«":5086,"è¿ĩæ»¤":5087,"åŃ¦æľ¯":5088,"åĵªéĩĮ":5089,"èĪĩ":5090,"è£Ļ":5091,"åĴĮçĶŁæ´»":5092,"æºª":5093,"æĪĺæĸĹ":5094,"è¾ĸ":5095,"å°¤åħ¶æĺ¯":5096,"äººæķ°":5097,"çħ§é¡¾":5098,"æķĳæı´":5099,"éĻ¤æŃ¤ä¹ĭå¤ĸ":5100,"æľīæĹ¶åĢĻ":5101,"ä»¥ä¸ĭéĹ®é¢ĺ":5102,"èīºæľ¯åĵģ":5103,"åĲ´":5104,"éĥ½åľ¨":5105,"æ²³æµģ":5106,"çľĭåĪ°äºĨ":5107,"åĮĸçŁ³":5108,"ç§ĳå¹»":5109,"åıįæĢĿ":5110,"ä¹Łä¸į":5111,"è´¢äº§":5112,"è¨Ī":5113,"äº§çĶŁçļĦ":5114,"ä¹Łå°Ĩ":5115,"ä½Ĩå®ĥ":5116,"è¶ĬæĿ¥è¶Ĭå¤ļ":5117,"å¿ĥçĲĨåŃ¦":5118,"æ¼Ķå¥ı":5119,"èĥľåĪ©":5120,"ĠO":5121,"å©´åĦ¿":5122,"åįıåĬ©":5123,"ä¸§":5124,"æĿĥçĽĬ":5125,"åĭĻ":5126,"ĠåŃ¦ä¹ł":5127,"æ¯įäº²":5128,"æıĲé«ĺèĩªå·±çļĦ":5129,"çļĦç©ºéĹ´":5130,"æłĸæģ¯":5131,"éĢĲæŃ¥":5132,"æĹłè®ºæĺ¯":5133,"å®ŀéĻħæĥħåĨµ":5134,"çļĦåŁİå¸Ĥ":5135,"åĩĨå¤ĩå¥½":5136,"æĿ¥è¿Ľè¡Į":5137,"éĩĩåıĸæİªæĸ½":5138,"å¿ĥçģµ":5139,"æĹ¥çĽĬ":5140,"å½ĵä½ł":5141,"ãĢĭï¼Į":5142,"é¼»":5143,"Ġ|":5144,"çĶŁæĢģçİ¯å¢ĥ":5145,"ä»¥åħį":5146,"ï¼ŁâĢĿ":5147,"æµĵéĥģ":5148,"åı¤åħ¸":5149,"æĳĩ":5150,"æĤ£èĢħçļĦ":5151,"æĮĩä»¤":5152,"äºĨå¾Īå¤ļ":5153,"æµĩ":5154,"è´·æ¬¾":5155,"è®¤åı¯":5156,"éļ¾åº¦":5157,"æķ¦":5158,"èĥĥ":5159,"æĮ¯":5160,"åĬ¨æĢģ":5161,"é±¼ç±»":5162,"æĮĩçļĦæĺ¯":5163,"åĽºå®ļ":5164,"æĲº":5165,"çĶ¨éĢĶ":5166,"è®¡ç®Ĺæľºè§Ĩè§ī":5167,"ä»İä¸Ń":5168,"æľīå®³":5169,"æľºåĻ¨äººçļĦ":5170,"åİ¨æĪ¿":5171,"å¤ĸéĥ¨":5172,"èĢĥèĻĳåĪ°":5173,"ä½ľå®¶":5174,"Ġ/":5175,"ä¼ļå½±åĵį":5176,"æĬķèµĦç»ĦåĲĪ":5177,"è®°ä½ı":5178,"åĲ¹":5179,"2016":5180,"çİ°ä»£ç¤¾ä¼ļ":5181,"æĿİåĽĽ":5182,"å°Ĭæķ¬çļĦ":5183,"å¼ºè°ĥäºĨ":5184,".ãĢĬ":5185,"æ¸©é¦¨":5186,"å½±åĥı":5187,"éľĢè¦ģæĽ´å¤ļçļĦ":5188,"ÙĨ":5189,"æµ·å¹³éĿ¢":5190,"éĢĶå¾Ħ":5191,"èİİ":5192,"å¦ĤæŀľæĪĳä»¬":5193,"æĺ¯æľĢ":5194,"æ³½":5195,"æŃ¥è¡Į":5196,"å¤§è§Ħæ¨¡":5197,"éħįåĲĪ":5198,"çī¹åĪ«æĺ¯":5199,"èĩªåĬ¨é©¾é©¶æ±½è½¦":5200,"é¢¨":5201,"ä»£è°¢":5202,"å°½å¿«":5203,"é¥®é£Łä¹łæĥ¯":5204,"è®¡åĪĴåĴĮ":5205,"æľīçĶ¨":5206,"ä¸įå¿ħè¦ģçļĦ":5207,"æ¸ħæ¥ļ":5208,"æ¼ł":5209,"36":5210,"åħ¶å®ŀ":5211,"éĥİ":5212,"è¿ľç¨ĭ":5213,"åĬ³åĬ¨":5214,"æ¯ıå¹´":5215,"ç»Īäºİ":5216,"æĬĢå·§åĴĮ":5217,"äºĶä¸ª":5218,"èĬ¬":5219,"æĪĲçĨŁ":5220,"å½Ĵç±»ä¸º":5221,"å¸ĮèħĬ":5222,"äººå·¥æĻºèĥ½å°Ĩ":5223,"æ¯ģ":5224,"è¢«è§Ĩä¸º":5225,"æĲħæĭĮåĿĩåĮĢ":5226,"re":5227,"ä¸ĢçĽ´åľ¨":5228,"ä½©":5229,"èĨĢ":5230,"å¯¦":5231,"åĲĳéĩı":5232,"åĢºåĪ¸":5233,"åģ¿":5234,"æľºåĻ¨ç¿»è¯ĳ":5235,"ĠP":5236,"è¿ĻäºĽæķ°æį®":5237,"åŁºæľ¬çļĦ":5238,"äººæĢ§":5239,"åĽ¾æ¡Ī":5240,"ä¸ŃéĹ´":5241,"å·²çŁ¥":5242,"æĻ¶":5243,"è¾Ľ":5244,"çĶŁæĹ¥":5245,"èµ·æºĲ":5246,"90":5247,"å¾Īå¤§":5248,"é¬":5249,"æī«":5250,")ï¼Į":5251,"ä¹Ķ":5252,"æĭįæĳĦ":5253,"æĪ¶":5254,"èªŀ":5255,"åı¯ä»¥çĶ¨æĿ¥":5256,"ä¹Łåı¯èĥ½":5257,"ä¸¾è¡Į":5258,"æ¯ĶèµĽä¸Ń":5259,"æĺİäº®":5260,"æıĲä¾Ľä¸Ģä¸ª":5261,"ä¹Ĳè¶£":5262,"åħ¶ä»ĸçļĦ":5263,"éĩįè¦ģçļĦä½ľçĶ¨":5264,"åŃĺåľ¨ä¸ĢäºĽ":5265,"çŃīå¤ļç§į":5266,"å¯¼èĩ´äºĨ":5267,"æķħéļľ":5268,"å®Ŀå®Ŀ":5269,"åĬ¨çĶ»":5270,"åĳĺå·¥çļĦ":5271,"çĶŁåĬ¨":5272,"è·¯ä¸Ĭ":5273,"å¼¦":5274,"æ¯ıä¸ªäººçļĦ":5275,"å¦Ĥä½ķåľ¨":5276,"çŁĽçĽ¾":5277,"èº«è¾¹":5278,"ä¹ĲåĻ¨":5279,"ä¼Ĳ":5280,"ä¹īè¯į":5281,"å¼ºå¤§":5282,"å±ıå¹ķ":5283,"èĬĴ":5284,"éĢĬ":5285,"æ¡Ĩ":5286,"äº«çĶ¨":5287,"åĽĽä¸ª":5288,"çĽĳçĿ£åŃ¦ä¹ł":5289,"ä¸ºä½ł":5290,"è§ĤçļĦ":5291,"ç¨³å®ļçļĦ":5292,"åľ°ä¸Ĭ":5293,"è¿Ļåº§":5294,"æķ¸æĵ":5295,"æķ¸æĵļ":5296,"éĤ¦":5297,"åģ·":5298,"æŁĶè½¯":5299,"ke":5300,"æĶ¿åºľåĴĮ":5301,"çĮ«åĴª":5302,"æıĲä¾ĽæĽ´":5303,"åĨĽäºĭ":5304,"å¤§å¤§":5305,"196":5306,"AP":5307,"æĿ¥å¸®åĬ©":5308,"å®Įç¾İ":5309,"æĥ§":5310,"äººåĴĮ":5311,"å¤§æ°Ķå±Ĥ":5312,"æľ¬è´¨":5313,"äº§åĵģæĪĸæľįåĬ¡":5314,"æ¾³":5315,"Ġä½ł":5316,"å¨ľ":5317,"æ¤įçī©çļĦ":5318,"éĤĢè¯·":5319,"åħģè®¸":5320,"ä¼łè¾ĵ":5321,"çļĦç³ĸæŀľ":5322,"æĢ»ç»Ł":5323,"èĥİ":5324,"åıĺéĩı":5325,"è¿ĲåĬ¨åĳĺ":5326,"çĨĬçĮ«":5327,"ä¹ŁåºĶè¯¥":5328,"åĬłå·¥":5329,"æº¯":5330,"å¸ĮæľĽè¿ĻäºĽå»ºè®®":5331,"Ð»":5332,"æķĻç»ĥ":5333,"çº¦ä¸º":5334,"ç½©":5335,"éº¼":5336,"åĩºçīĪ":5337,"ä¹ŁéĿŀå¸¸":5338,"åĵĪåĪ©":5339,"èĥ¡èĲĿåįľ":5340,"èĪĴéĢĤçļĦ":5341,"äº¤æµģåĴĮ":5342,"æĺ¯äººç±»":5343,"è®¸å¤ļäºº":5344,"æīĭè¡¨":5345,"åħ³æ³¨åĴĮ":5346,"æķ°åŃ¦é¢ĺ":5347,"å½¹":5348,"å¹¿æ³ĽåºĶçĶ¨":5349,"åĬ¨æľº":5350,"åĽ¾çīĩ":5351,"ĠåĪ©çĶ¨":5352,"ä¸ĢæĹ¦":5353,"åº¦åģĩ":5354,"ä¼ļåľ¨":5355,"è®¡ç®Ĺæľºç§ĳåŃ¦":5356,"é½¿":5357,"æĪĸç¼º":5358,"âĦ":5359,"ç¦ıåĪ©":5360,"å»ºèŃ°":5361,"çļĦæĸĩæľ¬":5362,"çļĦçĶµå½±":5363,"è¡¨è¾¾èĩªå·±çļĦ":5364,"æĪĳä»¬å¿ħé¡»":5365,"çİĩåĴĮ":5366,"çļĦæ´»åĬ¨":5367,"è¢ĸ":5368,"å¾Īéļ¾":5369,"æĪĳè§īå¾Ĺ":5370,"å°ıç»Ħ":5371,"åı¯ä»¥éĢļè¿ĩåĪĨæŀĲ":5372,"å¹²çĩ¥":5373,"å»ºçŃĳçī©":5374,"å¤ľæĻļ":5375,"éĩĳé¢Ŀ":5376,"ä¸»äººåħ¬":5377,"æĸľ":5378,"ä¸Ģå¼ł":5379,"çļĦçĹħ":5380,"ä¸ºäººç±»":5381,"æľīæ²¡æľī":5382,"ä¸ºæĪĳä»¬":5383,"æī¾åĪ°äºĨ":5384,"è¿Ļå°ĨæľīåĬ©äºİ":5385,"è§Ĥçľĭ":5386,"æİ¥è¿ĳ":5387,"åı¯ä»¥å¹«åĬ©":5388,"ä¸ľäº¬":5389,"Ġä¸İ":5390,"åĳĪçİ°åĩº":5391,"æĢĿèĢĥåĴĮ":5392,"åī§æĥħ":5393,"åĢ¾åĲĳ":5394,"æ¶Īéĺ²":5395,"æľºæ¢°":5396,"åĿ¡":5397,"å¯Įæľī":5398,"Ġs":5399,"å¤±ä¸ļ":5400,"ä¸ĵä¸ļäººå£«":5401,"ç«ŀ":5402,"éĢłæĪĲäºĨ":5403,"AIç³»ç»Ł":5404,"è´¢å¯Į":5405,"æĬ¢":5406,"èħ°":5407,"çħ®çĨŁ":5408,"çŃĽ":5409,"æĻĴ":5410,"è´Łæĭħ":5411,"åıł":5412,"çĵ£":5413,"æľĢå°ı":5414,"æµģåĬ¨":5415,"åĽŀå®¶":5416,"èĤł":5417,"è¿ĺèĥ½":5418,"ä¸ªäººçļĦ":5419,"çļĦæĳĦåħ¥":5420,"æ¡¶":5421,"èĲ¥éĢł":5422,"ç«ŀäºīåĬĽ":5423,"æĹ¶çļĦ":5424,"Ġ×":5425,"æķ°æį®ä¸Ń":5426,"éĸĭ":5427,"çİ°éĩĳ":5428,"çļĦåĲĮæĹ¶":5429,"äººåĬĽ":5430,"æĿ¥çļĦ":5431,"å°ĳå¹´":5432,"éħįæĸĻ":5433,"ĠB":5434,"è¯ĦåĪĨ":5435,"ãĢĭãĢĤ":5436,"éĵģè·¯":5437,"æ»ļ":5438,"å®¶åĽŃ":5439,"å°ºå¯¸":5440,"åıĳåĩº":5441,"æĶ¾æĿ¾èº«å¿ĥ":5442,"çļĦé«ĺ":5443,"ç¾½":5444,"ç»ŃåĨĻ":5445,"åĴĮæĹ¶éĹ´":5446,"ç±³é¥Ń":5447,"æŁĲç§į":5448,"åİĭåĬĽåĴĮçĦ¦èĻĳ":5449,"åĬ£":5450,"åĮħè£ħ":5451,"é»ĳæļĹ":5452,"æĽ´æ·±åħ¥":5453,"ä½łèĥ½":5454,"âĦĥ":5455,"çµ±":5456,"åĲİæŀľ":5457,"ä¸īè§Ĵ":5458,"è¡Įä¸ºåĴĮ":5459,"å¯¼æ¼Ķ":5460,"id":5461,"ä»¥åĩıå°ĳ":5462,"è¯·éļıæĹ¶":5463,"Ġb":5464,"åĵªç§į":5465,"çī©èģĶç½ĳ":5466,"äººä»¬å¯¹":5467,"äºļæ´²":5468,"åıĻ":5469,"å°¼äºļ":5470,"æ¶¯":5471,"ä¿ĿçķĻ":5472,"åºŁå¼ĥ":5473,"é»ĳèĥ¡æ¤Ĵ":5474,"æľīäºº":5475,"å®ŀéĻħåºĶçĶ¨":5476,"çĽ¸åĲĮçļĦ":5477,"åĩ¡":5478,"çĲĨè´¢":5479,"æĵħ":5480,"æĹ©æľŁ":5481,"çĨŁæĤī":5482,"ä¸ĢçĤ¹":5483,"èģĮè´£":5484,"æ¦Ĥæĭ¬":5485,"è¿Ļé¦ĸ":5486,"æľīçĽĬ":5487,"æĦıå¤ĸ":5488,"åı«åģļ":5489,"èĩ³åħ³éĩįè¦ģ":5490,"è¿Ļéģĵ":5491,"éĻ¶":5492,"å¤º":5493,"åľ°äº§":5494,"æŁľ":5495,"èĢį":5496,"æıĲé«ĺçĶŁäº§":5497,"è¡Ģç®¡":5498,"åħ´è¶£çĪ±å¥½":5499,"è¿Ļä¸ªåı¥åŃĲ":5500,"çĲĨæĥ³":5501,"éĽĩ":5502,"åĴĮå°ı":5503,"è¿Ľè¡Įè°ĥæķ´":5504,"éŃħåĬĽ":5505,"éĿŀå¸¸éĢĤåĲĪ":5506,"é¡ºåĪ©":5507,"æĤ¨åľ¨":5508,"å°±ä¸ļæľºä¼ļ":5509,"è¶ĬæĿ¥è¶Ĭå¤ļçļĦ":5510,"æĭĴç»Ŀ":5511,"æµ´":5512,"æķĪçİĩåĴĮè´¨éĩı":5513,"ä¸īç§į":5514,"è¾ŀ":5515,"åĿļæŀľ":5516,"çļĦä¸ĸçķĮ":5517,"åĩºèī²çļĦ":5518,"oo":5519,"åĪ¶éĢłä¸ļ":5520,"åģļæ³ķ":5521,"äº§åĵģåĴĮæľįåĬ¡":5522,"åħĶåŃĲ":5523,"ĠM":5524,"å«©":5525,"å¯¹æ¯Ķ":5526,"æ·±åĪ»çļĦ":5527,"ä¸»åĬ¨":5528,"æīĵéĢł":5529,"ä¸ĭåĪĹ":5530,"ä»¥ä¸Ĭæĺ¯ä¸ĢäºĽ":5531,"åł´":5532,"ä¼ĳéĹ²":5533,"éģĹä¼ł":5534,"æľīçĤ¹":5535,"åĸ»":5536,"å®¢äºº":5537,"ç¬¬äºĮä¸ª":5538,"çĸ¼":5539,"éĿŀå¸¸æĦŁè°¢":5540,"å°±åĥı":5541,"ĠéĢīæĭ©":5542,"ä¸¤äºº":5543,"31":5544,"çļĦçĮ":5545,"åŃĺåľ¨çļĦ":5546,"æµ·é²ľ":5547,"æĺ¯å¤ļå°ĳ":5548,"æĮ«æĬĺ":5549,"çļĦæŃ¥éª¤":5550,"å¹¿éĺĶ":5551,"åĮħå®¹":5552,"Ġm":5553,"å¹½":5554,"ç¨į":5555,"ç²¾ç¡®":5556,"å¿ĹæĦ¿èĢħ":5557,"ç¿ħ":5558,"åĩ¯":5559,"åį¢":5560,"ä¸įåı¯æĪĸç¼º":5561,"éĥ¡":5562,"ä¸Ģéĥ¨":5563,"åıĳéĢģ":5564,"é¥±":5565,"æ¬ºè¯Ī":5566,"èĥ½å¤Łå¸®åĬ©":5567,"èĢģäºº":5568,"æĸ¹æ³ķæĿ¥":5569,"åħ·ä½ĵæĥħåĨµ":5570,"å¼Ģå¤´":5571,"çļĦä½ľçĶ¨":5572,"éĽĨä¸Ńæ³¨æĦıåĬĽ":5573,"éľĢè¦ģçļĦ":5574,"çļĦç¨³":5575,"è°¨æħİ":5576,"èĤĿ":5577,"åĨĻä¸Ģç¯ĩåħ³äºİ":5578,"æº¶":5579,"æľ±":5580,"ä»ĭç»įäºĨ":5581,"æķĪçĽĬ":5582,"æĥ³æ³ķåĴĮ":5583,"åĽ¾ä¹¦":5584,"æ²Ļæ»©":5585,"è¨Ń":5586,"äºīè®®":5587,"å¦¹":5588,"é²¸":5589,"è®¾è®¡åĴĮ":5590,"åĲĪæĪĲ":5591,"èĮ¨":5592,"æĭĸå»¶":5593,"èµĭ":5594,"æ®¿":5595,"ç¨³å®ļæĢ§":5596,"èĥ¶":5597,"å²Ĺä½į":5598,"å¹¶ä¸İ":5599,"åħ¨éĥ¨":5600,"è¿ĺä¼ļ":5601,"æľīåĵªäºĽ":5602,"åħ¶ä¸ŃåĮħæĭ¬":5603,"äººç¾¤":5604,"åįĩçº§":5605,"ily":5606,"ä½ľä¸ºä¸ĢåĲį":5607,"ä»İèĢĮæĽ´å¥½åľ°":5608,"è°ĥæĸĻ":5609,"åıĭå¥½":5610,"å¸Ĥåľºè¶ĭåĬ¿":5611,"è£Ķ":5612,"ĊĠĠĠ":5613,"ĠåĬłå¼º":5614,"å±±èĦī":5615,"çİ¯å¢ĥéĹ®é¢ĺ":5616,"çļĦéĩįè¦ģç»ĦæĪĲéĥ¨åĪĨ":5617,"è§Ĥå¿µ":5618,"åĪł":5619,"ç¬Ķè®°":5620,"å¹¶ç»Ļåĩº":5621,"æĪĳçĽ¸ä¿¡":5622,"çº¿æĢ§":5623,"åį±å®³":5624,"åıĹåĪ°äºĨ":5625,"è®¤è¯ĨåĪ°":5626,"åľ¨æŃ¤":5627,"åĹ¯":5628,"æĸĩæ¡£":5629,"çŃīæĸ¹éĿ¢çļĦ":5630,"Ġä¸ª":5631,"çļĦç¾İå¥½":5632,"ä¿ĿæĮģåģ¥åº·":5633,"æŀļ":5634,"æĪĲåĬŁåľ°":5635,"æīİ":5636,"åĩłç§į":5637,"åıĳçĶµ":5638,"æ°Ķæģ¯":5639,"èĺĳ":5640,"è¿Ļæĺ¯ä¸Ģç§į":5641,"æĽ´å¥½åľ°çĲĨè§£åĴĮ":5642,"å¾Īå¿«":5643,"èĪªç©º":5644,"33":5645,"æĸĩçī©":5646,"èĶ¬èıľåĴĮ":5647,"å½ĵçĦ¶åı¯ä»¥":5648,"ä½Ĩå®ĥä»¬":5649,"å¾Īé«ĺåħ´":5650,"åħ·ä½ĵæĿ¥è¯´":5651,"æĹĹ":5652,"æĭĵå±ķ":5653,"åİ»äºĨ":5654,"åħ³å¿ĥ":5655,"éļıçĿĢæĬĢæľ¯çļĦ":5656,"åĲĽ":5657,"å¯ĵ":5658,"2022":5659,"æ¶Īå¤±":5660,"ä¹Łè¦ģ":5661,"æ³ª":5662,"çİ¯å¢ĥä¸Ń":5663,"çŁ©":5664,"çİ©èĢį":5665,"éĿ¢æĿ¡":5666,"èĺĳèıĩ":5667,"éĩįåĬĽ":5668,"ä»¥ä¸ĭåĩłçĤ¹":5669,"æĸ°é²ľçļĦ":5670,"pp":5671,"åı¯æĮģç»ŃæĢ§":5672,"çĥŃéĩı":5673,"å¸¦æľī":5674,"çĩĥçĥ§":5675,"ãĢĭï¼Ī":5676,"åģľæŃ¢":5677,"è¿Ļä½¿å¾Ĺ":5678,"éļĲç§ģä¿ĿæĬ¤":5679,"ä¸ĢäºĽäºº":5680,"åĪĽæĸ°åĴĮ":5681,"æĬĳéĥģ":5682,"éĿŀæ´²":5683,"æ³ķå¾ĭæ³ķè§Ħ":5684,"ç½Ĺæĸ¯":5685,"çĽ®æłĩåıĹä¼Ĺ":5686,"æ¸ħæĸ°":5687,"åĮĹæŀģ":5688,"å§Ĳ":5689,"ç§¯æŀģåıĤä¸İ":5690,"èĭ±éĽĦ":5691,"Ø§ÙĦ":5692,"åĲ¬åĪ°":5693,"åĺ´":5694,"çļĦæł¸å¿ĥ":5695,"æĿľ":5696,"åĮºåĿĹéĵ¾æĬĢæľ¯":5697,"åľ¨è¿ĩåİ»":5698,"æĹ±":5699,"ä¸ŃåĽ½åı¤ä»£":5700,"ÙĪ":5701,"æŃī":5702,"åħ½":5703,"å°ĸ":5704,"èĢĮåľ¨":5705,"éĿŀæ³ķ":5706,"æ°Ķè±¡":5707,"è¿½æº¯":5708,"ç½Ĺé©¬":5709,"æĿĲè´¨":5710,"æĺ¯ä¸į":5711,"Ġåĩıå°ĳ":5712,"ä¼łæī¿":5713,"éĺĲè¿°":5714,"è¡Ĺéģĵ":5715,"è¿ĻäºĽæĬĢæľ¯":5716,"çĤī":5717,"ĠĊ":5718,"æŁ±":5719,"ä»ĸåĢĳ":5720,"æĺİç¡®çļĦ":5721,"çī¹æ®ĬçļĦ":5722,"çļĦçĪ±æĥħ":5723,"å®³æĢķ":5724,"æµĨ":5725,"éĵĥ":5726,"ĠæľĢåĲİ":5727,"çļĦçł´":5728,"ç¶ĵ":5729,"å½±çīĩ":5730,"ä»İèĢĮåĩıå°ĳ":5731,"æİ¨æĸŃ":5732,"åľ¨è¿Ļç§įæĥħåĨµä¸ĭ":5733,"çĽ®çļĦæĺ¯":5734,"åİĨåı²ä¸Ĭ":5735,"åĴĮæıĲé«ĺ":5736,"çĥ¦":5737,"å¤ł":5738,"99":5739,"Ġ15":5740,"1000":5741,"èĥ½å¤ŁæĽ´å¥½åľ°":5742,"çļĦåĬĽéĩı":5743,"èµµ":5744,"éľį":5745,"è¤":5746,"æĥĳ":5747,"ç»¼åĲĪèĢĥèĻĳ":5748,"Ġn":5749,"åı¯è§Ĩ":5750,"åľ¨è®¸å¤ļ":5751,"æłĳæľ¨":5752,"çļĦç¨³å®ļ":5753,"å¼ķèµ·çļĦ":5754,"Ġæĺ¯":5755,"ĠæıĲé«ĺ":5756,"æ²Ļåıĳ":5757,"å¸Ĥåľºä¸Ĭ":5758,"èī³":5759,"åĨłåĨĽ":5760,"å°½åı¯èĥ½åľ°":5761,"å¥Ķ":5762,"ä¿¡æģ¯åĴĮ":5763,"çļĦéĢŁåº¦":5764,"æĸĳ":5765,"et":5766,"ä¸įåĲĮç±»åŀĭçļĦ":5767,"èĿ¶":5768,"çĶ¨æ°´":5769,"èĤ©":5770,"ä»¥ä¸ĭæĺ¯ä¸Ģéģĵ":5771,"èĥĨ":5772,"ro":5773,"èµĶ":5774,"åĲĮæĦı":5775,"åĴĮé¢Ħæµĭ":5776,"æķ´æķ°":5777,"éľĢè¦ģä½¿çĶ¨":5778,"åįĩé«ĺ":5779,"ä¸¾åĬŀ":5780,"å°ıçİĭ":5781,"194":5782,"å¯¹æĤ¨æľīæīĢå¸®åĬ©":5783,"åĨ¬åŃ£":5784,"åĤ¨èĵĦ":5785,"å¯¹å¾ħ":5786,"åĬªåĬĽåĴĮ":5787,"çıįæĥľ":5788,"ä¸ªæľĪ":5789,"å°Ĩå®ĥä»¬":5790,"ï¼ļãĢĬ":5791,"ä»¥åĲİ":5792,"æ²¸":5793,"ä»¿ä½Ľ":5794,"ä»¥åħ¶":5795,"å¯ĨåĪĩ":5796,"å°¿çĹħ":5797,"èĪį":5798,"éļĲç§ģåĴĮå®īåħ¨":5799,"æ§":5800,"æ´¥":5801,"æ¿ĢçĥĪ":5802,"éħ±æ²¹":5803,"Em":5804,"äº¤å¾Ģ":5805,"Ðº":5806,"åĬłåī§":5807,"ç®Ģè¦ģ":5808,"è¿Ļæľ¬ä¹¦":5809,"çĽ¸çŃī":5810,"äºĮåįģ":5811,"ç»ĦæĪĲçļĦ":5812,"Ñĥ":5813,"ä¼ı":5814,"ä¸ĢæĿ¯":5815,"åĴĮæĶ¾æĿ¾":5816,"å¾Į":5817,"åıĺå¾Ĺè¶ĬæĿ¥è¶Ĭ":5818,"Ġå¤ļ":5819,"æİĪæĿĥ":5820,"éĹ®é¢ĺåĴĮ":5821,"åħ¬è·¯":5822,"ç´§å¯Ĩ":5823,"åľĨå½¢":5824,"é£İæł¼åĴĮ":5825,"æŁ¥è¯¢":5826,"è¿ĻäºĽä¿¡æģ¯":5827,"ä¸ªä½ĵ":5828,"å¥¶éħª":5829,"æĪĳå¯¹":5830,"ä¼łè¯´":5831,"éªĳèĩªè¡Įè½¦":5832,"åķĨåºĹ":5833,"å¥³çĶŁ":5834,"è®¾è®¡ä¸Ģä¸ª":5835,"çŃīå¤ļä¸ª":5836,"å·¡":5837,"æĶ¹éĿ©":5838,"è¿Ł":5839,"è¿Ļç§įæĸ¹æ³ķ":5840,"è¯´è¯Ŀ":5841,"æ¨ª":5842,"åįĵ":5843,"ä¸įéĢĤ":5844,"æ¨Ļ":5845,"åı¯ä»¥å¸®åĬ©ä¼ģä¸ļ":5846,"éĥ½éľĢè¦ģ":5847,"ä½ľä¸ļ":5848,"è®¢åįķ":5849,"èĸ¯":5850,"åĪĽéĢłä¸Ģä¸ª":5851,"æĻĤéĸĵ":5852,"æİ¥çĿĢ":5853,"æ±Ĺ":5854,"å¸ĥå±Ģ":5855,"çŁ¿çī©è´¨":5856,"è¢Ń":5857,"ay":5858,"éŁ§":5859,"ä»Ģéº¼":5860,"æĸ¹å¼ıåĴĮ":5861,"åı¯ä»¥å¢ŀåĬł":5862,"è½´":5863,"èĢĮä¸į":5864,"èµł":5865,"ç»´ä¿®":5866,"åľ°äºĨè§£":5867,"æĪ¿åľ°äº§":5868,"å´ĩ":5869,"æľīä¸įåĲĮçļĦ":5870,"300":5871,"æĥ©":5872,"è¿ĩå¤ļ":5873,"æĬ¹":5874,"æĥħå¢ĥ":5875,"2000":5876,"ä»Ĭå¹´":5877,"Ġå¤§":5878,"åĩıèĤ¥":5879,"å°ıåŃ¦æķ°åŃ¦é¢ĺ":5880,"çĬ¹":5881,"çĭĤ":5882,"çģµæĦŁ":5883,"çºªå¿µ":5884,"å·¾":5885,"å¥¶æ²¹":5886,"ä»¥ä¸ĭæĺ¯ä¸Ģéģĵå°ıåŃ¦æķ°åŃ¦é¢ĺ":5887,"åŃ¦ä¹łæĸ°":5888,"ç³ĸå°¿çĹħ":5889,"è¿ŀç»Ń":5890,"çĽ¸å½ĵ":5891,"å¸ĤåľºçļĦ":5892,"æııè¿°äºĨ":5893,"Ġy":5894,"ä¸Ģè¾Ĩ":5895,"èµ«":5896,"åı¦ä¸Ģæĸ¹éĿ¢":5897,"æĿĲæĸĻåĴĮ":5898,"AIåı¯ä»¥":5899,"ä¸Ģéĥ¨åĪĨ":5900,"é¥¼å¹²":5901,"æĻļé¤Ĳ":5902,"åħ´è¶£åĴĮ":5903,"åĴĮç»´æĬ¤":5904,"æĿ¥ç¡®å®ļ":5905,"åī©ä½Ļ":5906,"2015":5907,"åľŁè±Ĩ":5908,"ĠæĬĬ":5909,"æĿ°åħĭ":5910,"æľĢå¤ļ":5911,"æ±º":5912,"éĢĨ":5913,"åĬŀåħ¬å®¤":5914,"åºĶå½ĵ":5915,"åģļèµ·":5916,"ä»£æĽ¿":5917,"éĩĩçĶ¨äºĨ":5918,"äººå·¥æĻºèĥ½åĴĮ":5919,"è¡Įä¸ļçļĦ":5920,"äººç±»æ´»åĬ¨":5921,"çĶŁæ´»ä¸ŃçļĦ":5922,"åĦ¿åŃĲ":5923,"DNA":5924,"75":5925,"æĪĳåĸľæ¬¢":5926,"éĻµ":5927,"å²ģçļĦ":5928,"å½¢å®¹è¯į":5929,"æµ·å¹³éĿ¢ä¸Ĭåįĩ":5930,"è»":5931,"ma":5932,"çĳ°":5933,"åĬłå¼ºå¯¹":5934,"èĤ¯å®ļ":5935,"çļĦä¸įåĲĮ":5936,"éħįç½®":5937,"è¿Ľç¨ĭ":5938,"é¢ĦæľŁ":5939,"åıĳçĶŁäºĨ":5940,"æĺ¨å¤©":5941,"ä½łä¼ļ":5942,"è°ĥçłĶ":5943,"æģĲæĥ§":5944,"å°ıçĭĹ":5945,"ç®ĢåİĨ":5946,"æĦĪ":5947,"åĴĮè°ĥæķ´":5948,"ç¢³æİĴæĶ¾":5949,"åĽĽå·Ŀ":5950,"éĨī":5951,"çĶŁçĲĨ":5952,"éĽĨæĪĲ":5953,"æ¬¡æķ°":5954,"ä½ĽæķĻ":5955,"åĵ¦":5956,"åĲĦä¸ªé¢ĨåŁŁ":5957,"æĴ°åĨĻ":5958,"çļĦåĬ¨çī©":5959,"ä¸įå°ĳ":5960,"è¿Ī":5961,"ä¸įæĸŃè¿ĽæŃ¥":5962,"åĢ¡":5963,"çĸı":5964,"çĮľ":5965,"çļĦçī¹å¾ģ":5966,"NL":5967,"æŀª":5968,"æĶ¯æĴĳ":5969,"éĻªä¼´":5970,"æłĩæ³¨":5971,"è§Ĥæµĭ":5972,"ä¸ĸçķĮçļĦ":5973,"æĤ¨åı¯ä»¥ä½¿çĶ¨":5974,"ä»¥ä¸ĭæĺ¯ä¸ĢäºĽåı¯èĥ½":5975,"ç´łé£Ł":5976,"é¹ħ":5977,"çĪ¶äº²":5978,"é¡¹çĽ®çļĦ":5979,"%ãĢĤ":5980,"éĿŀå¸¸å¥½":5981,"éģ©":5982,"èħ»":5983,"éĢļè¿ĩåĪĨæŀĲ":5984,"éĽ¾":5985,"å®ĥä»¬åľ¨":5986,"å®£å¸ĥ":5987,"åĪłéĻ¤":5988,"çļĦçĭĹ":5989,"è®²è¿°äºĨ":5990,"èĢĢ":5991,"åħ¬åħĥ":5992,"åļ":5993,"ä¸»è¯Ń":5994,"çļĦè¡¨çİ°":5995,"äº§çĶŁå½±åĵį":5996,"è£ħå¤ĩ":5997,"çļĦç½ĳç«Ļ":5998,"æ´»åĬĽ":5999,"äººæīį":6000,"ä¿ĥéĶĢ":6001,"ä¸İä»ĸäºº":6002,"åŀ«":6003,"çİ¯å¢ĥåĴĮ":6004,"æĭŁåĲĪ":6005,"å§ĵåĲį":6006,"æĪĲä¸ºä¸Ģä¸ª":6007,"åİ»éĻ¤":6008,"åĲ¦åĪĻ":6009,"äº¤æį¢":6010,"è¿Ļä½į":6011,"ç²®":6012,"150":6013,"åĽ½åĨħ":6014,"æķ´éĻ¤":6015,"ä¸ĸçķĮåĲĦ":6016,"ä¸¥éĩįçļĦ":6017,"Ġçĥ¤":6018,"å¸®åĬ©ä»ĸä»¬":6019,"æ·Ģ":6020,"å¿ĺè®°":6021,"çļĦç¡":6022,"è´«åĽ°":6023,"çĶ·çĶŁ":6024,"éģ¸æĵ":6025,"ç¨¿":6026,"éģ¸æĵĩ":6027,"æĺİå¤©":6028,"åĴĮç»ıéªĮ":6029,"ä»¥ç¡®å®ļ":6030,"çļĦçģµ":6031,"çļĦçł´åĿı":6032,"ä¸įå¾Ĺ":6033,"èĽĩ":6034,"å¾ŀ":6035,"æĻ¯èī²":6036,"ä¸Ģå®ļè¦ģ":6037,"å¯¼èĪª":6038,"è¿ĩçļĦ":6039,"åı¯ä»¥è®©ä½ł":6040,"æĻºèĥ½åĮĸçļĦ":6041,"çķĮéĿ¢":6042,"å§Ķåĳĺä¼ļ":6043,"éĩĳèŀįæľºæŀĦ":6044,"åıįå°Ħ":6045,"çļĦåħ·ä½ĵ":6046,"ä¸Ģé¦ĸ":6047,"åıĳçİ°äºĨ":6048,"åĴĮå°Ĭéĩį":6049,"æł¹æį®ä»¥ä¸Ĭ":6050,"å»ºç«ĭèī¯å¥½çļĦ":6051,"å¯»æ±Ĥå¸®åĬ©":6052,"æĪĴ":6053,"æĺ¯ä¸ºäºĨ":6054,"åĬŁèĥ½åĴĮ":6055,"å®¡æŁ¥":6056,"èŀįåħ¥":6057,"éĵľ":6058,"æľįåĬ¡åĳĺ":6059,"çģ«å±±":6060,"åı¯ä»¥å¾ĹåĪ°":6061,"åı¯ä»¥å°Ŀè¯ķ":6062,"éĩįè¦ģä½ľçĶ¨":6063,"éĻĮ":6064,"æĪĳå¸ĮæľĽ":6065,"çļĦåŃ¦ä¹ł":6066,"æĺ¯ä¸Ģç§įéĿŀå¸¸":6067,"è¿Ļåı¯ä»¥":6068,"æ¸´":6069,"åįī":6070,"æĹ¶éĹ´åĴĮç²¾åĬĽ":6071,"ç©·":6072,"åĴĮå½±åĵį":6073,"ä¸ĬåįĪ":6074,"éĩĮéĿ¢":6075,"ä¸ĩåħĥ":6076,"æĽ´åĬłæ³¨éĩį":6077,"ĠåĩĨå¤ĩ":6078,"å°½åĬĽ":6079,"ä¼į":6080,"æĹħç¨ĭ":6081,"æĭĨ":6082,"åı¯èĥ½ä¼ļå½±åĵį":6083,"åĨ³çŃĸæłĳ":6084,"è¿ĻäºĽæĸ¹æ³ķ":6085,"æĸ°åħ´":6086,"è¿ĺåī©ä¸ĭ":6087,"ä½Ĩä¹Ł":6088,"åĴĮæķĻèĤ²":6089,"çĶľçĤ¹":6090,"xx":6091,"æľīä»·åĢ¼":6092,"åı¤èĢģçļĦ":6093,"ä¸ªæľĭåıĭ":6094,"ä¿ĿåŃĺ":6095,"éļıåĲİ":6096,"æ¸©å®¤æ°Ķä½ĵæİĴæĶ¾":6097,"çļĦå¤§å°ı":6098,"å¸ĿåĽ½":6099,"æĺĮ":6100,"éļ¾å¿ĺ":6101,"ä¸Ģçīĩ":6102,"éľľ":6103,"åĪĿåŃ¦èĢħ":6104,"è¿ĽèĢĮ":6105,"åķ¦":6106,"å¤ĩä»½":6107,"å¾ħéģĩ":6108,"æįŁåĿı":6109,"èĬ±åįī":6110,"æĸ¯åĿ¦":6111,"èĢĮæĪĲ":6112,"è°ĥåĳ³æĸĻ":6113,"åĿĽ":6114,"æĿ¥é¢Ħæµĭ":6115,"æĸ¹çļĦ":6116,"åħ¶ä»ĸäºº":6117,"å¿«éĢŁåıĳå±ķ":6118,"åĽŀçŃĶè¿Ļä¸ªéĹ®é¢ĺ":6119,"âĢ¦âĢ¦":6120,"æ³¨æĦıäºĭé¡¹":6121,"åŃĹç¬¦ä¸²":6122,"æĢĿè·¯":6123,"åįĹæŀģ":6124,"å®¶éĩĮ":6125,"ç®Ģçº¦":6126,"Ġa":6127,"åĲĦèĩª":6128,"è´µçļĦ":6129,"ä¸īå¹´":6130,"æ±¤åĮĻ":6131,"è¯ĨåĪ«åĴĮ":6132,"ter":6133,"æĪĳä»¬è¿ĺ":6134,"å®īåħ¨çļĦ":6135,"åı¯ä»¥åĪ©çĶ¨":6136,"æĦŁåĪ°éĿŀå¸¸":6137,"éļ¾é¢ĺ":6138,"çĶŁæ¶¯":6139,"é£ĺ":6140,"äººæ°ĳåħ±åĴĮåĽ½":6141,"å°Ĩä»¥ä¸ĭ":6142,"å¸ĤåľºèĲ¥éĶĢ":6143,"åı¯è¡Į":6144,"æįŁå®³":6145,"å¹¶å¯¹":6146,"å¦¥":6147,"å±ķç¤ºäºĨ":6148,"åĴĮéģĵå¾·":6149,"åı¯èĥ½åĮħæĭ¬":6150,"ä»¥ä¿ĿæĮģ":6151,"ä»ĺåĩº":6152,"çº¢æ¥¼":6153,"æľīäºĽäºº":6154,"èľĤèľľ":6155,"å¦ĤæŀľæĤ¨éľĢè¦ģ":6156,"åĪĩæĪĲå°ıåĿĹ":6157,"ðŁ":6158,"æĤ¨åı¯ä»¥åľ¨":6159,"é¡¾éĹ®":6160,"æĽ´åĩĨç¡®åľ°":6161,"è¯Ńä¹ī":6162,"çĭ±":6163,"æİ¥ç§į":6164,"åĩºçİ°äºĨ":6165,"ä¸įåĪ°":6166,"å¨ĺ":6167,"åı¯ä»¥æĽ´å¥½åľ°":6168,"ä»¥æ»¡è¶³":6169,"ä»İäºĭ":6170,"éľĢè¦ģå¤§éĩıçļĦ":6171,"æĪĳæľĢè¿ĳ":6172,"è´¯":6173,"æµģè¡ĮçļĦ":6174,"å¸ķ":6175,"åĸľçĪ±":6176,"æĸĩåŃ¦ä½ľåĵģ":6177,"éĢĿ":6178,"è¿Ļä¹Ī":6179,"å®ĥå°Ĩ":6180,"å¹¶éĩĩåıĸ":6181,"ç¸":6182,"ä¾£":6183,"\",":6184,"çİ¯å¢ĥçļĦ":6185,"é¹¿":6186,"åľ¨å¤ĦçĲĨ":6187,"åĪļåĪļ":6188,"æıĲä¾Ľä¸ªæĢ§åĮĸçļĦ":6189,"ç¬¬ä¸Ģæ¬¡":6190,"åĩıç¼ĵ":6191,"èĤ¢":6192,"å¸Ĥæ°ĳ":6193,"ä¿¡å¿ĥ":6194,"åĩłå¹´":6195,"è®°å¾Ĺ":6196,"æ»ĭ":6197,"æıĲåĩºäºĨ":6198,"ä½ĵç§¯":6199,"å®¢æĪ·æ»¡æĦıåº¦":6200,"ãĢĢ":6201,"çļĦç²¾ç¥ŀ":6202,"ç®Ĺæ³ķåĴĮ":6203,"çļĦè¯Ŀ":6204,"èģĮä¸ļåıĳå±ķ":6205,"æıĲé«ĺäºĨ":6206,"è½»æĿ¾åľ°":6207,"ĠåĴĮ":6208,"éĩĩåıĸä»¥ä¸ĭ":6209,"ç½ĳä¸Ĭ":6210,"æĬ¤çĲĨ":6211,"çļĦçħ":6212,"åŀĤ":6213,"åľ¨éĢīæĭ©":6214,"éĻĮçĶŁ":6215,"æĶĢ":6216,"æĸĩçĮ®":6217,"æľºåľº":6218,"èĬ±æľµ":6219,"æ»¨":6220,"æŁ¿":6221,"æľºåĻ¨åŃ¦ä¹łåĴĮ":6222,"å¤ļå½©":6223,"è¡¥åħħ":6224,"ä¸ŃæĢ§":6225,"ĠT":6226,"äººåĲį":6227,"éģįåİĨ":6228,"im":6229,"ä»¥ä¸ĭæĺ¯ä¸Ģç¯ĩåħ³äºİ":6230,"å¼ºçĥĪçļĦ":6231,"éĿ¢ä¸Ĭ":6232,"ä¼¦æķ¦":6233,"è¿Ļåľº":6234,"éľĢè¦ģå¯¹":6235,"æ²ĥ":6236,"æ¶¨":6237,"ï¼Īï¼īï¼Į":6238,"è®²è§£":6239,"åĲĳä¸Ĭ":6240,"åĨ°ç®±":6241,"æĲľç´¢å¼ķæĵİ":6242,"èĤĸ":6243,"éĢĴå½Ĵ":6244,"ĊĠ":6245,"æĹ¥ç¨ĭ":6246,"å¹³éĿĻ":6247,"æĸĻéħĴ":6248,"æĵħéķ¿":6249,"å°ıåįİ":6250,"çº¢æ¥¼æ¢¦":6251,"é«ĺçº§":6252,"è°ĭ":6253,"éĢŁåº¦åĴĮ":6254,"æķ°åĪĹ":6255,"ä¾ĽåºĶéĵ¾":6256,"èĥĢ":6257,"ĠåŃ¦ä¼ļ":6258,"é»Ľ":6259,"è¿Ĳç®Ĺ":6260,"å·¥ä½ľçļĦ":6261,"åĪĽæĸ°çļĦ":6262,"åĮĸå¦Ĩ":6263,"å°ıæľĭåıĭ":6264,"æ³¢çī¹":6265,"é¢ĳç¹ģ":6266,"one":6267,"äºĳè®¡ç®Ĺ":6268,"åħĦ":6269,"çģ¯åħī":6270,"åīµ":6271,"ä¸ĵéĹ¨":6272,"æĶ¿çŃĸåĴĮ":6273,"èµĦæºĲåĴĮ":6274,"æĤłä¹ħ":6275,"é¦Ļåĳ³":6276,"é¡ŀ":6277,"æŁĶåĴĮ":6278,"è¯»ä¹¦":6279,"æĺĤ":6280,"åĪĨæķ°":6281,"æĸ¯çī¹":6282,"æľĢä½³çļĦ":6283,"ç§¦":6284,"æ¹¿åº¦":6285,"å¼Ģå¿ĥ":6286,"çĥĤ":6287,"áŀ":6288,"åħįè´¹":6289,"çģ«çģ¾":6290,"çĶµè§Ĩåī§":6291,"èĥ½æºĲæ¶ĪèĢĹ":6292,"Ùħ":6293,"ä½łå¯¹":6294,"çļĦæ°ĽåĽ´":6295,"åĴĮè¯Ħä¼°":6296,"éģ¥":6297,"æĿİåįİ":6298,"è¯·æ³¨æĦı":6299,"å¹¶ä½¿çĶ¨":6300,"çļĦç¾İä¸½":6301,"çİ¯èĬĤ":6302,"æĥħåĴĮ":6303,"æĪĳä»¬è¦ģ":6304,"ä¸ĬéĿ¢çļĦéĹ®é¢ĺ":6305,"æĸ¤":6306,"çļĦç©ºæ°Ķ":6307,"æĺ¯å¦Ĥä½ķ":6308,"æ¬¾å¼ı":6309,"ä»½é¢Ŀ":6310,"è·¯å¾Ħ":6311,"è¿ĽåĮĸ":6312,"åľºåľ°":6313,"åľ°çĲĥä¸Ĭ":6314,"åĽŀçŃĶä¸ĬéĿ¢çļĦéĹ®é¢ĺ":6315,"æ²Ļæ¼ł":6316,"æĿ¡æ¬¾":6317,"å¿łè¯ļåº¦":6318,"å¤§éĻĨ":6319,"ä¼Ĺå¤ļ":6320,"éģĵå¾·åĴĮ":6321,"ä¸İäººç±»":6322,"åĭº":6323,"åĽŀçŃĶä»¥ä¸ĭéĹ®é¢ĺ":6324,"éģĭ":6325,"æĸĩç«łçļĦ":6326,"æıŃç¤º":6327,"çīĪæľ¬":6328,"æīĭå·¥":6329,"Ġï¼Ī":6330,"ç§¯ç´¯":6331,"çļĦæ¦Ĥå¿µ":6332,"æĸ°æĬĢæľ¯":6333,"Ġt":6334,"å½»":6335,"çģ«æĺŁ":6336,"æĺİäºĨ":6337,"åĲ«éĩı":6338,"åĸĤ":6339,"ä»¥åıĬå¦Ĥä½ķ":6340,"æķ°æį®åºĵ":6341,"èįĴ":6342,"åģļåĩºè´¡çĮ®":6343,"æııåĨĻ":6344,"ä¸Ńåįİäººæ°ĳåħ±åĴĮåĽ½":6345,"æĸ°äº§åĵģ":6346,"Ġæııè¿°":6347,"Ġé¦ĸåħĪ":6348,"éĿ¢åĽ¢":6349,"ĠæĬĢæľ¯":6350,"èĩªè½¬":6351,"èģļä¼ļ":6352,"å¿½è§Ĩ":6353,"å¸½":6354,"ç¢°":6355,"ç°":6356,"åľ¨è¿Ľè¡Į":6357,"å¹´ä»½":6358,"çĦ¦èĻĳåĴĮ":6359,"åĩĮ":6360,"st":6361,"æİĴåĲį":6362,"åĲĮä¸Ģ":6363,"ä»İèĢĮå®ŀçİ°":6364,"å¤¹":6365,"éĨĩ":6366,"åĵģçīĮçļĦ":6367,"å¹³æĸ¹ç±³":6368,"è¶ħå¸Ĥ":6369,"æľĢéĩįè¦ģçļĦæĺ¯":6370,"æĢĴ":6371,"å°ĳæķ°":6372,"æŃ¦åĻ¨":6373,"NLP":6374,"æĸ¹æ³ķåĴĮ":6375,"å¤ªå¤ļ":6376,"ç»ıæµİåıĳå±ķ":6377,"é«ĺæķĪåľ°":6378,"åŃ¦ä¹łè®¡åĪĴ":6379,"æķĪåºĶ":6380,"æľĪäº®":6381,"éĢīæĭ©éĢĤåĲĪèĩªå·±çļĦ":6382,"Ġï¼Į":6383,"ç¬¬åĽĽ":6384,"æĴĴä¸Ĭ":6385,"æµı":6386,"æĪĳè¿ĺ":6387,"åĪĨæĶ¯":6388,"çķªèĮĦéħ±":6389,"çİ«":6390,"ä¾¦":6391,"æĬ¥èŃ¦":6392,"åĴĮèĶ¬èıľ":6393,"ç»ĨèıĮ":6394,"äºķ":6395,"åĩºåıĳ":6396,"çį":6397,"è¾ĥé«ĺçļĦ":6398,"å¯¹æĪĳä»¬çļĦ":6399,"å±±å³°":6400,"çŁŃæĸĩ":6401,"éĢĤå®ľ":6402,"åı¯è§ĨåĮĸ":6403,"åħħçĶµ":6404,"æ°´åĮĸåĲĪçī©":6405,"æĪĳéľĢè¦ģ":6406,"è¿Ŀåıį":6407,"çĥŃéĹ¨":6408,"æ¼ĶåĮĸ":6409,"æįī":6410,"åįĹéĥ¨":6411,"æıĴåħ¥":6412,"åĩłä¹İ":6413,"çº¿ä¸Ĭ":6414,"éĻįä½İæĪĲæľ¬":6415,"å¹¿åľº":6416,"å¡ĳæĸĻè¢ĭ":6417,"èī²è°ĥ":6418,"é«ĺæ¸©":6419,"ç«Ł":6420,"è¯ŃéŁ³åĬ©æīĭ":6421,"åľ¨éĩĳèŀį":6422,"è¿Ļåıª":6423,"ä¸ĬäºĨ":6424,"ä¸Ģæ¬¡æĢ§":6425,"æ»¥":6426,"æĮĩæķ°":6427,"ç»©æķĪ":6428,"ä¸ĭåİ»":6429,"å°ıé¸Ł":6430,"è§ĤçĤ¹åĴĮ":6431,"æ¶ĪåĮĸ":6432,"åĽ¢éĺŁçļĦ":6433,"æĶ¹åıĺäºĨ":6434,"æłĸæģ¯åľ°":6435,"å¿į":6436,"æľĢåĪĿ":6437,"çļĦç¨ĭ":6438,"ç¹ģæ®ĸ":6439,"åľ¨å®¶éĩĮ":6440,"è¯¯è§£":6441,"åĳ¨æľ«":6442,"æıĲåıĸåĩº":6443,"2019":6444,"æľºåĻ¨åŃ¦ä¹łæĬĢæľ¯":6445,"æī¹è¯Ħ":6446,"å·¥åħ·åĴĮ":6447,"åı¯ä»¥å¸®åĬ©ä½łæĽ´å¥½åľ°":6448,"é»ŀ":6449,"è¾ĥå¤§":6450,"çİ«çĳ°":6451,"å¥ī":6452,"åįģäºĮ":6453,"è¦ģä¿ĿæĮģ":6454,"åĪ©çİĩ":6455,"çº¿æĿ¡":6456,"Ġç»ĥä¹ł":6457,"æĺ¯ä¸Ģä¸ªéĿŀå¸¸":6458,"éĿ¢ä¸´çļĦ":6459,"IT":6460,"è¥¿çıŃ":6461,"åľ°åĽ¾":6462,"å±ķè§Ī":6463,"è¥¿çıŃçīĻ":6464,"æĪĳä»¬åľ¨":6465,"çļĦåīį":6466,"åĪ©äºļ":6467,"åĿĳ":6468,"ç»ĻäºĨ":6469,"äººå·¥æĻºèĥ½æĬĢæľ¯çļĦåıĳå±ķ":6470,"åĬĽåº¦":6471,"åĮ»çĸĹæľįåĬ¡":6472,"è¿Ŀæ³ķ":6473,"å¢ĵ":6474,"ĠäºĨè§£":6475,"å»·":6476,"å¤§éĥ¨åĪĨ":6477,"è¿ĶåĽŀ":6478,"æľīæĦıä¹ī":6479,"éĢļéģİ":6480,"åĳĢ":6481,"éĽĨåĽ¢":6482,"åŃ¦å®¶":6483,"æĽ´å¤ļçļĦäºº":6484,"éĻ¤æ³ķ":6485,"å¢ŀæ·»":6486,"å¦ĤæŀľæĤ¨çļĦ":6487,"æ¼Ķåĩº":6488,"åĵģçīĮå½¢è±¡":6489,"åı¬":6490,"å¹¶éĢļè¿ĩ":6491,"æľ¯è¯Ń":6492,"èª¿":6493,"å®ĥåľ¨":6494,"ç¼ºå¤±":6495,"åĮĸåŃ¦åıįåºĶ":6496,"åĴĮæľĭåıĭ":6497,"é¤Ĳé¦Ĩ":6498,"åĳ¨åĽ´çļĦ":6499,"åĪ©äºİ":6500,"æİĴåºıç®Ĺæ³ķ":6501,"ç»ĻæĪĳä»¬":6502,"äº¤åıī":6503,"è¯Ĺäºº":6504,"æµıè§Ī":6505,"åĪĩç¢İ":6506,"æ¯ıä¸ªäººéĥ½åºĶè¯¥":6507,"ä¸¢":6508,"Ġâ":6509,"å°Ĩåľ¨":6510,"èį¡":6511,"ç§įåŃĲ":6512,"çŃĽéĢī":6513,"æĬļ":6514,"åĲįåı«":6515,"çĶµåŃĲåķĨåĬ¡":6516,"æĽ´åħ·":6517,"è¯Ńæ°Ķ":6518,"ï¼ħ":6519,"éĽ¶åĶ®":6520,"å¥½å¥ĩ":6521,"çļĦåĨ³çŃĸ":6522,"æİ¢æµĭ":6523,"è¶ħçº§":6524,"æĮīæĹ¶":6525,"æĢ§åĪ«æŃ§è§Ĩ":6526,"æµĻ":6527,"Ġæĺ¯çļĦ":6528,"å¤§åľ°":6529,"æĸĩèīº":6530,"èħĶ":6531,"éŃĤ":6532,"æ·ĩ":6533,"ä»¥åīį":6534,"ä»İå°ı":6535,"åİŁæĿ¥":6536,"èŀº":6537,"å¤«å¦»":6538,"å°ıæĺİçļĦ":6539,"çĻĮçĹĩ":6540,"çļĦå½¢å¼ı":6541,"æ¼Ĥäº®":6542,"Ġå¯¹":6543,"éĴ¢çĲ´":6544,"åĽ¾ä¹¦é¦Ĩ":6545,"æļ´åĬĽ":6546,"å¹²æĹ±":6547,"è½¬ç§»":6548,"çŃĶæ¡Īæĺ¯":6549,"ĠG":6550,"åĴĮä¸Ģä¸ª":6551,"å·ŀå¸Ĥ":6552,"ä½ıå®¿":6553,"ä¹Łèĥ½":6554,"å®¶çĶµ":6555,"èĩªå·±åĴĮ":6556,"æĿ¥è®¡ç®Ĺ":6557,"æ£ķ":6558,"Mar":6559,"æĤŁ":6560,"ä¸ĸçķĮä¸Ĭ":6561,"Ġå¯»æī¾":6562,"ä¸ĭä¸Ģä¸ª":6563,"æĺŁç³»":6564,"æķ°åĢ¼":6565,"æĪĸä¸į":6566,"çļĦåĳ³éģĵ":6567,"è¥¿äºļ":6568,"èĭ±æĸĩ":6569,"åĲĳåīį":6570,"è¿½æº¯åĪ°":6571,"ä¹ĭä¸Ń":6572,"çĭ¼":6573,"çĲ³":6574,"åı¯ä»¥å¯¹":6575,"çĥĺ":6576,"\"ï¼Į":6577,"è®¾å¤ĩçļĦ":6578,"åĨľæ°ĳ":6579,"æĨ":6580,"å¾ĹåĪĨ":6581,"æĪĳä»¬åı¯ä»¥å°Ĩ":6582,"ç©ºä¸Ń":6583,"ç©ºè°ĥ":6584,"çļĦæİĴæĶ¾":6585,"æľīäºĨ":6586,"ä¸ºä¸Ģä¸ª":6587,"åŀĭçļĦ":6588,"æİ¢è®¨äºĨ":6589,"ä½ľåĩº":6590,"çłĶç©¶è¡¨æĺİ":6591,"æĺ¯çĶ±äºİ":6592,"è¾¨":6593,"éħµ":6594,"è®©æĤ¨":6595,"æ¢¨":6596,"ä»¥æŃ¤":6597,"åĴĮåĨ³çŃĸ":6598,"è°ľ":6599,"ä¹ĺå®¢":6600,"æµĩæ°´":6601,"åĪ¤åĨ³":6602,"å±ĢéĻĲ":6603,"éĢļè¿ĩä»¥ä¸Ĭ":6604,"æ·±æ·±":6605,"ä¸Ģåº§":6606,"ä¸Ģæľ¬":6607,"éĹ»åĲį":6608,"Ġp":6609,"å¤©æĸĩåŃ¦":6610,"åıĳè¡¨":6611,"é»ĳå®¢":6612,"åĮĸçŁ³çĩĥæĸĻ":6613,"ĠéĢĤéĩı":6614,"é¢Ħè®¢":6615,"ä¿Ħç½Ĺæĸ¯":6616,"æīĳ":6617,"çļĦé¢ĨåŁŁ":6618,"èĥĸ":6619,"è¿ĺè¦ģ":6620,"æĸĩç«łä¸Ń":6621,"ä¾Ŀæį®":6622,"é¥®çĶ¨":6623,"çĸĳéĹ®":6624,"é¢Ħè®¡":6625,"æĺ¯ä¸Ģæ¬¾":6626,"çļĦçĭ¬çī¹":6627,"éģŃåıĹ":6628,"å¼ķäºº":6629,"éĢļå¸¸åľ¨":6630,"éĩįè¦ģæĢ§":6631,"æĭħå¿§":6632,"åı£ç½©":6633,"ç¼ĵæħ¢":6634,"æĦıåĽ¾":6635,"æħĪåĸĦ":6636,"ç®Ń":6637,"ĠçĶ¨":6638,"èī°":6639,"èħº":6640,"æĺİæĻº":6641,"èĩªçĦ¶çļĦ":6642,"å¸®åĬ©æĪĳä»¬":6643,"è¾©":6644,"éķ¿åŁİ":6645,"ç¿¼":6646,"è¿ĻäºĽåĽłç´ł":6647,"è¿Ń":6648,"å°ĬéĩįåĴĮ":6649,"èģļç±»":6650,"ä¸ļç»©":6651,"å¯¹ç¤¾ä¼ļ":6652,"çĶŁæ´»åľ¨":6653,"æ¨£":6654,"çļĦæµ·":6655,"åı¯çĪ±":6656,"æįĲ":6657,"å¼ķåħ¥":6658,"æĪĳæ²¡æľī":6659,"æĺ¥å¤©":6660,"çļĦçĤ":6661,"ĠåĪ¶å®ļè®¡åĪĴ":6662,"æĸĩæľ¬åĪĨç±»":6663,"ä¸ĵä¸ļçŁ¥è¯Ĩ":6664,"çļĦçĽ®æłĩåĴĮ":6665,"2014":6666,"é¦Ļæ°Ķ":6667,"é¦Ļèįī":6668,"ä½Ĩä¸į":6669,"è®¾è®¡å¸Ī":6670,"ä»·åĢ¼åĴĮ":6671,"åħ¨éĿ¢çļĦ":6672,"åĲ¯ç¤º":6673,"åīįè¿Ľ":6674,"48":6675,"æľīä¸Ģå¤©":6676,"åı¯çĶ¨":6677,"åĴĮåıįé¦Ī":6678,"å¯¹çİ¯å¢ĥçļĦ":6679,"æħ°":6680,"æĩĪ":6681,"å¾Ĳ":6682,"æİ¨ç§»":6683,"é¢Ħå¤ĦçĲĨ":6684,"2010":6685,"çĥŃçĪ±":6686,"åĨ°æ·ĩ":6687,"å®´":6688,"æ©ŁåĻ¨":6689,"çļĦåħī":6690,"äºĨè§£ä»ĸä»¬çļĦ":6691,"åĳ½è¿Ĳ":6692,"æķħäºĭæĥħèĬĤ":6693,"ç§ĳåŃ¦å®¶ä»¬":6694,"å¤´åıĳ":6695,"æ¸¬":6696,"å©Ĩ":6697,"çļĦä»£è¡¨":6698,"åľ¨æĪĳ":6699,"åľ°ä¸ĭ":6700,"åľ°éĵģ":6701,"åĨ°æ·ĩæ·ĭ":6702,"çħ§çīĩ":6703,"æĬĢèĥ½åĴĮçŁ¥è¯Ĩ":6704,"åŃķ":6705,"ãĢĭï¼ļ":6706,"å·²ç»ıå¼Ģå§ĭ":6707,"åģľè½¦":6708,"å¼ķèµ·äºĨ":6709,"æķĻåłĤ":6710,"çĸ¾çĹħçļĦ":6711,"æŁĲæŁĲ":6712,"çĭĹçļĦ":6713,"æ¸¸æĪıä¸Ń":6714,"çĶŁçī©å¤ļæł·æĢ§":6715,"åīĳ":6716,"ç»ĻæĤ¨":6717,"ç½ĳç»ľå®īåħ¨":6718,"å¿ĥä¸Ń":6719,"å¦Ĥä½ķåĪ¶ä½ľ":6720,"æ¼ıæ´ŀ":6721,"åĴĮæ´»åĬ¨":6722,"å·²æĪĲä¸º":6723,"è¿ĺæľīå¾Īå¤ļ":6724,"èį¯åĵģ":6725,"æ··åĲĪçī©":6726,"æĪĳè¦ģ":6727,"å®ı":6728,"éĢĤçĶ¨":6729,"åı¯ä»¥å®ŀçİ°":6730,"æĥ©ç½ļ":6731,"ä¹ĭæĹħ":6732,"äºĨä¸Ģç³»åĪĹ":6733,"æ´¾åĩº":6734,"çļĦåıĳå±ķåĴĮ":6735,"éĢļè¿ĩä½¿çĶ¨":6736,"æĺ¾å¾Ĺ":6737,"å¯¹ä½ł":6738,"è®¾ç«ĭ":6739,"Ġå¢ŀåĬł":6740,"à¤¾":6741,"æ¡Ĥ":6742,"éĿŀå¸¸å¹¿æ³Ľ":6743,"ä»ªå¼ı":6744,"ir":6745,"çĭĲ":6746,"å®¢æĪ·éľĢæ±Ĥ":6747,"çĵ·":6748,"æŀģå¤§çļĦ":6749,"å¤ªç©ºæİ¢ç´¢":6750,"ä¸¥æł¼çļĦ":6751,"ãĢĤãĢĬ":6752,"åı¯è¡ĮçļĦ":6753,"äº¤éĢļæĭ¥åłµ":6754,"æľĪä»½":6755,"ä¹¦è®°":6756,"é£İéĻ©æī¿åıĹ":6757,"åĸĦèī¯":6758,"åĨ°å·Ŀ":6759,"åİĨç¨ĭ":6760,"çļĦä¸į":6761,"ara":6762,"å®ĩå®ĻçļĦ":6763,"è®Ńç»ĥæ¨¡åŀĭ":6764,"è¡¨æł¼":6765,"æķ°çĻ¾":6766,"åħ¬å¼Ģ":6767,"æľªæĿ¥åıĳå±ķ":6768,"åĪĹä¸¾":6769,"ç¥ŀå¥ĩ":6770,"æ¯ıä¸Ģ":6771,"å¸¦çĿĢ":6772,"åĲĦåĽ½":6773,"è¿ĳæĹ¥":6774,"äººä»¬çļĦçĶŁæ´»":6775,"éģ¿åħįè¿ĩåº¦":6776,"å®ĺæĸ¹":6777,"é³į":6778,"åħ¬çĽĬ":6779,"å®Įæķ´çļĦ":6780,"å®ĿèĹı":6781,"li":6782,"åį±æľº":6783,"çļĦçĥ¤":6784,"è¯¥åħ¬åı¸":6785,"çĭ®åŃĲ":6786,"ĠØ§ÙĦ":6787,"à§":6788,"è¶ħè¶Ĭ":6789,"ĠL":6790,"åĴĮçłĶç©¶":6791,"æĪĳä»¬çļĦäº§åĵģ":6792,"çģ«è½¦":6793,"æł¹æį®æĤ¨çļĦ":6794,"æ¶Īè´¹èĢħçļĦ":6795,"ĠèĩªåĬ¨åĮĸ":6796,"è´¢åĬ¡çĬ¶åĨµ":6797,"èĦĬ":6798,"è¡Įä¸ļä¸Ń":6799,"çłĤ":6800,"èĿ´":6801,"è®©èĩªå·±":6802,"éĤĦ":6803,"è³ª":6804,"é£İèĥ½":6805,"å¯¼èĩ´çļĦ":6806,"Ġ30":6807,"çļĦç´§":6808,"è¿Ļåı¯ä»¥éĢļè¿ĩ":6809,"æľīéĻĲåħ¬åı¸":6810,"å½ĵä»£":6811,"èĿ´èĿ¶":6812,"å±ŀæĢ§":6813,"åĢ¼å¾Ĺä¸Ģ":6814,"ç¨Ģ":6815,"çĲĨçĶ±":6816,"ç¡®ä¿ĿæĤ¨":6817,"æĺĨèĻ«":6818,"ä¼ļæľī":6819,"åĤ¨åŃĺ":6820,"ä¾ĽåºĶåķĨ":6821,"è¿ĻäºĽéĥ½æĺ¯":6822,"æĬķè³ĩ":6823,"br":6824,"é¥®åĵģ":6825,"æĪªæŃ¢":6826,"åı¯ä¿¡":6827,"æīĭæ³ķ":6828,"åı¸æľº":6829,"åı¯åı£":6830,"æ¯ıäºº":6831,"æ´»åĬ¨åĴĮ":6832,"åĨĽéĺŁ":6833,"éĥ¨ä½į":6834,"å·¥åİĤ":6835,"ç¥ŀç»ıåħĥ":6836,"ä¿¡çĶ¨åį¡":6837,"åģ¥åº·éĹ®é¢ĺ":6838,"Øª":6839,"çļĦæĦıæĢĿ":6840,"ä¸įä»ħä»ħæĺ¯":6841,"éĩıåŃĲåĬĽåŃ¦":6842,"åŁºäºİä»¥ä¸Ĭ":6843,"ç©¿è¿ĩ":6844,"ä¸Ńä½¿çĶ¨":6845,"åı¶åŃĲ":6846,"å°ıå¿ĥ":6847,"åħ¶ä¸ŃæľĢ":6848,"èĢģå¹´äºº":6849,"Ð²":6850,"å¦Ĥä»Ĭ":6851,"æ°ĳä¸»":6852,"èĩªçĦ¶çķĮ":6853,"ä½Ĩä»ĸ":6854,"èħ¾":6855,"çªģçł´":6856,"åĿļå®ļ":6857,"è¿Ļä¹Łæĺ¯":6858,"Âł":6859,"åľ°åĿĢ":6860,"æ²»çĲĨ":6861,"ä¿¡å¿µ":6862,"å±ķçİ°äºĨ":6863,"åıĳéŁ³":6864,"æĽ´æľīæķĪåľ°":6865,"ç¡®ä¿ĿæĤ¨çļĦ":6866,"äºĨè§£èĩªå·±çļĦ":6867,"åĴĮå¸Ĥåľº":6868,"æŃ¤æĹ¶":6869,"åįĹäº¬":6870,"ä¼ģä¸ļå®¶":6871,"åĲ¯åıĳ":6872,"å®ħ":6873,"èĳ¡èĲĦéħĴ":6874,"éħ¸å¥¶":6875,"å°ĳçļĦ":6876,"åĴĮæİ§åĪ¶":6877,"è®¼":6878,"çļĦçħ§":6879,"ä»İä»¥ä¸ĭ":6880,"æĢİæł·":6881,"çī©åĴĮ":6882,"è§£åĨ³éĹ®é¢ĺçļĦ":6883,"çŁ³å¤´":6884,"çļĦå£°éŁ³":6885,"éĩĳé»Ħèī²":6886,"è¡Ģæ¶²":6887,"èµ¤":6888,"è¿ĻåĮħæĭ¬":6889,"èĭ±å°º":6890,"ç±»ä¼¼äºİ":6891,"åı¯èĥ½åŃĺåľ¨":6892,"ç²ĴåŃĲ":6893,"å½¢æĪĲäºĨ":6894,"Ġæī¾åĪ°":6895,"ä¸»ä»»":6896,"èįīåİŁ":6897,"éļıçĿĢæĹ¶éĹ´çļĦ":6898,"èĢĲå¿ĥåĴĮ":6899,"å¯¹åºĶ":6900,"éĢĤåĲĪèĩªå·±çļĦ":6901,"ä¹Łæĺ¯ä¸Ģä¸ª":6902,"ÃĹ":6903,"æīĵåĩ»":6904,"åĨ·åį´":6905,"ä»¥å®ŀçİ°":6906,"åħįçĸ«åĬĽ":6907,"åıįå¯¹":6908,"æĬ½è±¡":6909,"åģ¶æķ°":6910,"ä¸ĭéĿ¢çļĦ":6911,"å¸®åĬ©äººä»¬":6912,"32":6913,"é«ĺè´¨éĩıçļĦ":6914,"ç©¿è¶Ĭ":6915,"çĪ·":6916,"å®ģéĿĻ":6917,"è¿Ľè¡ĮåĪĨæŀĲ":6918,"ç©ºæ°Ķæ±¡æŁĵ":6919,"ag":6920,"çİ°æľī":6921,"çİīç±³":6922,"çłĸ":6923,"åħħåĪĨçļĦ":6924,"å¯¹çİ¯å¢ĥçļĦå½±åĵį":6925,"æ¯«åįĩ":6926,"åħ»æĪĲ":6927,"èĥ½å¤ł":6928,"æĻ´":6929,"å¤ĩåıĹ":6930,"ä»ĸæĥ³":6931,"å·¥èµĦ":6932,"2012":6933,"è¡¡éĩı":6934,"å¥½äºĨ":6935,"è¯īè®¼":6936,"ç»Ļäºº":6937,"åĿĲåľ¨":6938,"ç¢Ĺä¸Ń":6939,"åĳ½åĲį":6940,"çļĦçĪ¶":6941,"æĪĳä¸į":6942,"æł¹æį®é¢ĺçĽ®":6943,"æĽ´åĬłæĻºèĥ½åĮĸ":6944,"ä»¥èİ·å¾Ĺ":6945,"æıĲä¾ĽæĽ´å¤ļçļĦ":6946,"ç¢ºä¿Ŀ":6947,"Ġä½łå¥½":6948,"çļĦçģ«":6949,"æī¿è¯º":6950,"æĳĦå½±":6951,"éļª":6952,"çļĦåŃĺåľ¨":6953,"åĽ°å¢ĥ":6954,"ĠH":6955,"å¿½çķ¥":6956,"ä»ĵ":6957,"åħ³éĶ®ä¿¡æģ¯":6958,"é¢ĦçĥŃ":6959,"æīĭå·¥èīº":6960,"åħ¬äº¤":6961,"æ¨¡ä»¿":6962,"åį³å°Ĩ":6963,"æĿĨ":6964,"å¤ªå¹³":6965,"ä¸ºçĶ¨æĪ·":6966,"è¯¯å·®":6967,"éĩĩéĽĨ":6968,"æ¸ħæĻ°çļĦ":6969,"é©±åĬ¨":6970,"çīĽé¡¿":6971,"av":6972,"ad":6973,"å®Ŀçİī":6974,"åĸĦäºİ":6975,"çļĦæĹ¶éĹ´åĴĮ":6976,"çŃīæĸ¹å¼ıæĿ¥":6977,"ç»Łä¸Ģ":6978,"èĲ¥åħ»ç´ł":6979,"åħ¶ä¸Ńä¸ĢäºĽ":6980,"åĲ¬ä¼Ĺ":6981,"**":6982,"äº§çĶŁäºĨæ·±è¿ľçļĦå½±åĵį":6983,"æĽ´æĶ¹":6984,"æĭ¼åĨĻ":6985,"åĩºçİ°çļĦ":6986,"çº¢æŁ¿":6987,"èħĮ":6988,"éĢłæĪĲçļĦ":6989,"æľīçĶ¨çļĦ":6990,"ç»Ļåĩºä¸Ģä¸ª":6991,"å¤ļæł·åĮĸ":6992,"åı¯ä»¥è¿½æº¯åĪ°":6993,"äººå·¥æĻºèĥ½çļĦåºĶçĶ¨":6994,"æ¨Ĥ":6995,"è¥¿çº¢æŁ¿":6996,"æĪĳéĿŀå¸¸":6997,"éŁ©åĽ½":6998,"åĴĮé£İéĻ©":6999,"èªīä¸º":7000,"åıįæĺłäºĨ":7001,"å¹¶ä¿ĿæĮģ":7002,"æįŀ":7003,"å¹¶è§£éĩĬ":7004,"å¹³åĿĩåĢ¼":7005,"åıªéľĢè¦ģ":7006,"çĥ¤çĽĺ":7007,"çĶŁæ´»è´¨éĩı":7008,"åĩºçİ°åľ¨":7009,"å¤§è±¡":7010,"æ¶Į":7011,"å·¥ä½ľåĴĮ":7012,"é¢Ŀå¤ĸçļĦ":7013,"åĩ¤":7014,"æĺİæľĿ":7015,"çļĦåĢ¼":7016,"åŁĥåıĬ":7017,"é¡µéĿ¢":7018,"åı¯ä»¥éĩĩçĶ¨":7019,"æģ°":7020,"çº¿ç´¢":7021,"éĥ½æľīçĿĢ":7022,"è®¡ç®Ĺåĩº":7023,"èģĶçĽŁ":7024,"åħħè¶³çļĦ":7025,"åİ¦":7026,"èį¯çī©çłĶåıĳ":7027,"åħĭçļĦ":7028,"æīĭèĩĤ":7029,"çĸ¼çĹĽ":7030,"çº¸å¼ł":7031,"è®¨è®ºäºĨ":7032,"çļĦç³»":7033,"çļĦåĲ«ä¹ī":7034,"çĮ´":7035,"ä¾ĿçĦ¶":7036,"ãĢĤâĢľ":7037,"æ¯Ķäºļ":7038,"è®¾å¤ĩåĴĮ":7039,"å¤ļå¹´":7040,"å®Įç¾İçļĦ":7041,"ä¹īåĬ¡":7042,"çĺ¦":7043,"é¤Ĳé¥®":7044,"é¦ĻæĸĻ":7045,"æīĢæľīäºº":7046,"åħĭæĸ¯":7047,"å£°èªī":7048,"åĲ¬åıĸ":7049,"å½¼æŃ¤çļĦ":7050,"äººå·¥æĻºèĥ½ç³»ç»Ł":7051,"ç¾İæ´²":7052,"å¯ĴåĨ·":7053,"çŁŃæľŁ":7054,"å°¤åħ¶æĺ¯åľ¨":7055,"é¤Ĳåħ·":7056,"åŃĺåľ¨çĿĢ":7057,"å¯Ĥ":7058,"å¿ĥè¡Ģç®¡":7059,"éģ¿åħįä½¿çĶ¨":7060,"é»Ħæ²¹":7061,"æ´ªæ°´":7062,"éĢīä¸¾":7063,"å¸®åĬ©åĮ»çĶŁ":7064,"AIåľ¨":7065,"æĸĩåĮĸéģĹäº§":7066,"æ¹ĸæ³Ĭ":7067,"æ¨¡å¼ıåĴĮ":7068,"èĻķ":7069,"éĥ½åºĶè¯¥":7070,"å¥³å£«":7071,"åĩĢåĮĸ":7072,"å¥ĳ":7073,"ä¸´åºĬ":7074,"æģ¶æĦı":7075,"è¡°":7076,"éĶ¦":7077,"äººå·¥æĻºèĥ½åı¯ä»¥å¸®åĬ©":7078,"ä»¬çļĦ":7079,"å¿ĥçĲĨåĴ¨è¯¢":7080,"å°±èĥ½":7081,"æııè¿°ä¸Ģä¸ª":7082,"å¾®ç¬ĳ":7083,"çģ°èī²":7084,"åĳĬè¯īæĪĳä»¬":7085,"æ°´èµĦæºĲ":7086,"ä¼ĺéĽħ":7087,"ç»ıåħ¸çļĦ":7088,"æµĻæ±Ł":7089,"éŁ¿":7090,"ç»Ŀå¯¹":7091,"æľīå¤ļå°ĳ":7092,"é£İåħī":7093,"æ´»åĬ¨çļĦ":7094,"æĪĳçŁ¥éģĵ":7095,"ç§ĺå¯Ĩ":7096,"AIè¯Ńè¨Ģæ¨¡åŀĭ":7097,"ç¸½":7098,"åĲ¸å¼ķåĬĽ":7099,"çļĦæĹ¶éĹ´å¤įæĿĤåº¦":7100,"ä¼ĺç¼ºçĤ¹":7101,"çī§":7102,"äººå·¥æĻºèĥ½åı¯ä»¥éĢļè¿ĩ":7103,"æĸĩåĮĸä¸Ń":7104,"æĬķè¯ī":7105,"å®¢åİħ":7106,"ç¾İè§Ĥ":7107,"æ³ķå¾ĭåĴĮ":7108,"è§£çŃĶ":7109,"æ¡Ĩæŀ¶":7110,"è¾¹çļĦ":7111,"æ©ĺ":7112,"åĩıè½»åİĭåĬĽ":7113,"è¿Ļå°±æĺ¯":7114,"å®¶ä¸Ń":7115,"åĲĳæĤ¨":7116,"ä¸¤ä¸ªäºº":7117,"æĶ¯éĵħç¬Ķ":7118,"è½¬åŀĭ":7119,"åĭĥ":7120,"åľ¨ä¸įåĲĮçļĦ":7121,"è§Ģ":7122,"åħ³èģĶ":7123,"æ´Ĺè¡£":7124,"äº¤éĢļå·¥åħ·":7125,"åľ¨ä¸įåĲĮ":7126,"çļĦå¤©æ°Ķ":7127,"äººèĦ¸":7128,"èº«ä¸Ĭ":7129,"åĲ¯åĬ¨":7130,"éĥĳ":7131,"Ð´":7132,"éľĢè¦ģä¸įæĸŃ":7133,"æĪĸæĺ¯":7134,"åħ¬æ°ĳ":7135,"Ġ100":7136,"çļĦè¯Ŀé¢ĺ":7137,"ï¼ĮãĢĬ":7138,"åħ¥æīĭ":7139,"çĩķéº¦":7140,"åºĶçĶ¨åľºæĻ¯":7141,"è¿ĺæľīä¸ĢäºĽ":7142,"ä¹ĺåĿĲ":7143,"ä¸ĢèĪ¬æĿ¥è¯´":7144,"æļĹç¤º":7145,"èĢĮå¼Ĥ":7146,"éļıçĿĢæĹ¶éĹ´çļĦæİ¨ç§»":7147,"çļĦå¤ĸ":7148,"çļĦçķ":7149,"éĴ¥":7150,"æĤ²ä¼¤":7151,"çĦ¶åĲİå°Ĩ":7152,"èĤ¥æĸĻ":7153,"2013":7154,"ç¤¾äº¤åªĴä½ĵä¸Ĭ":7155,"iP":7156,"ä¸įæĩĪ":7157,"è¡«":7158,"èĳ£":7159,"ä¹°äºĨ":7160,"çĽĹçªĥ":7161,"ot":7162,"å¤Ħç½ļ":7163,"ç§ĳæĬĢçļĦåıĳå±ķ":7164,"çĶŁçī©åŃ¦":7165,"å½±åĵįäºĨ":7166,"Ġæ³¨æĦı":7167,"å¤ĦçļĦ":7168,"ä¸İäºº":7169,"ä»¥éĢĤåºĶ":7170,"æ¸Ľ":7171,"2020":7172,"ä¹ĭæĥħ":7173,"çĽ´å¾Ħ":7174,"åĽ´ç»ķ":7175,"çļĦæĦıä¹ī":7176,"çº¢èī²çļĦ":7177,"åı¯ä»¥èĩªåĬ¨":7178,"èĻ¹":7179,"ç®Ĺæ³ķæĿ¥":7180,"åĮħåĲ«äºĨ":7181,"éĢĶä¸Ń":7182,"éĩįè¦ģçļĦè§Ĵèī²":7183,"åħ±é¸£":7184,"å¡ĳéĢł":7185,"åºĵåŃĺ":7186,"çĭ¸":7187,"ç¢³æ°´åĮĸåĲĪçī©":7188,"ĠéĤ£":7189,"éŀĭåŃĲ":7190,"Ñĸ":7191,"çĤ¹åĩ»":7192,"é¥®é£ŁåĴĮ":7193,"çĶŁæĢģå¹³è¡¡":7194,"æĽ¹":7195,"çī¹çĤ¹åĴĮ":7196,"æĸ¹å½¢":7197,"æ£ī":7198,"ä»£è¡¨çĿĢ":7199,"åĬłå¿«":7200,"çļĦé£Łåĵģ":7201,"åįļå®¢":7202,"ä¾ĭå¦Ĥåľ¨":7203,"å¸Ĥä¸Ńå¿ĥ":7204,"å¤ªéĺ³çļĦ":7205,"çī¹åĪ«æĺ¯åľ¨":7206,"é«ĺè¡Ģåİĭ":7207,"éĹ´çļĦ":7208,"éĹ¹":7209,"ï¼Īï¼ī":7210,"åįĵè¶Ĭ":7211,"ä¼ª":7212,"çīµ":7213,"ä¸ŃçļĦä¸Ģä¸ª":7214,"ç²Ĺ":7215,"ä¸ĺ":7216,"èĢ¶":7217,"éļĲèĹı":7218,"äº²å¯Ĩ":7219,"ç¦ģæŃ¢":7220,"æĪĳä»¬ä¹Ł":7221,"èŃĺ":7222,"éļ¶":7223,"å¹½é»ĺ":7224,"è¿Ļåı¯ä»¥å¸®åĬ©":7225,"èµ°äºĨ":7226,"å®¢æĪ¶":7227,"æ¶²ä½ĵ":7228,"çļĦçı":7229,"éŁµ":7230,"è¿Ļä¸ªæķħäºĭ":7231,"åľ¨å·¥ä½ľä¸Ń":7232,"å¤·":7233,"è¿Ļä»½":7234,"è®©çĶ¨æĪ·":7235,"åħ¨æĸ°çļĦ":7236,"ï¼į":7237,")ãĢĤ":7238,"Ġ[":7239,"éģ®":7240,"ä»£åħ¥":7241,"æĺ¥èĬĤ":7242,"çħ¸":7243,"ç§ģäºº":7244,"è¿Ļè¡¨æĺİ":7245,"è¿Ļåı¯ä»¥å¸®åĬ©æĤ¨":7246,"èº«é«ĺ":7247,"åıįé¦ĪåĴĮ":7248,"åħĪè¿ĽçļĦ":7249,"çº¢çĥ§":7250,"åĲ¬èµ·æĿ¥å¾Ī":7251,"ä¿Ŀåħ»":7252,"éĹ®é¢ĺæĪĸ":7253,"è¢«èªīä¸º":7254,"åĽ¾å½¢":7255,"åĶ®åĲİ":7256,"äººå¿ĥ":7257,"Ġh":7258,"æĢ§èĥ½åĴĮ":7259,"ç¨İæĶ¶":7260,"è¡¨æĥħ":7261,"æľ¬åľ°":7262,"çļĦç¦":7263,"ä¸įä»ħåı¯ä»¥":7264,"æĺ¯ä¸Ģå®¶":7265,"åıĤä¸İèĢħ":7266,"çľĭçĶµå½±":7267,"åı¯çĶ¨äºİ":7268,"å¼ºåĮĸåŃ¦ä¹ł":7269,"èŀįåĮĸ":7270,"èĤ¿":7271,"è¯ķéªĮ":7272,"åĩıåİ»":7273,"æĤ¨åºĶè¯¥":7274,"çłĶç©¶åĴĮ":7275,"çĶµåĬĽ":7276,"ç¼Ŀ":7277,"åĮĹéĥ¨":7278,"å²©çŁ³":7279,"éľĢè¦ģéĩĩåıĸ":7280,"ä»¥ä¾¿åľ¨":7281,"éĿłè¿ĳ":7282,"åĬłå¤§":7283,"ĠD":7284,"åľ¨å®¶ä¸Ń":7285,"æĪĳå·²ç»ı":7286,"åįĥç±³":7287,"æľ´":7288,"æ¸¡":7289,"åĴĮå¯¹":7290,"æķ°æĺ¯":7291,"å¥³åĦ¿":7292,"çļĦç½ĳç»ľ":7293,"ç§ĳæĻ®":7294,"ä¿¡æģ¯çļĦ":7295,"æĲºå¸¦":7296,"è¿ĺæľīè®¸å¤ļ":7297,"èĥ¸èĤī":7298,"çĪµ":7299,"å¥¥è¿Ĳ":7300,"å®¢è§Ĥ":7301,"äº¤éĢļäºĭæķħ":7302,"è¿Ļç§įæĥħåĨµ":7303,"åĽŀåºĶ":7304,"å·²ç»ıæĪĲä¸ºäºĨ":7305,"ä¹Łè®¸":7306,"æĤ¨åı¯ä»¥éĢīæĭ©":7307,"å¼ĢæĶ¯":7308,"AIçļĦ":7309,"éĩįè¦ģçļĦæĺ¯":7310,"åľ¨ä¸ĢäºĽ":7311,"å¾½":7312,"æĽ´æĺ¯":7313,"æ²¡æľīä»»ä½ķ":7314,"çĮĽ":7315,"ä¸įå¥½":7316,"æķ°æį®æĿ¥":7317,"æ±īåŃĹ":7318,"çĶµåķĨ":7319,"æ¸ħæ´ģèĥ½æºĲ":7320,"çļĦæĢģåº¦":7321,"éĢļè®¯":7322,"ç»µ":7323,"æĪ°":7324,"è¯ĨåĪ«åĩº":7325,"ĠI":7326,"åıĳåĬ¨æľº":7327,"æĬĺæī£":7328,"æ½ľåľ¨çļĦ":7329,"ä¿ĿæĮģèī¯å¥½çļĦ":7330,"æİ¥æĶ¶":7331,"å°Ĩä»»åĬ¡":7332,"åĨħæ¶µ":7333,"æĹłçº¿":7334,"èĭ±éĩĮ":7335,"æĳ¸":7336,"è°¢è°¢ä½łçļĦ":7337,"å½±éŁ¿":7338,"çļĦçĹĩ":7339,"çĽ¸åĬł":7340,"èµ°åĲĳ":7341,"æĳĦåĥı":7342,"å¹¶åıĬæĹ¶":7343,"':":7344,"è¸ı":7345,"lex":7346,"å¤§èĴľ":7347,"æ²īæµ¸":7348,"çļĦä¸»è¦ģåĨħå®¹":7349,"ç©ĨæľĹ":7350,"æĺ¯ä¸ª":7351,"åı£æĦŁåĴĮ":7352,"Ġæł¹æį®":7353,"å¿ĥèĦıçĹħ":7354,"æİ¢ç©¶":7355,"é¾Ł":7356,"34":7357,"åıĳçĶŁçļĦ":7358,"ä¸Ģå®ļä¼ļ":7359,"ç©ĨæľĹçİĽ":7360,"éĴ®":7361,"èľľèľĤ":7362,"çıĬ":7363,"ç²¾å½©":7364,"è¯·ç»ŃåĨĻ":7365,"Ġäººå·¥æĻºèĥ½":7366,"æ°Ķæ°Ľ":7367,"å¹¿ä¸ľ":7368,"æĺİæĺ¾çļĦ":7369,"è¢«åĳĬäºº":7370,"GP":7371,"äººä»¬åı¯ä»¥":7372,"æĤ¨åı¯ä»¥èĢĥèĻĳ":7373,"åĴĮä¿ĿæĬ¤":7374,"æľĢä¼ĺ":7375,"çº²":7376,"èīºæľ¯ä½ľåĵģ":7377,"åı¯éĿłçļĦ":7378,"å¥½åĥı":7379,"éĽ»":7380,"ç¿Ķ":7381,"å·¥äºº":7382,"çĹĽèĭ¦":7383,"é»Ľçİī":7384,"us":7385,"ä½łè®¤ä¸º":7386,"è·Į":7387,"éħįå¤ĩ":7388,"åĲ¸å¼ķæĽ´å¤ļçļĦ":7389,"çĪĨçĤ¸":7390,"my":7391,"çĽ²":7392,"çļĦå®īåħ¨æĢ§":7393,"æľºåħ³":7394,"åħ¨çĲĥèĮĥåĽ´åĨħ":7395,"åĻ¨å®ĺ":7396,"æµ·æĭĶ":7397,"å®¹åĻ¨":7398,"ä»¥ä¸ĭæĺ¯ä¸Ģä¸ª":7399,"å¦ĤæŀľæĤ¨æľīä»»ä½ķ":7400,"æµ·å²¸":7401,"è¥¿æĸ¹":7402,"ĠR":7403,"æĢĸ":7404,"åħ¶ä¸Ńä¸Ģä¸ª":7405,"èĨ³":7406,"èģĶèµĽ":7407,"æľ¨æĺŁ":7408,"APP":7409,"çĶŁäº§åĬĽ":7410,"æĪĳåĲ¬è¯´":7411,"æĻºèĥ½å®¢æľį":7412,"éĹ®çŃĶ":7413,"éĥ½éĿŀå¸¸":7414,"åı¯æĮģç»ŃçļĦ":7415,"Ġd":7416,"è§Ĩéĩİ":7417,"è¾¹ç¼ĺ":7418,"é»Ħçĵľ":7419,"æĪªæŃ¢æĹ¥æľŁ":7420,"å¼¯æĽ²":7421,"æıĲé«ĺå·¥ä½ľæķĪçİĩ":7422,"åĻªéŁ³":7423,"æĴŃæĶ¾":7424,"çıłç©ĨæľĹçİĽ":7425,"å¸®æĪĳ":7426,"å¢ŀåĬłäºĨ":7427,"æĪĳå»ºè®®":7428,"¬éĹ´":7429,"èĬ±çĶŁ":7430,"åħ¨çĲĥæ°ĶåĢĻåıĺåĮĸ":7431,"å®ŀéªĮå®¤":7432,"éļıçĿĢäººå·¥æĻºèĥ½æĬĢæľ¯çļĦ":7433,"æģĲé¾Ļ":7434,"38":7435,"ĠæķĻèĤ²":7436,"æĺ¯åŁºäºİ":7437,"åĩĨåĪĻ":7438,"é£İæł¼çļĦ":7439,"æĽ¿æį¢":7440,"è¿ĻäºĽæİªæĸ½":7441,"çĽĪåĪ©":7442,"é¥®éħĴ":7443,"æ²®":7444,"åħ³éĶ®åŃĹ":7445,"æģĲæĢĸ":7446,"åİ»ä¸ĸ":7447,"äºĶå¹´":7448,"åŁİåł¡":7449,"éĢĻåĢĭ":7450,"æĺ¯å°Ĩ":7451,"éĢīçĶ¨":7452,"æīĩ":7453,"äºĭåĬ¡":7454,"åī©ä¸ĭçļĦ":7455,"åĴĮç»Ħç»ĩ":7456,"ç·´":7457,"ï½":7458,"çļĦåŃ¦çĶŁ":7459,"un":7460,"çºµ":7461,"æ¦Ĥè¿°":7462,"æ´¾åĩºæīĢ":7463,"åĴĮèĪĴéĢĤ":7464,"ä¸ºå®¢æĪ·":7465,"å¹¶ä¸Ķåľ¨":7466,"ie":7467,"å¸Ĥåľºä»½é¢Ŀ":7468,"ä¸Ģåħ±":7469,"×Ļ":7470,"æĩīçĶ¨":7471,"ç³»çµ±":7472,"åĲĲ":7473,"åºŀ":7474,"è¯·ç»ŃåĨĻä»ĸä»¬çļĦå¯¹è¯ĿåĨħå®¹":7475,"æĿ¥åĩıå°ĳ":7476,"çŃīå¼ı":7477,"çĤ¹åĴĮ":7478,"åĮºçļĦ":7479,"ä»¥ä¸ĭæĺ¯åĩłä¸ª":7480,"åľ°çĲĥä¸ĬçļĦ":7481,"æħ¢æħ¢åľ°":7482,"æħ¢æĢ§":7483,"æĭĺ":7484,"è¿ĺæľīåħ¶ä»ĸ":7485,"AIæĬĢæľ¯çļĦ":7486,"å½¢æĪĲçļĦ":7487,"åģ¥èº«æĪ¿":7488,"éĢīæīĭ":7489,"é©»":7490,"æĺŁæĺŁ":7491,"çłĶç©¶äººåĳĺ":7492,"and":7493,"400":7494,"å¤§äºİ":7495,"é¦ĸæ¬¡":7496,"éŁ³ä¹ĲåĴĮ":7497,"åĵŃ":7498,"é¢Ĩè¢ĸ":7499,"çļĦçĹĩçĬ¶":7500,"çļĦæľīæķĪ":7501,"åĴĮä½ł":7502,"è¯ļå®ŀ":7503,"çĽ¸å¯¹è®º":7504,"å¹´èĩ³":7505,"çĿ¡è§ī":7506,"å³¡":7507,"æĸ¹ç¨ĭå¼ı":7508,"åľ¨åŃ¦ä¹ł":7509,"è®©ä»ĸ":7510,"è·³è·ĥ":7511,"ä¸Ģå±Ĥ":7512,"ç¤¼çī©":7513,"èĨ¨":7514,"æīįåįİ":7515,"åħ§":7516,"æĺ¯è°ģ":7517,"è¿Ľå£«":7518,"è®©è§Ĥä¼Ĺ":7519,"åĮĸåŃ¦çī©è´¨":7520,"é¥²":7521,"è¡Įç¨ĭ":7522,"åĪĨå¿ĥ":7523,"è¢«çĶ¨äºİ":7524,"ä¸įçĶ¨":7525,"æĤ¨åı¯ä»¥éĢļè¿ĩ":7526,"æŀģç«¯å¤©æ°Ķ":7527,"åįıåķĨ":7528,"æ¸¸æĪıçļĦ":7529,"æķ´æ´ģ":7530,"ç¥Ń":7531,"åĻ¨æĿĲ":7532,"ç¹ģèį£":7533,"é¹°":7534,"åĩıå°ĳä½¿çĶ¨":7535,"çıłç©ĨæľĹçİĽå³°":7536,"Ġåħĥ":7537,"åĽ¾è¡¨":7538,"éĴ»":7539,"åŃĹä½ĵ":7540,"åĭĩæ°ĶåĴĮ":7541,"æīĵç®Ĺ":7542,"è¢«å¹¿æ³ĽåºĶçĶ¨äºİ":7543,"çĶµæºĲ":7544,"èİ²":7545,"ç³»ç»ŁåĴĮ":7546,"ä¼ĺç¾İ":7547,"åıĳçĶŁåľ¨":7548,"çļĦåĩĨç¡®æĢ§åĴĮ":7549,"è¿ĩå¤ļçļĦ":7550,"ä½İç¢³":7551,"Ø¯":7552,"è±Ĩç±»":7553,"________":7554,"æĤ¨å¯¹":7555,"çģĮ":7556,"æĪ·å¤ĸæ´»åĬ¨":7557,"é¢ľèī²çļĦ":7558,"å¹¶åĪ¶å®ļ":7559,"å¹´åīį":7560,"å·¥ä½ľæµģç¨ĭ":7561,"èµ·äºĨ":7562,"åį¡è·¯":7563,"éĿ¢éĥ¨":7564,"å®ĥä¼ļ":7565,"é¸¡èĥ¸èĤī":7566,"çļĦç¢":7567,"åĲĦç§įåĲĦ":7568,"éĹ®åį·":7569,"å¼Ģè½¦":7570,"è¡¨è¾¾æĸ¹å¼ı":7571,"æĮīéĴ®":7572,"æľīæľºä¼ļ":7573,"å°ĨæĪĲä¸º":7574,"éŁ³ä¹ĲçļĦ":7575,"é»Ħéĩĳ":7576,"ç«Ļåľ¨":7577,"è¿Ľè¡Įè¯Ħä¼°":7578,"æīĵçł´":7579,"37":7580,"çļĦè§Ĵèī²":7581,"æĬ¥è¡¨":7582,"hone":7583,"ĠåĪĨæŀĲ":7584,"åĪĨåī²":7585,"éŃı":7586,"æ¡ĮåŃĲ":7587,"å»ī":7588,"æľŁéĻĲ":7589,"è¾ī":7590,"å±±ä¸ľ":7591,"è¿Ļæ®µå¯¹è¯ĿåĨħå®¹":7592,"Ð¼":7593,"Ġæİ§åĪ¶":7594,"ä¸»æĮģ":7595,"é¢ĸ":7596,"æĺİçĻ½äºĨ":7597,"åĴĮä»ĸçļĦ":7598,"èĩ£":7599,"çĪ±å¥½èĢħ":7600,"çħ¸çĤĴ":7601,"çļĦåĬŁèĥ½":7602,"æ³°åĽ½":7603,"éĢłåŀĭ":7604,"åıĳçİ°èĩªå·±":7605,"å»ºç«ĭèģĶç³»":7606,"éĽ¶é£Ł":7607,"æ©¡":7608,"åħ¶å®ĥ":7609,"Ġè¿Ļä¸ª":7610,"è¿½è¸ª":7611,"èĪŀåı°":7612,"çħ§æĺİ":7613,"èĢģé¼ł":7614,"åįĹçľģ":7615,"ä¸½çļĦ":7616,"ãĢĳ":7617,"å¯¼å¸Ī":7618,"67":7619,"åĴĮæĹł":7620,"ãĢĲ":7621,"ä¸Ĭæľī":7622,"èµĶåģ¿":7623,"çļĦçľŁå®ŀ":7624,"æıĲé«ĺæķĪçİĩ":7625,"åĨħåŃĺ":7626,"åģļä¸ĢäºĽ":7627,"å½¢å¼ıçļĦ":7628,"æĺİæ²»":7629,"çĶŁæĬ½":7630,"è¿ĩæķı":7631,"èĨ³é£Ł":7632,"æĿ¥è¡¨è¾¾":7633,"çľĭçĿĢ":7634,"æľĢèĳĹåĲįçļĦ":7635,"ç½Ĳ":7636,"çĶ¢åĵģ":7637,"ä»¥ä¸ĭåĩłç§į":7638,"æ¯ıä¸ªäººéĥ½æľī":7639,"äº§æĿĥ":7640,"åħ¨éº¦":7641,"æł¹æľ¬":7642,"ä¸ªäººéļĲç§ģ":7643,"ä¿ĿæĮģèº«ä½ĵåģ¥åº·":7644,"éĺŁä¼į":7645,"ç¦»åŃĲ":7646,"åĴĸåķ¡åĽł":7647,"çºłæŃ£":7648,"æĮº":7649,"å°ıçĲĥ":7650,"ä»¥ä¸ĭæĺ¯æĪĳä¸ºæĤ¨":7651,"èĩªå·±çļĦæ¢¦æĥ³":7652,"åı¦ä¸Ģç§į":7653,"Ġth":7654,"å¾Īå¤ļäºº":7655,"æĹħæ¸¸æĻ¯çĤ¹":7656,"è¿Ļä¸ªè¿ĩç¨ĭ":7657,"é£İæļ´":7658,"éĶĻè¯¯çļĦ":7659,"å·²ç»ıåľ¨":7660,"um":7661,"ĠĠĠ":7662,"é£İéĻ©ç®¡çĲĨ":7663,"æĮĩå®ļ":7664,"åĴĮä¿¡æģ¯":7665,"æĢİä¹Īæł·":7666,"æ©Ļèī²":7667,"åĴ¸":7668,"ä¿ĿæĮģåĨ·éĿĻ":7669,"åĽĽå¹´":7670,"èĮ¶åĮĻ":7671,"ä»¥è¾¾åĪ°":7672,"é©¾é©¶åĳĺ":7673,"æľĪçļĦ":7674,"æī®æ¼ĶçĿĢ":7675,"éĶĲ":7676,"éĢļå¸¸éľĢè¦ģ":7677,"çĥ¤åĪ¶":7678,"éĢ¼":7679,"éĢļé£İ":7680,"é¢ľèī²åĴĮ":7681,"æıĲäº¤":7682,"2018":7683,"çļĦäººçī©":7684,"çĽ®æ¨Ļ":7685,"åģ¥åº·çĬ¶åĨµ":7686,"éĻ·åħ¥":7687,"Ñı":7688,"ä¸įåºĶè¯¥":7689,"2011":7690,"æĪ¿äº§":7691,"ä¸ŃåŃ¦":7692,"å¤´éĥ¨":7693,"çº¢éħĴ":7694,"è§Ĩè§īæķĪæŀľ":7695,"Ġw":7696,"æĹ¥åİĨ":7697,"äººä¸º":7698,"æ»¥çĶ¨":7699,"çļĦä¸Ģä¸ªéĩįè¦ģ":7700,"ĠÎ":7701,"æľīåı¯èĥ½":7702,"æĿ¥å®ĮæĪĲ":7703,"è¯Ńè¨ĢåĴĮ":7704,"çĲĲ":7705,"åİļçļĦ":7706,"çªĹæĪ·":7707,"åĩıå°ĳæ±¡æŁĵ":7708,"è¡¬":7709,"çļĦç¿":7710,"æĦŁåıĹåĪ°äºĨ":7711,"åĲ¸å¼ķäºĨ":7712,"äººä»¬åľ¨":7713,"åĲĬ":7714,"å¡«åĨĻ":7715,"å¿ĥèĤº":7716,"æ¸´æľĽ":7717,"çģŃç»Ŀ":7718,"å¤ªéĺ³èĥ½çĶµæ±ł":7719,"å°½éĩıéģ¿åħį":7720,"æ¡ĳ":7721,"çļĦæĬĢå·§":7722,"æŀľæ±ģ":7723,"æ¯ıç§į":7724,"2008":7725,"èļģ":7726,"ç§įæĹıæŃ§è§Ĩ":7727,"åĬłåħ¥ä¸ĢäºĽ":7728,"ç®Ģåįķæĺĵ":7729,"ï¼ģâĢĿ":7730,"åĻªå£°":7731,"éĿĴå°ĳå¹´":7732,"èĩªå·±çļĦæĥħç»ª":7733,"çº§åĪ«":7734,"æ²®ä¸§":7735,"èº«ä½ĵçĬ¶åĨµ":7736,"ä¸įå¹³çŃī":7737,"å¤±æľĽ":7738,"èĩªä¿¡åĴĮ":7739,"åºĶæĢ¥":7740,"éĺ¿æĭī":7741,"æĸ½å·¥":7742,"æīĢå¾Ĺ":7743,"æ±Ĥè§£":7744,"å¥½åıĭ":7745,"èĨ¨èĥĢ":7746,"å±±åĮº":7747,"ç§ĳæĬĢåĪĽæĸ°":7748,"åľ¨åĮ»çĸĹé¢ĨåŁŁ":7749,"å¿ħéľĢ":7750,"å»ºäºİ":7751,"çĶ»ä½ľ":7752,"æľĢä¸º":7753,"éĥ½è¦ģ":7754,"éĺ²å¾¡":7755,"è®©äººæĦŁåĪ°":7756,"æĺ¯ä¸ĸçķĮä¸ĬæľĢ":7757,"ç²¾åº¦":7758,"æ´ĹåĩĢ":7759,"ç»´çĶŁç´łåĴĮ":7760,"åĪĨåĪ«æĺ¯":7761,"åĲ¸çĥŁ":7762,"åı¯ä»¥ä¿ĥè¿Ľ":7763,"ç¥ŀè¯Ŀ":7764,"æ²¿çĿĢ":7765,"ç¾½æ¯Ľ":7766,"åĴĮåİĨåı²":7767,"éķ·":7768,"ç²ĺ":7769,"è¾ĥå°ı":7770,"åĪĳäºĭ":7771,"åķĨå®¶":7772,"%ï¼Į":7773,"è®¤è¯ģ":7774,"æīĵåį°":7775,"æĪĳä»¬å¯¹":7776,"å¤§æĪĺ":7777,"æĻ¯è±¡":7778,"ç¤ºä¾ĭ":7779,"åĳ¨è¾¹":7780,"å°ıæĺİæīĭ":7781,"çĮªèĤī":7782,"å½Ĵçº³":7783,"èĤĮèĤ¤":7784,"èŁ":7785,"å½±åĵįåĪ°":7786,"åĩłä½ķ":7787,"æ¦ľ":7788,"éĺ¿å°Ķ":7789,"å¥Ī":7790,"çŃ¹":7791,"Ġf":7792,"æĸĩæľ¬è¿Ľè¡Į":7793,"å®¶åºŃçļĦ":7794,"æĪ¿åŃĲ":7795,"å¸¸çĶ¨":7796,"äº²åŃĲ":7797,"çº¿çļĦ":7798,"æĮ¤":7799,"è½®èĥİ":7800,"åħ¹":7801,"çĪĨåıĳ":7802,"åįĪé¤Ĳ":7803,"ĠæĶ¶éĽĨ":7804,"çĥŃæ°´":7805,"è©¦":7806,"çĶŁçļĦ":7807,"è¿Ļåı¯èĥ½ä¼ļå¯¼èĩ´":7808,"çļĦåĽłç´ł":7809,"çļĦçģ¯":7810,"åı¯ä»¥å¢ŀå¼º":7811,"æ¯Ľåıĳ":7812,"æĹ¶æľŁçļĦ":7813,"å¸ĤåľºéľĢæ±Ĥ":7814,"èħĮåĪ¶":7815,"Ġè®¡ç®Ĺ":7816,"çļĦåı¥åŃĲ":7817,"åĽłæŃ¤éľĢè¦ģ":7818,"çļĦçĥ¹":7819,"å¼·":7820,"ä¼¸å±ķ":7821,"os":7822,"ä»¥äºĨè§£":7823,"å¤ĸæĺŁ":7824,"åĢºåĬ¡":7825,"Ġæ¨¡åŀĭ":7826,"ä»¥ä¿Ŀè¯ģ":7827,"ç§ĳåŃ¦çłĶç©¶":7828,"çĶŁäº§åĴĮ":7829,"åıĬæĹ¶åıĳçİ°":7830,"ä¸¤äººçļĦ":7831,"ä»»åĬ¡åĴĮ":7832,"åĲĪå¹¶":7833,"é£İéĻ©æī¿åıĹèĥ½åĬĽ":7834,"è®¾è®¡çļĦ":7835,"æ·±åħ¥äºĨè§£":7836,"ä¹ĺä»¥":7837,"éī´åĪ«":7838,"æĻĭåįĩ":7839,"çĥŃå¸¦":7840,"ä½ľçī©":7841,"å±¿":7842,"åĲĮä¹īè¯į":7843,"æĦŁæģ©":7844,"Ġå°ı":7845,"åĶ®åĲİæľįåĬ¡":7846,"æī¶":7847,"é«ĺåĵģè´¨":7848,"åĲĪä½ľä¼Ļä¼´":7849,"çĶ¨é¤Ĳ":7850,"åģļåĪ°":7851,"ä¿ĿæĬ¤åĴĮ":7852,"æĪıåī§":7853,"äºĮå¹´":7854,"ç¬¼":7855,"å¦ĻçļĦ":7856,"æ¾³å¤§åĪ©":7857,"isa":7858,"ç¼ĸåĨĻä¸Ģä¸ª":7859,"æĺ¯å¾Ī":7860,"æĹłäººæľº":7861,"æĥĬåĸľ":7862,"ike":7863,"å®ŀä¹ł":7864,"æĿĤå¿Ĺ":7865,"å»ºè®®åĴĮ":7866,"åĴĮæµ·":7867,"æķĪçİĩåĴĮåĩĨç¡®æĢ§":7868,"äººå·¥æĻºèĥ½å°Ĩä¼ļ":7869,"éĶĭ":7870,"å¯¹ä»¥ä¸ĭ":7871,"èĻļåģĩ":7872,"çĭĲçĭ¸":7873,"èĥ½åĲ¦":7874,"é¤ĲåİħçļĦ":7875,"ä¸İå®¢æĪ·":7876,"çļĦéĩįè¦ģåĽłç´ł":7877,"åŁºç¡Ģè®¾æĸ½":7878,"åĬ¨çī©çļĦ":7879,"çİĭæĺŁ":7880,"ç¡¬ä»¶":7881,"å¦Ĥä½ķä½¿çĶ¨":7882,"æľ¨æĿĲ":7883,"è·³èĪŀ":7884,"log":7885,"æľīåºı":7886,"...":7887,"æľīæĽ´å¤ļçļĦ":7888,"ob":7889,"Ġ200":7890,"é²ľèī³":7891,"æĪĳä»¬åħ¬åı¸":7892,"èĩªèº«çļĦ":7893,"èĵĿèī²çļĦ":7894,"ä¸įæĸŃæıĲé«ĺ":7895,"æ»¡æĦıåº¦åĴĮ":7896,"æľīä¸Ģå®ļçļĦ":7897,"ç®ĢåĮĸ":7898,"ä¸»è¦ģæĺ¯":7899,"è¯ŀ":7900,"é©Ĺ":7901,"æĽ´å¿«éĢŁ":7902,"åĲģ":7903,"ä»¥ä¸ĭæĺ¯ä¸Ģæ®µ":7904,"å¹²é¢Ħ":7905,"ÛĮ":7906,"éĥ½å¾Ī":7907,"ç¨ĭåº¦ä¸Ĭ":7908,"ol":7909,"ä½łæľīä»Ģä¹Ī":7910,"éĿĴå¹´":7911,"è©²":7912,"ä¹Ĳè§Ĥ":7913,"åĬłéĢŁåº¦":7914,"æīĭæĮĩ":7915,"äºļé©¬":7916,"çĽ®æłĩæĺ¯":7917,"æĭ³":7918,"åīĬ":7919,"çļĦç¤¼":7920,"é¢Ĩå¯¼èĢħ":7921,"åı¯ä»¥è¿Ľè¡Į":7922,"ç®Ģä»ĭ":7923,"he":7924,"æĪĲä¸ºä¸ĢåĲį":7925,"åĪĽéĢłåĬĽåĴĮ":7926,"ä½įæķ°":7927,"èĩ³ä»Ĭ":7928,"èĩªæ²»":7929,"è«ĭ":7930,"iPhone":7931,"åģıå·®":7932,"åĲĪä½ľåĴĮ":7933,"åĨľæĿĳ":7934,"åĵĪå¸Į":7935,"è¿ĺåľ¨":7936,"åīįæĿ¥":7937,"éħįæĸ¹":7938,"å¾®ä¿¡":7939,"ig":7940,"ç¤¾äº¤åªĴä½ĵå¹³åı°":7941,"äºĨè§£åĪ°":7942,"çºłçº·":7943,"éĩĮæľī":7944,"è¾ħå¯¼":7945,"å°ıéķĩ":7946,"ä¸ŃåĽ½ä¼łç»Ł":7947,"å¥½å¥½":7948,"åĪĹè½¦":7949,"åįıåĲĮ":7950,"èģĮä¸ļçĶŁæ¶¯":7951,"ä¾µçĬ¯":7952,"æģĭçĪ±":7953,"åı¯ä»¥å¸®åĬ©æĤ¨æĽ´å¥½åľ°":7954,"åİĭç¼©":7955,"çļĦçĮ«":7956,"çĹħæĥħ":7957,"èĥľåľ°":7958,"æ¾³å¤§åĪ©äºļ":7959,"åħ³çĪ±":7960,"æĶ¿åºľåºĶè¯¥":7961,"èµŀæī¬":7962,"ä½łè§īå¾Ĺ":7963,"æ¸Ĳæ¸Ĳ":7964,"æĥħæĦŁåĪĨç±»":7965,"æĦŁåĬ¨":7966,"ä¸»é¢ĺçļĦ":7967,"å±ķçİ°åĩº":7968,"è§£è¯»":7969,"120":7970,"éĥ½èĥ½å¤Ł":7971,"ä¿¡ä»»åĴĮ":7972,"éŁ³é¢ĳ":7973,"çĶŁæĪĲä¸Ģä»½":7974,"è¿ĲåĬ¨åĴĮ":7975,"å¤±èĲ½":7976,"ç±»åŀĭåĴĮ":7977,"Alex":7978,"çľŁæĺ¯":7979,"åĪĨéħįç»Ļ":7980,"äºļé©¬éĢĬ":7981,"çļĦè´¨éĩıåĴĮ":7982,"æ¸¸è§Ī":7983,"æ¯Ķåĸ»":7984,"ä¿ĥè¿ĽäºĨ":7985,"ä¿¯":7986,"å¾Īå®¹æĺĵ":7987,"æĮĩæĮ¥":7988,"åĦª":7989,"ä½łæľī":7990,"è¦ģç´ł":7991,"ä¸°å¯Įå¤ļå½©":7992,"çłį":7993,"æĿĳåºĦ":7994,"éª¨éª":7995,"è±«":7996,"åĽ¢ç»ĵ":7997,"åľ¨æķĻèĤ²":7998,"è¯¥æĸĩæľ¬":7999,"å®ŀéĻħåºĶçĶ¨ä¸Ń":8000,"åħīçħ§":8001,"æĥ³è±¡åĬĽ":8002,"çľĭæ³ķ":8003,"åħ¬åħ±äº¤éĢļå·¥åħ·":8004,"åĽ½å®¶çļĦ":8005,"åĪ¹":8006,"çļĦçª":8007,"æ¨¡æĭŁäººç±»":8008,"åĪ«äººçļĦ":8009,"è®Ĭ":8010,"ä¸įæĸŃåŃ¦ä¹łåĴĮ":8011,"åĴĮæĻºèĥ½":8012,"æīįèĥ½å¤Ł":8013,"éĴĵ":8014,"åĻ¨çļĦ":8015,"éĹ°":8016,"åħ¥ä¾µ":8017,"åĶĲæľĿ":8018,"åħ¬å®īå±Ģ":8019,"è¿ĩç¨ĭä¸ŃçļĦ":8020,"çļĦçĽ®çļĦ":8021,"åĴĮèĩªçĦ¶":8022,"ç»Ĩèħ»":8023,"è¿Ļç§įæĬĢæľ¯":8024,"éª¨éª¼":8025,"ä¸Ńå¼ı":8026,"çĪ¸çĪ¸":8027,"æĮ¡":8028,"æħ®":8029,"æĥħåĨµåĴĮ":8030,"åĲŀ":8031,"æ´Ĵ":8032,"è¡Ģç³ĸ":8033,"æĦıå¿Ĺ":8034,"éľĢè¦ģå¸®åĬ©":8035,"ä½Ĩæĺ¯æĪĳ":8036,"èĤ¾":8037,"æľĢæĹ©":8038,"æĢ»åħ±":8039,"å®īåħ¨æĢ§åĴĮ":8040,"è¿ľç¦»":8041,"å¼¥":8042,"éĢļå¸¸çĶ±":8043,"ĠW":8044,"å¤±åİ»äºĨ":8045,"ä¸ĸçķĮä¸Ń":8046,"å¤§æķ°æį®åĪĨæŀĲ":8047,"å°ĨåĨĽ":8048,"è¯ķè¯ķ":8049,"åģļåĩºäºĨ":8050,"çļĦä½ľåĵģ":8051,"å¤¸":8052,"éĢļå¸¸çĶ¨äºİ":8053,"å¡ĺ":8054,"èĬĤçº¦èĥ½æºĲ":8055,"è°ĵè¯Ń":8056,"è®©åŃ¦çĶŁ":8057,"å¹´åº¦":8058,"è§ģåĪ°":8059,"æ¸Ķ":8060,"æŀģåħ¶":8061,"ä»ĺæ¬¾":8062,"åĨħåľ¨":8063,"è®©è®¡ç®Ĺæľº":8064,"èīºæľ¯å½¢å¼ı":8065,"åľ¨è¿ĻäºĽ":8066,"è¿Ľè¡Įæ¯Ķè¾ĥ":8067,"çĸ¾":8068,"åģļçļĦ":8069,"å¹¶æıĲåĩº":8070,"è¯¾åłĤ":8071,"æ¬¢ä¹Ĳ":8072,"èĩªä¿¡å¿ĥ":8073,"åĬŀæ³ķ":8074,"æįķæįī":8075,"æĹ¥åŃĲ":8076,"èº²":8077,"ä¿±ä¹Ĳ":8078,"éħĴç²¾":8079,"ç¢±":8080,"é¦ĸåħĪéľĢè¦ģ":8081,"çļĦå¥½å¤Ħ":8082,"æĶ¶èİ·":8083,"éłĲ":8084,"é£İéĻ©åĴĮ":8085,"å¥ĩæķ°":8086,"åĴĮæĬĢå·§":8087,"è±¹":8088,"àµ":8089,"å±¥":8090,"æ¯Ķçī¹":8091,"æİ¥åĪ°":8092,"ç®ĢçŁŃçļĦ":8093,"åŁºäºİä»¥ä¸Ĭè¿Ļæ®µæĸĩæľ¬":8094,"å°Ĩç»§ç»Ń":8095,"æĳĦåĥıå¤´":8096,"äº§åĵģè´¨éĩı":8097,"å®īåħ¨éĹ®é¢ĺ":8098,"æĶ¹ä¸º":8099,"ä¿±ä¹Ĳéĥ¨":8100,"åĲ¬åĬĽ":8101,"æ¯¯":8102,"å®ĥèĥ½å¤Ł":8103,"åį§å®¤":8104,"é£İåĳ³":8105,"æ¸ħæ°´":8106,"é²¸é±¼":8107,"åıĥ":8108,"å®¶ä¹¡":8109,"è¥¿åħ°":8110,"èĩ³åħ³éĩįè¦ģçļĦ":8111,"æŃ£ä¹ī":8112,"å¯¹è¯Ŀä¸Ń":8113,"çĶº":8114,"çĶŁå¹³":8115,"çļĦçľ¼çĿĽ":8116,"éļ¾å¿ĺçļĦ":8117,"éĥ¨ä»¶":8118,"æīŃ":8119,"åĩºç§Ł":8120,"ä¹Łä¸º":8121,"çĤĸ":8122,"å¹¶åĩıå°ĳ":8123,"åħĥéĴ±":8124,"å¤ªéĺ³ç³»ä¸Ń":8125,"è¿Ļå¹ħ":8126,"åĿļæĮģä¸įæĩĪ":8127,"åĩºåı£":8128,"çĳļ":8129,"å¯¹æĬĹ":8130,"Ġä¸ªæĢ§åĮĸ":8131,"åı¯ä»¥åºĶçĶ¨äºİ":8132,"Sara":8133,"èĮ«":8134,"è¥¿çĵľ":8135,"çĶµåŃĲè®¾å¤ĩ":8136,"æ·Ģç²ī":8137,"çļĦçĳ":8138,"åºŁçī©":8139,"åħ¬åı¸åľ¨":8140,"39":8141,"Ġæ°´":8142,"åŁİå¸Ĥè§ĦåĪĴ":8143,"æĿİçĻ½":8144,"çĳŁ":8145,"è¶ĬæĿ¥è¶Ĭå¹¿æ³Ľ":8146,"åĨ»":8147,"ä¹ĭä¸ĭ":8148,"æĥĬåı¹":8149,"åı£ç¢ĳ":8150,"æİ¢ç´¢åĴĮ":8151,"éĽĨä¸Ńç²¾åĬĽ":8152,"ä¸įä¹ħ":8153,"èıł":8154,"åħ±åĲĮçĤ¹":8155,"æµĵåº¦":8156,"ĠF":8157,"å®ĮæĪĲäºĨ":8158,"æĬ¬":8159,"åĦĴ":8160,"æ°£":8161,"ä¸İåĲĮäºĭ":8162,"åıįå¤į":8163,"åħīåĲĪ":8164,"åį¡è·¯éĩĮ":8165,"ç¥¥":8166,"åĳ¼åĲģ":8167,"çĸĹæ³ķ":8168,"éĿĴæ¤Ĵ":8169,"ä¹Łæ²¡æľī":8170,"çĭ¬èĩª":8171,"Lisa":8172,"åĨ²åĩ»":8173,"çĢ":8174,"åĪ°æĿ¥":8175,"æģ¨":8176,"ç²¾èĩ´":8177,"çļĦç¼ĸ":8178,"å¦Ĥæŀľæľī":8179,"ç¤¼ä»ª":8180,"äºĭå®ŀä¸Ĭ":8181,"åĤ¬":8182,"åıĳæİĺ":8183,"æľªæĿ¥çļĦåıĳå±ķ":8184,"åĩĨç¡®çİĩ":8185,"å¸®åĬ©åŃ¦çĶŁ":8186,"æĳĦæ°ı":8187,"åģļåĩºåĨ³çŃĸ":8188,"æ¢³":8189,"ä¸Ģç¯ĩæĸĩç«ł":8190,"æģ¼":8191,"ç³ĸåĪĨ":8192,"iv":8193,"å»ºæ¨¡":8194,"å¦ĤæŀľéľĢè¦ģ":8195,"èĥ½å¤Łå¸®åĬ©æĤ¨":8196,"çļĦåħĥç´ł":8197,"è¿ĩæĭŁåĲĪ":8198,"çīĽä»Ķ":8199,"è¿ĺæ²¡æľī":8200,"ä»¥ä¸ĭæĺ¯ä¸ĢäºĽåı¯èĥ½çļĦ":8201,"å¾ĴæŃ¥":8202,"çļĦæĿĲæĸĻ":8203,"åľ¨å¼Ģå§ĭ":8204,"æĴ¤":8205,"åıĻè¿°":8206,"æĺ¯åħ³äºİ":8207,"åĹ¨":8208,"è¯Ńåı¥":8209,"è§ĴèĲ½":8210,"æİĮæİ§":8211,"åĻ¨åĴĮ":8212,"2017":8213,"åĸľæ¬¢åĲĥ":8214,"åĩºåİ»":8215,"åĤ³":8216,"é²ľç¾İ":8217,"åįłæį®":8218,"æ¼Ĩ":8219,"èµİ":8220,"å°ıåĮº":8221,"Ġé¼ĵåĬ±":8222,"æĽ´å¤§":8223,"å½±åĵįåĬĽ":8224,"åħ¬å¯ĵ":8225,"å¯»æ±Ĥä¸ĵä¸ļ":8226,"æĿī":8227,"å½»åºķ":8228,"ä¼°è®¡":8229,"èĪ°":8230,"é¬¼":8231,"ed":8232,"Ġ18":8233,"ç³»ç»Łä¸Ń":8234,"æĵļ":8235,"çļĦæķ°åŃĹ":8236,"åĪĨç¦»":8237,"ä»ħä»ħ":8238,"èĢĮéĹ»åĲį":8239,"è®©åŃ©åŃĲ":8240,"ä¿®åīª":8241,"åĵĳ":8242,"ä¸Ģä¸ªäººçļĦ":8243,"çļĦç¤¾äº¤åªĴä½ĵ":8244,"éĶ»çĤ¼èº«ä½ĵ":8245,"è¿Ńä»£":8246,"å¯Ħ":8247,"åŃŁ":8248,"èĥ½åĬĽçļĦ":8249,"å¾Ĺä»¥":8250,"éĢĤåºĶæĢ§":8251,"ï¼ļï¼Ī":8252,"è¿Ĳä½ľ":8253,"åĲĳéĩıæľº":8254,"è¯Ńè¨ĢçļĦ":8255,"éĢĢä¼ĳ":8256,"æ³¨åĨĮ":8257,"ä¸ŃçŃī":8258,"éľĢè¦ģæľī":8259,"è¯·åĳĬè¯īæĪĳ":8260,"éĢĥèĦ±":8261,"éĽķå¡ĳ":8262,"æĪĳä»¬éľĢè¦ģéĩĩåıĸ":8263,"ç»Łæ²»":8264,"åĮºåĪĨ":8265,"ç§»æ°ĳ":8266,"æ¯ıç»Ħ":8267,"èĮĤ":8268,"è£ħç½®":8269,"æķ£å°Ħ":8270,"èĥĮæĻ¯åĴĮ":8271,"æĪĳä»¬å·²ç»ı":8272,"æıĲä¾Ľå¸®åĬ©":8273,"çīĻé½¿":8274,"è´¾å®Ŀçİī":8275,"ĠåŁ¹åħ»":8276,"ä¸Ģåħ±æľī":8277,"ä¸ºæĪĳ":8278,"çļĦçĻ½":8279,"å°ĳéĩı":8280,"çļĦåĩºçİ°":8281,"å¤§éĺŁ":8282,"ä¸ĭéĽ¨":8283,"è¯Ńå¢ĥ":8284,"åĩŃ":8285,"ç©´":8286,"çļĦç³»ç»Ł":8287,"æł½":8288,"åıĭæĥħ":8289,"çĽ¸å¤Ħ":8290,"å¤įä¹ł":8291,"é²¨":8292,"èĤ¥èĥĸ":8293,"è¿ĻéľĢè¦ģ":8294,"åĮĸå¦Ĩåĵģ":8295,"éħ±æ±ģ":8296,"å»¶éķ¿":8297,"åĽ½çİĭ":8298,"è¯ĬæĸŃçĸ¾çĹħ":8299,"å·²ç»ıè¢«":8300,"çļĦçĸ¾çĹħ":8301,"æī¿è®¤":8302,"æłı":8303,"à¥į":8304,"å·¥åħ·æĿ¥":8305,"ul":8306,"éĶĻè¿ĩ":8307,"éĩĮç¨ĭ":8308,"èķ´":8309,"åģļä»Ģä¹Ī":8310,"å¯¿åı¸":8311,"ä¼Łå¤§çļĦ":8312,"å·²è¢«":8313,"å°Ĩè¿ĻäºĽ":8314,"åĴĮèĦĤèĤª":8315,"ä¾Ŀæ³ķ":8316,"åĩıå°ĳæµªè´¹":8317,"ä¹ĭä¸Ģæĺ¯":8318,"æħ¢è·ĳ":8319,"äº§çĶŁè´ŁéĿ¢å½±åĵį":8320,"éľĢè¦ģèĢĥèĻĳåĪ°":8321,"çĬ¯ç½ªå«Įçĸĳäºº":8322,"å¯ºåºĻ":8323,"å®ĥä»¬æĺ¯":8324,"å¹³åĿĩåĪĨç»Ļ":8325,"ç¤¾ä¼ļä¸Ń":8326,"åº§ä½į":8327,"ä¼´ä¾£":8328,"\":":8329,"65":8330,"è¾¾åĪ°äºĨ":8331,"åĽ°æĥĳ":8332,"æ··åĲĪåľ¨ä¸Ģèµ·":8333,"ä»ĸæĺ¯":8334,"çĤ¹çļĦ":8335,"2009":8336,"åľ°è¿Ľè¡Į":8337,"æķ¸":8338,"AIåı¯ä»¥éĢļè¿ĩ":8339,"çļĩå¸Ŀ":8340,"å¤ķ":8341,"ç¾İæĻ¯":8342,"ä¹Łå¸¦æĿ¥äºĨ":8343,"è¿Ļä¸ªäºº":8344,"åħ±åĲĮçļĦ":8345,"å°ıå¼ł":8346,"à¸Ļ":8347,"é¢ĦèŃ¦":8348,"ä¼ĺçĤ¹åĴĮ":8349,"çļĦéķ¿åº¦":8350,"æĳ©æĵ¦":8351,"ur":8352,"åįĢ":8353,"åĢĻéĢī":8354,"çº½çº¦å¸Ĥ":8355,"ç§¯åĪĨ":8356,"çļĦå¹³è¡¡":8357,"çĶµåĬ¨æ±½è½¦":8358,"å¥½æľĭåıĭ":8359,"æľĢè¿ĳçļĦ":8360,"ä¸įåĲĮç§įç±»":8361,"æŀĦéĢł":8362,"çļĦçī©åĵģ":8363,"æĽ´éĢĤåĲĪ":8364,"æ±īåł¡":8365,"é©¬æĭī":8366,"ä¸įåı¯æĪĸç¼ºçļĦä¸Ģéĥ¨åĪĨ":8367,"åĴĸåķ¡è±Ĩ":8368,"é«ĺä¸Ń":8369,"æ¶µçĽĸäºĨ":8370,"è¿Ļä¸¤":8371,"AIåĬ©æīĭ":8372,"æĥķ":8373,"ers":8374,"æĿ¥äºĨ":8375,"å°ıçĮ«":8376,"çļĦçĦ":8377,"éĽĨåĲĪ":8378,"æĶ¾æĿ¾åĴĮ":8379,"åħ¬åħĥåīį":8380,"åĬŁæķĪ":8381,"éľĢè¦ģåħ·å¤ĩ":8382,"çİ¯ä¿ĿéĹ®é¢ĺ":8383,"åŃ¦ä¹łçļĦ":8384,"å¤įåħ´":8385,"å¦»åŃĲ":8386,"å£¶":8387,"èķ¾":8388,"æĢĢçĸĳ":8389,"åİĨåı²åĴĮæĸĩåĮĸ":8390,"è¶ĬæĿ¥è¶Ĭå¤ļçļĦäºº":8391,"æĪĳæĹłæ³ķ":8392,"ç¯Ģ":8393,"æĿ¡ä»¶ä¸ĭ":8394,"çĴ°":8395,"éķ¿æľŁçļĦ":8396,"èĶ¬èıľåĴĮæ°´æŀľ":8397,"ä¸ºäººä»¬":8398,"åķĨäºº":8399,"ç»ıåİĨäºĨ":8400,"å°Ī":8401,"ä¸Ģä¸ªå°ı":8402,"çĽ¸åħ³ä¿¡æģ¯":8403,"çļĦæĥħæĦŁåĴĮ":8404,"ç¾¤ä¼Ĺ":8405,"åıĳå°Ħ":8406,"åĢ¡å¯¼":8407,"çļĦåı¯èĥ½æĢ§":8408,"æĪĳä»¬åı¯ä»¥çĶ¨":8409,"å¤ĦçĲĨåĴĮ":8410,"åĶĲä»£":8411,"æĢģåº¦åĴĮ":8412,"åĬĽéĩıè®Ńç»ĥ":8413,"èļĤ":8414,"æĹ¶éĹ´æĿ¥":8415,"çļĦä¾ĭåŃĲ":8416,"æħķ":8417,"åºķéĥ¨":8418,"è¯´æ³ķ":8419,"æµ¦":8420,"æıĲéĹ®":8421,"çļĦå»ºçŃĳ":8422,"å´©":8423,"æľīåĪ©äºİ":8424,"æľīå¤ļ":8425,"æĦŁåĨĴ":8426,"éĿŀå¸¸æĦŁè°¢æĤ¨çļĦ":8427,"æĥ³åĪ°":8428,"æł¡åĽŃ":8429,"ph":8430,"åı¯èĥ½å¯¹":8431,"å¥¹åľ¨":8432,"åĴĮæµĭè¯ķ":8433,"æĽ´åĬłé«ĺæķĪ":8434,"éĻįéĽ¨":8435,"åĴĮä»·åĢ¼":8436,"æŁı":8437,"æ¤İ":8438,"æĺ¯ä¸Ģåº§":8439,"å¿«éĢŁæİĴåºı":8440,"å¸ĺ":8441,"æĶ¹åıĺæĪĳä»¬çļĦ":8442,"çŃīçº§":8443,"ä¸ĭä¸Ģ":8444,"å¹¶å°Ŀè¯ķ":8445,"ç¼ł":8446,"å¾®æ³¢":8447,"ç´«èī²":8448,"åĪĨè§£æĪĲ":8449,"æŁ³":8450,"æŃĮæīĭ":8451,"å¤ıå¨ģ":8452,"æĢĿç»´æĸ¹å¼ı":8453,"å®¶åĴĮ":8454,"æľĢä½İ":8455,"å¼ķçĶ¨":8456,"ç»ĵæĿŁåĲİ":8457,"åįıä¼ļ":8458,"æłĳåı¶":8459,"èº«å¿ĥåģ¥åº·":8460,"Ùĩ":8461,"èıľè°±":8462,"æīĭå·¥èīºåĵģ":8463,"åĪ¶å®ļè®¡åĪĴ":8464,"èŃ¦æĥķ":8465,"æĶ¯æĮģåĲĳéĩıæľº":8466,"çĶµåŃĲäº§åĵģ":8467,"ä¼ļè¢«":8468,"çļĦç¼º":8469,"å¤ıå¨ģå¤·":8470,"çļĦèĩªçĦ¶":8471,"åıĹå®³":8472,"çļĦå¸Ĥåľº":8473,"åĮĹäº¬å¸Ĥ":8474,"åĮ»åŃ¦å½±åĥı":8475,"äººæ°ĳå¸ģ":8476,"æĶ¶èĹı":8477,"è®©è¯»èĢħ":8478,"ç¤¾äº¤æ´»åĬ¨":8479,"è®²è¿°äºĨä¸Ģä¸ª":8480,"è®©å®ĥ":8481,"æ£µ":8482,"éħ¥":8483,"éĺ²èĮĥ":8484,"å°¼åħĭ":8485,"æŁłæª¬æ±ģ":8486,"å¦®":8487,"æł¼åħ°":8488,"å¹¶çĶ¨":8489,"ä¼ŀ":8490,"ĠæĤ¨":8491,"èĢħåĴĮ":8492,"æĺ¥åŃ£":8493,"åĲ¬éŁ³ä¹Ĳ":8494,"çĨĻ":8495,"éĥ½è¢«":8496,"Ġè¿Ļ":8497,"æĪĳæŃ£åľ¨":8498,"ä¸įåıĹ":8499,"å®ŀçİ°äºĨ":8500,"åı¯ä»¥åĪĨä¸º":8501,"ä¸»æ¼Ķ":8502,"çĽ¸ç»ĵåĲĪ":8503,"éħ·":8504,"è£ħé¥°åĵģ":8505,"å¥ĩæĢª":8506,"ä¼ĺè´¨çļĦ":8507,"é¢ĨåħĪ":8508,"55":8509,"éĥ½æľīåħ¶":8510,"åĪĿæŃ¥":8511,"èĬ½":8512,"å½ĵæĤ¨":8513,"å¹³æĹ¶":8514,"äº¤éĢļè¿Ĳè¾ĵ":8515,"è®¾æľī":8516,"ç»ĵå±Ģ":8517,"èªª":8518,"èĩªçĶ±åĴĮ":8519,"é»ĳæ´ŀçļĦ":8520,"æĶ¶åĪ°":8521,"å¸ĥç½®":8522,"à¸²":8523,"è¡Įèµ°":8524,"ä½ľèĢħçļĦ":8525,"å¤§çĨĬçĮ«":8526,"åĴ³":8527,"Ġä¼ĺåĮĸ":8528,"×ķ":8529,"åħĦå¼Ł":8530,"ä¸Ľ":8531,"æ·ĺ":8532,"éģĭåĭķ":8533,"åĬłæĭ¿":8534,"çģµæ´»æĢ§":8535,"æĢ»ä½ĵæĿ¥è¯´":8536,"çī¹åĪ«çļĦ":8537,"åı¯æĺ¯":8538,"åĵ¡":8539,"å®ĥä¸įä»ħ":8540,"æĦ¤":8541,"é¢ĦæµĭåĴĮ":8542,"èļĤèļģ":8543,"ä¹¦æ³ķ":8544,"æ¸©åĴĮ":8545,"æ±Łèĭı":8546,"èĻļæĭŁçİ°å®ŀæĬĢæľ¯":8547,"ä»ĩ":8548,"ç§ĭåŃ£":8549,"çļĦé¦ĸ":8550,"è£¹":8551,"æĽĿ":8552,"è¯ķçĿĢ":8553,"ç¢Į":8554,"åħ»æĬ¤":8555,"è°·æŃĮ":8556,"çļĦç¥ŀç»ı":8557,"ä»ĸä»¬å¯¹":8558,"å·¥ä½ľä¸Ń":8559,"äººæľº":8560,"æľįåĬ¡åĴĮ":8561,"Ġå¯¹äºİ":8562,"åı¯è§£éĩĬ":8563,"ä»ĭç»įä¸Ģä¸ĭ":8564,"èªŀè¨Ģ":8565,"éĻĲäºİ":8566,"å¥³æĢ§åľ¨":8567,"äººåĬĽèµĦæºĲ":8568,"åħīçļĦ":8569,"åĩºæĿ¥çļĦ":8570,"ç¶²":8571,"æ¸©åº¦åĴĮ":8572,"çļĦçĤ¹":8573,"ä¸Ģå°ģ":8574,"æ¤ħåŃĲ":8575,"å¤ļæĸ¹éĿ¢çļĦ":8576,"åĩºä¸Ģä¸ª":8577,"ä¸Ģæĸ¹éĿ¢":8578,"éĤª":8579,"ĠãĢĤ":8580,"ä»ĸä»¬åı¯ä»¥":8581,"åİŁæĸĻ":8582,"\"ãĢĤ":8583,"ä¸Ģé¢Ĺ":8584,"èĥ½æºĲçļĦ":8585,"èĩªéĢĤåºĶ":8586,"ä¸»è¦ģåĮħæĭ¬":8587,"ç§ĳæĬĢåıĳå±ķ":8588,"çħ¤":8589,"éļıçĿĢç§ĳæĬĢçļĦ":8590,"åĪĨéĴŁçļĦ":8591,"å¼Ĥå¸¸åĢ¼":8592,"æīĭåĬ¨":8593,"åĨħå¿ĥçļĦ":8594,"éĢļè¿ĩè¿ĻäºĽ":8595,"ä¿®æŃ£":8596,"æĿ¥èĩªäºİ":8597,"çļĦè¯¦ç»Ĩ":8598,"è´ª":8599,"çİ°çĬ¶":8600,"æııè¿°ä¸Ģç§į":8601,"ç»ıæµİå¢ŀéķ¿":8602,"æ¶īå«Į":8603,"è§£æĶ¾":8604,"è±ªåįİ":8605,"åĲİä»£":8606,"è½»æĺĵ":8607,"åŃĹçļĦ":8608,"åµ":8609,"Ġì":8610,"å¾Īéĩįè¦ģ":8611,"èŃ·":8612,"çļĦæ¤įçī©":8613,"æĪĳä»¬ä¹ŁéľĢè¦ģ":8614,"å¿ĥçİĩ":8615,"åı¯èĥ½ä¼ļè¢«":8616,"ç¨İåĬ¡":8617,"æµ·æ´ĭçĶŁçī©":8618,"åı¯èĥ½ä¼ļåĩºçİ°":8619,"å¤ıæĹ¥":8620,"è¿Ļç»Ħ":8621,"çĦ¶åĲİåĨį":8622,"çªģåıĳ":8623,"åĲįè¯įçŁŃè¯Ń":8624,"åħīåĲĪä½ľçĶ¨":8625,"ãĢįï¼Į":8626,"ç©ºæ°Ķè´¨éĩı":8627,"çĽ¸éģĩ":8628,"åı¥åŃĲçļĦ":8629,"çļĦåŃ£èĬĤ":8630,"ä»ĸå¯¹":8631,"å®¾è¯Ń":8632,"æº¢":8633,"åįĬå¾Ħ":8634,"ä½ĨåĲĮæĹ¶ä¹Ł":8635,"ç»Ļèĩªå·±":8636,"å¡Į":8637,"è¶ĭåĬ¿åĴĮ":8638,"æ¸ħæľĿ":8639,"ä»²":8640,"æĽ´å¥½åľ°åºĶå¯¹":8641,"åıĳè¡Į":8642,"åĿĬ":8643,"Ø©":8644,"åī¯ä½ľçĶ¨":8645,"Ã·":8646,"Ġæ£ĢæŁ¥":8647,"å¤ļé¡¹":8648,"ä¹łä¿Ĺ":8649,"åĬłåħ¥éĢĤéĩıçļĦ":8650,"çļĦæĪĲåĬŁ":8651,"èµ´":8652,"åħ¶åľ¨":8653,"èĬ¯":8654,"ä¼¦çĲĨéĹ®é¢ĺ":8655,"Ġä¸į":8656,"å¤ļæł·åĮĸçļĦ":8657,"è§ĦåĪĻåĴĮ":8658,"çļĦçĥ¹é¥ª":8659,"æĺ¯ç¾İåĽ½":8660,"æĪĳä»¬æīįèĥ½":8661,"æĺ¯æĮĩåľ¨":8662,"Ġà¦":8663,"190":8664,"ç»ĵå©ļ":8665,"ç»Ļå®ļä¸Ģä¸ª":8666,"ä»İèĢĮå¯¼èĩ´":8667,"å®ĮæĪĲçļĦä»»åĬ¡":8668,"ä¸ºåŃ¦çĶŁ":8669,"éĥ¨ç½²":8670,"èĤ¡ç¥¨ä»·æł¼":8671,"éľĢè¦ģéĢļè¿ĩ":8672,"åħħè¶³çļĦçĿ¡çľł":8673,"æľīå¾Īå¤§çļĦ":8674,"çĪ±ä½ł":8675,"è¯±":8676,"èĤĥ":8677,"ä¸Ģè¾¹":8678,"çŃīæĸ¹æ³ķ":8679,"ä¸įæĸŃçļĦ":8680,"æŀ¯":8681,"éģĶ":8682,"ç»Ħç»ĩåĴĮ":8683,"çļĦéĥ¨åĪĨ":8684,"ç¡¬å¸ģ":8685,"è¿ĺåı¯ä»¥éĢļè¿ĩ":8686,"æĿı":8687,"ç¼´":8688,"ç»¿èī²çļĦ":8689,"....":8690,"à¥ĩ":8691,"åĨ³å¿ĥ":8692,"è§ģè§£":8693,"æĢ§éĹ®é¢ĺ":8694,"æł¹æį®æīĢ":8695,"åĽ¢ä½ĵ":8696,"ç§©":8697,"é¢ĦæĬ¥":8698,"åºŁå¼ĥçī©":8699,"æĸ½èĤ¥":8700,"çļĦçĦ¦":8701,"çĶµç£ģ":8702,"ä¸ºä¸»è¦ģ":8703,"æĹħæ¸¸çĽ®çļĦåľ°":8704,"çļĦåľºæĻ¯":8705,"ç»ĵå°¾":8706,"ang":8707,"è°ĪåĪ¤":8708,"ç»´çĶŁç´łåĴĮçŁ¿çī©è´¨":8709,"ä»¥ä¸ĭæĺ¯ä¸ĢäºĽå¸¸è§ģçļĦ":8710,"éĩĩè´Ń":8711,"äºĨè§£åĨ³":8712,"åĥ¹":8713,"å¤ļåħĥåĮĸ":8714,"å¤ªå¹³æ´ĭ":8715,"é¢Ŀå¤ĸ":8716,"åĽłæŃ¤åľ¨":8717,"Ġ50":8718,"æĢİä¹ĪåĬŀ":8719,"èĢĮè¨Ģä¹ĭ":8720,"æĻºèĥ½äº¤éĢļ":8721,"åŀĥåľ¾éĤ®ä»¶":8722,"ä¸ĢçĶŁ":8723,"æĸ¹å¼ıæĿ¥":8724,"å¸¦æĿ¥ä¸ĢäºĽ":8725,"ä¸»é¢ĺåĴĮ":8726,"æĹ¶éĹ´å¤įæĿĤåº¦":8727,"æ·±å¤Ħ":8728,"æ²»çĸĹæĸ¹æ³ķ":8729,"åĴĮæľī":8730,"å¹³åºķ":8731,"å®ĩå®Ļä¸Ń":8732,"ĠèĢĥèĻĳ":8733,"æ³¨æĦıåĪ°":8734,"éŁ³ä¹Ĳä¼ļ":8735,"èĮ¶åı¶":8736,"åı¸æ³ķ":8737,"çļĦç¾İæĻ¯":8738,"æĺ¯ä¸Ģéģĵ":8739,"æķ´åĲĪ":8740,"å¸Ĥåľºè°ĥçłĶ":8741,"æ¼«æŃ¥":8742,"èı²å°Ķ":8743,"ä¸İæŃ¤":8744,"Lily":8745,"å°ıåĲĥ":8746,"ä½łä»¬çļĦ":8747,"éĽĨä¸Ńåľ¨":8748,"æĬķç¥¨":8749,"åĨħéĥ¨çļĦ":8750,"æĺ¯ä¸ĢåĢĭ":8751,"æī¾åĪ°ä¸Ģä¸ª":8752,"ä¾¿åĪ©åĴĮ":8753,"è¾½":8754,"æ´Ĺæīĭ":8755,"Ġ`":8756,"æĻºåĬĽ":8757,"åľ¨æĹ¥å¸¸çĶŁæ´»ä¸Ń":8758,"ä¸įèµ·":8759,"è®¤åĲĮ":8760,"åŃĺæ¬¾":8761,"åı¯ä»¥éĻįä½İ":8762,"è©¹":8763,"å¥¥è¿Ĳä¼ļ":8764,"åķ¤":8765,"çļĦç«ĭ":8766,"å½ĵäºĭ":8767,"æ´»è·ĥ":8768,"Ġ25":8769,"åıĳçĶŁåıĺåĮĸ":8770,"å¤įæĿĤçļĦéĹ®é¢ĺ":8771,"å¾Īé«ĺ":8772,"Ġå®īåħ¨":8773,"çļĦæľĢä½³":8774,"æĻĵ":8775,"ä½ĵåŀĭ":8776,"æ¯Ķå¦Ĥè¯´":8777,"èº«æĿĲ":8778,"ä½Ĳ":8779,"åħ¬ä¸»":8780,"å²Ľå±¿":8781,"ä¼ĳæģ¯æĹ¶éĹ´":8782,"æĦŁè°¢æĤ¨":8783,"çļĦä¸ľè¥¿":8784,"å¯¹æľªæĿ¥":8785,"äº«åıĹåĪ°":8786,"ä¾į":8787,"æ¸Ľå°ĳ":8788,"åĨħå®¹åĴĮ":8789,"åĳ½ä»¤":8790,"à¤°":8791,"å°ıäºİ":8792,"å°ıæĺİåĴĮ":8793,"è¿ĽæĶ»":8794,"æŃ¤æ¬¡":8795,"å¸ĤåľºåĴĮ":8796,"å¸Ĥåł´":8797,"ä¸¦ä¸Ķ":8798,"æĹłå°½":8799,"ä»¥ä¿ĿæĬ¤":8800,"æ¸Ĺ":8801,"èĩªå·±åĸľæ¬¢çļĦ":8802,"å¥¹ä»¬":8803,"åħįåıĹ":8804,"æĿ¯åŃĲ":8805,"è¿ĻéĩĮçļĦ":8806,"çļĦçŁŃæĸĩ":8807,"ä½łåºĶè¯¥":8808,"çļĦå®¶åºŃ":8809,"å¹´éĹ´":8810,"àª":8811,"æ¯ıæĹ¥":8812,"çĶ»å®¶":8813,"æİ¨èįĲç³»ç»Ł":8814,"æŃ£åĪĻ":8815,"çļĦæķĪçİĩ":8816,"èĭ±å¯¸":8817,"åľ¨æŁĲäºĽæĥħåĨµä¸ĭ":8818,"è¿ĻæĹ¶":8819,"ï¼ī<|":8820,"èĩªçĦ¶èµĦæºĲ":8821,"å¿Ļç¢Į":8822,"å§ľèĴľ":8823,"æµ·æĬ¥":8824,"éĵ¾æİ¥":8825,"è¯Ńæ³ķåĴĮ":8826,"åĢ¾åĲĳäºİ":8827,"éĿĴæĺ¥":8828,"èµ¢å¾ĹäºĨ":8829,"ä¸İæĤ¨":8830,"çº¿è·¯":8831,"æĬĵä½ı":8832,"çĽĲåĴĮé»ĳèĥ¡æ¤Ĵ":8833,"èĻķçĲĨ":8834,"å»ºç«ĭäºĨ":8835,"åıĳèĤ²":8836,"æĪĳä»¬çĽ¸ä¿¡":8837,"å®¡æł¸":8838,"æĶ¯æĮģåĴĮå¸®åĬ©":8839,"å¢¨è¥¿":8840,"ç¬¬äºĶ":8841,"åħħåĪĨåĪ©çĶ¨":8842,"ä¾¯":8843,"ä¸īè§Ĵå½¢":8844,"åı¯åĽŀæĶ¶":8845,"æ¸©æŁĶ":8846,"åľ°çĲĨä½įç½®":8847,"çļĦæĸ¹åĲĳ":8848,"åıĸå¾ĹæĪĲåĬŁ":8849,"åĪ¶éĢłåķĨ":8850,"ç¤ģ":8851,"èĭıèģĶ":8852,"çīĽæİĴ":8853,"çĲĨæĢ§":8854,"è¡Įä¸ºçļĦ":8855,"ĠéĢļè¿ĩ":8856,"åħ¬è½¬":8857,"åħĥç´łçļĦ":8858,"ä¸»æķĻ":8859,"äºĭä»¶çļĦ":8860,"æĿŃ":8861,"æŀĹé»Ľçİī":8862,"gle":8863,"à¸£":8864,"æ¯ıä¸ªä»»åĬ¡":8865,"ä½ĵéªĮåĴĮ":8866,"åĪ©æģ¯":8867,"æĺ¯ä¸Ģç§įåŁºäºİ":8868,"åĽłç´łçļĦå½±åĵį":8869,"çļĦç¨İ":8870,"åľ¨æľªæĿ¥çļĦ":8871,"æĽ´å¤ļåľ°":8872,"å·®è·Ŀ":8873,"Mary":8874,"å®¢æĪ·åıįé¦Ī":8875,"èĥ¡æ¤Ĵç²ī":8876,"æľĿé²ľ":8877,"äººèĦ¸è¯ĨåĪ«":8878,"åŃ¦ä½į":8879,"æ°ĳéĹ´":8880,"åĲĥäºĨ":8881,"åĢŁåĬ©":8882,"ä¸įåıĺ":8883,"è¡¨éĿ¢çļĦ":8884,"æł¹æĵļ":8885,"æĹłéľĢ":8886,"å¹¶ç¡®å®ļ":8887,"åĴĮä»·åĢ¼è§Ĥ":8888,"å®¹éĩı":8889,"è¡£çī©":8890,"180":8891,"èµ·åĪ°":8892,"éĵ¶æ²³":8893,"åķ¤éħĴ":8894,"åĴĮäºº":8895,"å¸ĮæľĽèĥ½":8896,"çļĦåŁºç¡Ģä¸Ĭ":8897,"à¯":8898,"çļĦåĪ¶ä½ľ":8899,"ç¿ł":8900,"å·¥ä½ľäººåĳĺ":8901,"å¹¸ç¦ıæĦŁ":8902,"æĢ¨":8903,"æĬ¼":8904,"å¢¨è¥¿åĵ¥":8905,"å°İ":8906,"åľ°æĿ¿":8907,"éļıæĦı":8908,"æİ§åĪ¶åĴĮ":8909,"æĦŁåıĹåĴĮ":8910,"å¹¿å·ŀ":8911,"æĺ¯åĲ¦åŃĺåľ¨":8912,"çħ®æ²¸":8913,"çī¢":8914,"æ¨±":8915,"ä¸ĢäºĽåħ³äºİ":8916,"çļĦç¬Ķ":8917,"ç§ĳæĻ®æĸĩç«ł":8918,"od":8919,"ä¸īæĺİæ²»":8920,"è§£æ±º":8921,"èµĽäºĭ":8922,"åĬ¨æ¤įçī©":8923,"éĿŀå¸¸å¥½çļĦ":8924,"éļĶç¦»":8925,"Ø³":8926,"è¿ĳæľŁ":8927,"çİ¯ä¿Ŀè¡ĮåĬ¨":8928,"ä¸¤äººçļĦå¯¹è¯ĿåĨħå®¹":8929,"ä½łæľĢè¿ĳ":8930,"ç¿ħèĨĢ":8931,"è¦ģçĤ¹":8932,"éľĢè¦ģå°Ĩ":8933,"çļĦçİ¯å¢ĥä¸Ń":8934,"è¿Ļä»¶":8935,"åį¡çīĩ":8936,"åľ¨éĤ£éĩĮ":8937,"è½¿":8938,"æŀľå®ŀ":8939,"æĿĥéĩį":8940,"Ø¨":8941,"89":8942,"åĮ»çĶŁçļĦ":8943,"å¦Ĥæŀľä½łæĥ³":8944,"æĸĩåĮĸåĴĮåİĨåı²":8945,"æĹłäººé©¾é©¶":8946,"Ñĭ":8947,"åĲİç»Ń":8948,"åĸī":8949,"åĩłå¤©":8950,"æ²»çĸĹæķĪæŀľ":8951,"ä¸ªæ©ĻåŃĲ":8952,"è¢«åĽ°":8953,"å±Ī":8954,"å¸¦é¢Ĩ":8955,"ä»İèĢĮä½¿":8956,"èĢģèĻİ":8957,"ä»¥ä¸ĭæĺ¯ä¸Ģæ®µä¸¤äººçļĦå¯¹è¯ĿåĨħå®¹":8958,"ç§¯æŀģçļĦå¿ĥæĢģ":8959,"èĴĻåı¤":8960,"å¼¹æĢ§":8961,"éĺ²æĬ¤":8962,"é¢¨éļª":8963,"ç«ĭæĸ¹":8964,"éĥ½å¸Ĥ":8965,"çļĦç®Ĺæ³ķ":8966,"æĭ¯":8967,"åĩıå°ĳå¯¹":8968,"ion":8969,"ç¼ĸåĨĻä¸Ģç¯ĩ":8970,"ä½ıå®ħ":8971,"çļĦæľĭåıĭ":8972,"å½ĵå¤©":8973,"çľĭå¾ħ":8974,"è¿ĺå°Ĩ":8975,"èµ·çĤ¹":8976,"Ġä¸Ń":8977,"æķĻè®Ń":8978,"è´ŁåĢº":8979,"åı¯ä»¥éĩĩåıĸ":8980,"è§Ĥèµı":8981,"èĢ³æľµ":8982,"æĻºèĥ½æīĭè¡¨":8983,"æ¸ħçĪ½":8984,"ï¼ļ'":8985,"éĺ²æĻĴ":8986,"çŁŃæļĤ":8987,"çİ°ä»£ç¤¾ä¼ļä¸Ń":8988,"åĤ²":8989,"èĨı":8990,"ä»İæľª":8991,"çº¢çĥ§èĤī":8992,"ĠE":8993,"æĿ¥éĢīæĭ©":8994,"ä½ıæĪ¿":8995,"æİ¨åĬ¨äºĨ":8996,"å¸ĮæľĽèĥ½å¤Ł":8997,"å¥¥æĸ¯":8998,"çŀ¬éĹ´":8999,"å§ĳ":9000,"çī©ä½ĵçļĦ":9001,"æįŁä¼¤":9002,"éĢıæĺİåº¦":9003,"ä¾ĭå¦Ĥä½¿çĶ¨":9004,"æĬĵèİ·":9005,"éĩĳéĴ±":9006,"æĿ¿åĿĹ":9007,"åįļå£«":9008,"åİĨåı²åĴĮ":9009,"è¿Ļå¯¹":9010,"æĿ¥è¯Ħä¼°":9011,"å½ĵæĪĳ":9012,"çļĦè¦ģæ±Ĥ":9013,"ç¥Ŀç¦ı":9014,"åįķçĭ¬":9015,"ä¸Ģæ®µæĹ¶éĹ´":9016,"ä¸įåľ¨":9017,"Ġ16":9018,"çŁ©éĺµ":9019,"æķĳèµİ":9020,"æĲ¬":9021,"ä½ľä¸ºä¸Ģç§į":9022,"æĬ±æŃī":9023,"ä½łè¦ģ":9024,"èµĦæľ¬":9025,"å°¾å·´":9026,"è¿Ļåı¯ä»¥å¸®åĬ©ä½ł":9027,"çŃīæ´»åĬ¨":9028,"Ġè¿Ľè¡Į":9029,"ä»¥å¢ŀåĬł":9030,"éĿ¢æĸĻ":9031,"æ²«":9032,"åĲµ":9033,"ä¸įç¨³å®ļ":9034,"åħĥå¹´":9035,"å·´è¥¿":9036,"ä¾ĿéĿł":9037,"èĲ¥åħ»çī©è´¨":9038,"è®©æĪĳä»¬ä¸Ģèµ·":9039,"å¹¶éģ¿åħį":9040,"ä¸įå¦Ĥ":9041,"å¿ĥéĩĮ":9042,"æ¿ĢåĬ¨":9043,"åįĥåħĭ":9044,"ç¼ºå¤±åĢ¼":9045,"ä¸ĢæĶ¯":9046,"åĮ¿":9047,"åĶ¤":9048,"åıĳéħµ":9049,"AIæĬĢæľ¯çļĦåıĳå±ķ":9050,"ä¼ļäº§çĶŁ":9051,"æ³ģ":9052,"Ġè®¾å®ļ":9053,"æ¯ıæľĪ":9054,"ä¸įç®¡":9055,"åĪĬ":9056,"å¡ĳæĸĻåĪ¶åĵģ":9057,"æ¹¿æ¶¦":9058,"åĩłåįģå¹´":9059,"æļ´éľ²":9060,"æ½ľåľ¨å®¢æĪ·":9061,"åıĶ":9062,"æģ¤":9063,"åĽ¢éĺŁåįıä½ľ":9064,"è©ķ":9065,"äº¤èŃ¦":9066,"è¿½éĢĲ":9067,"ĠN":9068,"åĪ¥":9069,"ä¹ĲæĦı":9070,"éĹ®é¢ĺæĹ¶":9071,"åĮ»çĸĹæľºæŀĦ":9072,"æī§æ³ķ":9073,"æĭ¯æķĳ":9074,"æĪĲäºĨ":9075,"çĿ¡çľłè´¨éĩı":9076,"è´º":9077,"å®ŀåĬĽ":9078,"æľīåĬ©äºİæıĲé«ĺ":9079,"çļĦæĶ¯æĮģ":9080,"éĺħè¯»çĲĨè§£":9081,"åĬ²":9082,"çķı":9083,"æ¨¡ç³Ĭ":9084,"çļĦæĳĦåħ¥éĩı":9085,"çļĦåĩĨç¡®æĢ§":9086,"è£¡":9087,"çĦĻ":9088,"çĤİçĥŃ":9089,"çļĦè·Ŀç¦»":9090,"ä¸įåĲĮæĸĩåĮĸ":9091,"åĲĦç§įåĲĦæł·çļĦ":9092,"æľºåĻ¨åŃ¦ä¹łæ¨¡åŀĭ":9093,"ä»¥ä¸ĭæĺ¯ä¸ĢäºĽæĸ¹æ³ķ":9094,"çĹħäººçļĦ":9095,"æĪĲä¸Ģä¸ª":9096,"çļĦæīĢæľī":9097,"æł¹æį®æıĲä¾ĽçļĦ":9098,"ä»¥ä¸ĭæĺ¯ä¸ĢäºĽä¾ĭåŃĲ":9099,"çŃĸåĪĴ":9100,"éĹ¨åı£":9101,"éľĢè¦ģç»¼åĲĪèĢĥèĻĳ":9102,"æ´»åĬĽåĴĮ":9103,"æľīæľĽ":9104,"åŃ¦ä¹łå¦Ĥä½ķ":9105,"æĹ¥åľ¨":9106,"æ¼ĶåĶ±":9107,"æ°ĶçĲĥ":9108,"èĲ§":9109,"å½¢æĪĲä¸Ģä¸ª":9110,"æ´Ĺè¡£æľº":9111,"çİ°ä»£åĮĸ":9112,"èĹĿ":9113,"è´§çī©":9114,"ç§©åºı":9115,"ĠçłĶç©¶":9116,"Î±":9117,"åĴ¬":9118,"çļĦé«ĺåº¦":9119,"å¢Ļå£ģ":9120,"å¤§ä¼Ĺ":9121,"åıĮæīĭ":9122,"oogle":9123,"ä¸ºä»ĸä»¬":9124,"çļĦäººåĳĺ":9125,"çļĦä¸įæĸŃ":9126,"ä½Ĩæĺ¯åľ¨":9127,"çĶ¨æĪ·åı¯ä»¥":9128,"çģ¾éļ¾":9129,"æ±īè¯Ń":9130,"æľĢå¤§åĮĸ":9131,"éĻĦè¿ĳçļĦ":9132,"å¹¶éĿŀ":9133,"è¨Ńè¨Ī":9134,"åĬĥ":9135,"æĿĥéĻĲ":9136,"ä¹ĺæ³ķ":9137,"å¤´çĹĽ":9138,"ä¸įçŁ¥":9139,"Ġè¿ĲåĬ¨":9140,"è¿Ļæł·æīįèĥ½":9141,"å±ĢéĻĲæĢ§":9142,"éĥ¨åĴĮ":9143,"åĽ°æī°":9144,"åĪ¹è½¦":9145,"æĹ©æĻ¨":9146,"çļĨ":9147,"åĩıæİĴ":9148,"æĹłæķ°":9149,"è¿ĽåĪ¶":9150,"èĲ¥åħ»æĪĲåĪĨ":9151,"ä»¥éĺ²æŃ¢":9152,"æĪĳæĿ¥":9153,"å¹¶ä¸įèĥ½":9154,"ä¸įä»ħæĺ¯":9155,"æĿĥåĪ©åĴĮ":9156,"çİ°åľ¨çļĦ":9157,"åıĺå½¢":9158,"èĸªèµĦ":9159,"åŃĿ":9160,"éĩĩåıĸä»¥ä¸ĭæİªæĸ½":9161,"éĩĳèŀįæľįåĬ¡":9162,"åľ¨è¿Ļä¸ªè¿ĩç¨ĭä¸Ń":9163,"åĬ¨åĬĽåĴĮ":9164,"AIåı¯ä»¥å¸®åĬ©":9165,"è¨±":9166,"æľºä¼ļåĴĮ":9167,"ä¸Ģç¯ĩåħ³äºİ":9168,"åĪĽéĢłæĢ§":9169,"ç¦ıå»º":9170,"å°ıè¯´çļĦ":9171,"å¥ĸé¡¹":9172,"ĠæĪĳä»¬":9173,"ä¸įæĥ³":9174,"éħ¬":9175,"å¥³æĢ§çļĦ":9176,"éĵģå¡Ķ":9177,"ä¸ĩç¾İåħĥ":9178,"çľŁå®ŀçļĦ":9179,"ä¹Łæĺ¯ä¸Ģç§į":9180,"å¾Īé«ĺçļĦ":9181,"æ°®":9182,"æµ·è¾¹":9183,"æĪĳä»¬åı¯ä»¥ä»İ":9184,"ä¸ľåįĹ":9185,"çĶŁèıľ":9186,"åįĹæŀģæ´²":9187,"æīĭçİ¯":9188,"ä»£è¡¨äºĨ":9189,"çļĦæĮĳæĪĺ":9190,"èģļéĽĨ":9191,"æĦıè¯ĨåĴĮ":9192,"ä»İæŃ¤":9193,"ç©ºæ°Ķä¸Ń":9194,"å®ĹæķĻä¿¡ä»°":9195,"èīĩ":9196,"æŃ£éĿ¢çļĦ":9197,"åĴĮéĹ®é¢ĺ":9198,"å®ŀçĶ¨çļĦ":9199,"å¤ľéĹ´":9200,"æĸ·":9201,"æ¾¡":9202,"]<|":9203,"çļĦæ¯Ķä¾ĭ":9204,"æĹ¶ç©º":9205,"ç¯ĩæĸĩç«ł":9206,"æ²ŁéĢļæ¸łéģĵ":9207,"æĸ¹æ³ķæĺ¯":9208,"ä¾¿å®ľ":9209,"åı¯ä»¥æł¹æį®èĩªå·±çļĦ":9210,"å®ļæľŁæ£ĢæŁ¥":9211,"éĩįçļĦ":9212,"å¡«åħħ":9213,"çļĦåºĶçĶ¨åľºæĻ¯":9214,"èºº":9215,"ä¸ºåŁºç¡Ģ":9216,"ä½Ĩè¿Ļ":9217,"åį°åĪ·":9218,"åı¯ä»¥æľīæķĪåľ°":9219,"åģ¥åº·çļĦçĶŁæ´»æĸ¹å¼ı":9220,"æ¯ħåĬĽ":9221,"ä¸ªäººåı£åĳ³":9222,"è½¿è½¦":9223,"å²Ń":9224,"èĴ¸æ±½":9225,"çĶŁäº§çº¿":9226,"çļĦåľ°åĮº":9227,"ç»ĪçĤ¹":9228,"æĹ¶è®¸":9229,"æĶ¿åºľåĴĮä¼ģä¸ļ":9230,"èĤĸçĶ³":9231,"ä¸Ńèİ·å¾Ĺ":9232,"Â²":9233,"çļĦç¡®":9234,"ä½łåı¯ä»¥åľ¨":9235,"ä¾ĭå¦ĤéĢļè¿ĩ":9236,"ä¸İå®¶äºº":9237,"ç§ĭå¤©":9238,"éĺģ":9239,"æĺŁéĻħ":9240,"éĥŃ":9241,"é£İéĻ©è¯Ħä¼°":9242,"å®ļçĲĨ":9243,"ä¸Ńåħ±":9244,"å½¢çĬ¶åĴĮ":9245,"å½°":9246,"è¾ĥå¤§çļĦ":9247,"èļĢ":9248,"æĮģæľī":9249,"çļĦé¥®é£Ł":9250,"æĽ´åĩĨç¡®çļĦ":9251,"è¿ĺèĥ½å¤Ł":9252,"42":9253,"åı¯è§ģ":9254,"å§Ĩæĸ¯":9255,"æľĢåıĹæ¬¢è¿İçļĦ":9256,"éĩįå¤įæĢ§":9257,"éĤ£æł·":9258,"æĿ¥ä¿ĿæĬ¤":9259,"é¢Ĺç²Ĵ":9260,"å¾Ĺåĩºç»ĵè®º":9261,"ä¸»å¸Ń":9262,"åĩ»è´¥":9263,"çļĦéķ¿":9264,"çĽ¸å¯¹äºİ":9265,"ä¹Łå°±æĺ¯è¯´":9266,"åı¯ä¹Ĳ":9267,"å®ŀè¡Į":9268,"ä¿¡èªī":9269,"æ·±åıĹ":9270,"è¡¨è¾¾å¼ı":9271,"å®ĿçŁ³":9272,"æī«æıı":9273,"å®ļä»·":9274,"æĥħç»ªåĴĮ":9275,"åľ¨åĮ»çĸĹä¿Ŀåģ¥":9276,"Ġç¤¾ä¼ļ":9277,"æııè¿°ä¸Ģä¸ĭ":9278,"èį¯çī©æ²»çĸĹ":9279,"ä¼ģä¸ļåĴĮ":9280,"ç¤¼è²Į":9281,"ĠÐ¿":9282,"Mike":9283,"ä¸ĭäºĨ":9284,"å¿ĥçĲĨåĮ»çĶŁ":9285,"çļĦæĻ®åıĬ":9286,"åĬłæ·±":9287,"åĩºéĹ¨":9288,"åĨĻä¸Ģä¸ª":9289,"æķ°éĩıçļĦ":9290,"åıĳå±ķåĴĮ":9291,"åĿª":9292,"ä½ķæĹ¶":9293,"éŁ¦":9294,"æ°´æŀľåĴĮèĶ¬èıľ":9295,"å®ĥä»¬åı¯ä»¥":9296,"ä¸ŃçļĦéĩįè¦ģ":9297,"è¡¨ç¤ºä¸º":9298,"æĮģä¹ħ":9299,"æ°´æºĲ":9300,"ä¸İåħ¶":9301,"è¯Ħå®ļ":9302,"åİŁæĿĲæĸĻ":9303,"åĴĮäº¤æµģ":9304,"×Ļ×":9305,"çĺ¤":9306,"ä¹ĭä½ľ":9307,"æĸ°èĥ½æºĲ":9308,"æĹ¶éĹ´æ®µ":9309,"çľĭè§ģ":9310,"çĶŁæĪĲçļĦ":9311,"æķ£æĸĩ":9312,"æ¡¥æ¢ģ":9313,"ia":9314,"âĢĿãĢĤ<|":9315,"åİ»å¹´":9316,"ä½ĵåĨħ":9317,"å®īæħ°":9318,"2007":9319,"æĳĦåħ¥éĩı":9320,"æĪĳä»¬èĥ½å¤Ł":9321,"éĻķ":9322,"åĪĨéħįä»»åĬ¡":9323,"éŁ³æķĪ":9324,"å®ŀçİ°çĽ®æłĩ":9325,"å¤§éĩıæķ°æį®":9326,"æĪĳä¸ĢçĽ´":9327,"åĸľåī§":9328,"è¿Ľè¡Įè®Ńç»ĥ":9329,"çļĦåĪĨç±»":9330,"è´£ä»»åĴĮ":9331,"åĴĮè§Ĩé¢ĳ":9332,"æĻºæħ§åĴĮ":9333,"æ¸©å®¤æ°Ķä½ĵçļĦæİĴæĶ¾":9334,"æĻºèĥ½å®¶å±ħç³»ç»Ł":9335,"æķĮäºº":9336,"äººå·¥æĻºèĥ½é¢ĨåŁŁ":9337,"åĵĳéĵĥ":9338,"çıĬçĳļ":9339,"å¸Ĳ":9340,"çº¹çĲĨ":9341,"åı£èħĶ":9342,"æĪĺå½¹":9343,"çıŃçº§":9344,"ä¸Ī":9345,"åºĶçĶ¨åĪ°":9346,"åĲĦç§įä¸įåĲĮçļĦ":9347,"å¸ĸ":9348,"ä¸īåįģ":9349,"æľªç»ı":9350,"åĩºçĶŁäºİ":9351,"çĻ½å¤©":9352,"éľĢè¦ģäºĨè§£":9353,"æ´»åĭķ":9354,"è°Īè®º":9355,"ä»¥åıĬå¯¹":9356,"å®ĮæĪĲåĲİ":9357,"å¦ĤæŀľæĤ¨æľī":9358,"åı¯ä»¥è®©æĪĳä»¬":9359,"èģĶéĤ¦":9360,"çļĦè¡ĮåĬ¨":9361,"åľ°å½¢":9362,"å¼ĢåĲ¯":9363,"Ġo":9364,"è¿Ļåı¯èĥ½ä¼ļ":9365,"ĠçĽĲ":9366,"æĬķæĶ¾":9367,"ä¸Ĭæĸĩ":9368,"åĴĮæĸ¹æ³ķ":9369,"éģŃéģĩ":9370,"åĬ«":9371,"é«ĺéĢŁåħ¬è·¯":9372,"çļĦæııè¿°":9373,"åİī":9374,"èĩªåĪ¶":9375,"åħ±äº§":9376,"è¡¨çİ°åĩºèī²":9377,"ç§ĳæĬĢåħ¬åı¸":9378,"èĨĿ":9379,"åĬĽéĩıåĴĮ":9380,"æ¤°":9381,"2006":9382,"ä¸İæľĭåıĭ":9383,"è®©æĪĳä»¬çļĦ":9384,"åı¯èĥ½ä¼ļåıĹåĪ°":9385,"å¿ħä¸įåı¯":9386,"éĢļå¸¸åĮħæĭ¬":9387,"ç¬Ķè®°æľ¬":9388,"æ£ķèī²":9389,"åĴĮæĬķèµĦ":9390,"è¿Ļåı¯èĥ½":9391,"ä»Ĭå¤©çļĦ":9392,"è¹²":9393,"ä¹Łèĥ½å¤Ł":9394,"è¶ĬåįĹ":9395,"ä¸½èİİ":9396,"ä¸Ģèµ·åİ»":9397,"ç´łåħ»":9398,"é¦ĸåħĪè¦ģ":9399,"æĿĥåĬĽ":9400,"è¿İæİ¥":9401,"ä¸Ĭæ¶¨":9402,"çļĦäººçĶŁ":9403,"çļĦèº«ä½ĵ":9404,"çĶµå½±ä¸Ń":9405,"ä¹Ķæ²»":9406,"é«ĺç«¯":9407,"æ¯ĶèµĽçļĦ":9408,"æĸ¹ä¾¿åľ°":9409,"åĲīä»ĸ":9410,"æĴ°åĨĻä¸Ģç¯ĩ":9411,"çļĦåħ¬åı¸":9412,"èµĦæł¼":9413,"ç¼ĵè§£åİĭåĬĽ":9414,"äºĨèĩªå·±çļĦ":9415,"æĬĺå°Ħ":9416,"éĺ»æŃ¢":9417,"85":9418,"ä¸Ĭæĺł":9419,"çŁ¶":9420,"æĬĬæı¡":9421,"åıĽ":9422,"æºĥ":9423,"ä¼ģé¹ħ":9424,"åĨ³èµĽ":9425,"çļĦç¨ĭåºı":9426,"èĩªåĭķ":9427,"åĪĨè£Ĥ":9428,"å°ıèĬ³":9429,"æĪĲæľ¬åĴĮ":9430,"ä»¥ä¸ĭåĩłä¸ªæŃ¥éª¤":9431,"å¿«ä¹ĲåĴĮ":9432,"çļĦäººç¾¤":9433,"å®ĩèĪª":9434,"å¦¥åįı":9435,"åħĥçļĦ":9436,"æĺ¯åĲ¦èĥ½å¤Ł":9437,"çµĲ":9438,"ç²¾ç»Ĩ":9439,"çī¹å¾ģåĴĮ":9440,"åĲĮæĻĤ":9441,"åĵģçīĮçŁ¥åĲį":9442,"çķĻåĩº":9443,"æŀģå¤§åľ°":9444,"å¤ļæł·æĢ§åĴĮ":9445,"è¿ĩæĿ¥":9446,"æ´¾å¯¹":9447,"æ¬ł":9448,"ä¸ľåĮĹ":9449,"ç¾İå¥½çļĦæľªæĿ¥":9450,"æŃ·":9451,"å¦Ĥæŀľä¸Ģä¸ª":9452,"è®Ńç»ĥæķ°æį®":9453,"éģĹåĿĢ":9454,"è¡¬è¡«":9455,"è¡į":9456,"å®¡è®¡":9457,"ä»İåīį":9458,"ä¸įæĸŃåıĺåĮĸ":9459,"æ³°åĿ¦":9460,"åŀĭåı·":9461,"è´Ŀå°Ķ":9462,"æºĲäºİ":9463,"åĨ¬å¤©":9464,"çļĦè§Ĵåº¦":9465,"å®ª":9466,"è¿Ļä¸ªéĹ®é¢ĺçļĦ":9467,"å®¢æĪ·çļĦéľĢæ±ĤåĴĮ":9468,"ä½Ļæķ°":9469,"åľ°è´¨":9470,"æĪĺæľ¯":9471,"åĲĦä¸ªæĸ¹éĿ¢":9472,"æ³Į":9473,"æĭ¥æĬ±":9474,"å¥ĭæĸĹ":9475,"å·´åİĺ":9476,"èĻļæŀĦ":9477,"çļĦå®īåħ¨æĢ§åĴĮ":9478,"åľ¨ç¾İåĽ½":9479,"æĥ«":9480,"66":9481,"æĿ¥å¢ŀåĬł":9482,"åħ¬æĸ¤":9483,"ä¸¤ä¾§":9484,"æĺŃ":9485,"çļĦå°ıè¯´":9486,"å¹¶åĲĳ":9487,"åĽ½å®¶åĴĮ":9488,"Emily":9489,"çŃīäºº":9490,"çĽ¸ä¿¡èĩªå·±":9491,"ä¸¢å¤±":9492,"æĪĸä½¿çĶ¨":9493,"åŁºåĽłç»Ħ":9494,"ra":9495,"æĺ¯ä¸Ģä¸ªåħħæ»¡":9496,"éĢļå¸¸ä½¿çĶ¨":9497,"ä¸Ģåĳ¨":9498,"æİĴéĻ¤":9499,"æķħå®«":9500,"åĴĮå®¶äºº":9501,"æĪĪ":9502,"çĻ»å±±":9503,"ÑĢÐ°":9504,"éĿĸ":9505,"è¿Ļä¸ªè¯į":9506,"èĪĮ":9507,"ä¿ĿæĮģåģ¥åº·çļĦ":9508,"å¸¸è§Ħ":9509,"é£İåĲ¹":9510,"åĴĮæ²ŁéĢļ":9511,"éŁ³ä¹Ĳå®¶":9512,"æłĪ":9513,"è¡¨è¿°":9514,"æ¿Ģæĥħ":9515,"æĶ¿æ²»äººçī©":9516,"Ġä¸įè¦ģ":9517,"åŁĭ":9518,"ä¸ºæŃ¢":9519,"åı¶æĸ¯":9520,"ç¢°æĴŀ":9521,"ä¼ĺç¾İçļĦ":9522,"åı¯ä»¥è®©æĤ¨":9523,"åĪĨåĪ«ä¸º":9524,"åĶĩ":9525,"áĥ":9526,"åľ¨åŁİå¸Ĥ":9527,"å¯¹æĪĳä»¬":9528,"æĤ¨åı¯ä»¥å°Ŀè¯ķ":9529,"å§Ķä¼ļ":9530,"è§Ĥä¼ĹçļĦ":9531,"éº»è¾£":9532,"åĬłæĭ¿å¤§":9533,"å·¢":9534,"å¤©æĸĩ":9535,"åĽŀé¡¾":9536,"Emma":9537,"åľ°çĲĥè¡¨éĿ¢":9538,"é©¬åħĭ":9539,"è¿Ļå¯¹äºİ":9540,"å¤ĸå¥Ĺ":9541,"ãĢįãĢĤ":9542,"å®ĥæĺ¯ä¸Ģç§į":9543,"ä¸ºä»¥ä¸ĭ":9544,"çºªå½ķ":9545,"èĬ¹":9546,"å·²æľī":9547,"é¥²åħ»":9548,"ä¸įæĸŃæĶ¹è¿Ľ":9549,"çļĦçĶŁçī©":9550,"åĵģçīĮåĴĮ":9551,"åįķä¸Ģ":9552,"æ½®æµģ":9553,"ç½ķ":9554,"æĹ¥èĩ³":9555,"éĩįå»º":9556,"è¯ŃéŁ³è¯ĨåĪ«æĬĢæľ¯":9557,"88":9558,"è§Ĩè§Ĵ":9559,"è³½":9560,"åĴĮå®ŀè·µ":9561,"åĲ¨":9562,"ç¼©çŁŃ":9563,"çļĦç»ĵæŀĦ":9564,"å¤±çľł":9565,"æĤ£æľī":9566,"åĽ½çļĦ":9567,"èĩªçĦ¶ä¿ĿæĬ¤":9568,"æħĮ":9569,"ç¼ĸçłģ":9570,"åħ¬åĽŃéĩĮ":9571,"åĨľä¸ļçĶŁäº§":9572,"éŁ³ä¹ĲåĪĽä½ľ":9573,"×ķ×":9574,"æķ°æį®éļĲç§ģ":9575,"Ġ11":9576,"ä¼ļä½¿":9577,"çļĦç¹":9578,"å¤´èĦĳ":9579,"ä¸»è§Ĥ":9580,"è´¨æķ°":9581,"åĽłä¸ºä»ĸä»¬":9582,"æŃ£ç¡®åľ°":9583,"5000":9584,"ä¸įå®ī":9585,"éĵ¾è¡¨":9586,"çĽ¸å¯¹è¾ĥ":9587,"ç§¯æŀģçļĦæĢģåº¦":9588,"çĽ¸æľº":9589,"èĽĽ":9590,"ä¸Ńåľĭ":9591,"ä¸įå½ĵ":9592,"è¿Ļä¸ªåŁİå¸Ĥ":9593,"æī¹åĩĨ":9594,"ç¿»çĤĴåĿĩåĮĢ":9595,"æĿ¥æĶ¯æĮģ":9596,"ä¸ĭè½½":9597,"èį£èªī":9598,"å¹³æĸ¹åħ¬éĩĮ":9599,"èİīèİī":9600,"åľ¨è¯¥":9601,"åĶ±æŃĮ":9602,"Amy":9603,"çĶ¨çĶµ":9604,"è¯·æķĻ":9605,"çļĦæıĲé«ĺ":9606,"åĴĮè§£åĨ³":9607,"å¨ĥ":9608,"èĪĴæľį":9609,"è½¦çļĦ":9610,"æ³¼":9611,"æ°´ä¸Ĭ":9612,"æĳĦæ°ıåº¦":9613,"éĥ½ä¸į":9614,"ĠèĩªçĦ¶è¯Ńè¨Ģå¤ĦçĲĨ":9615,"å¿«æį·":9616,"åıĺæĪĲäºĨ":9617,"å²³":9618,"çŃīåĬŁèĥ½":9619,"ç¼ºéĻ·":9620,"ä¸»å¼ł":9621,"ĳå¸ĥ":9622,"å°ıçģ«":9623,"åħ¬å¸ĥ":9624,"éĥ¨éķ¿":9625,"æļ´éĽ¨":9626,"åĨ°åĿĹ":9627,"è°¢è°¢ä½ł":9628,"èĳĹä½ľ":9629,"çļĦè§£åĨ³æĸ¹æ¡Ī":9630,"è§Ĵèī²ä»ĭç»į":9631,"è¶³å¤ŁçļĦæĹ¶éĹ´":9632,"åĪ¶æĪĲçļĦ":9633,"å¤§æ¥¼":9634,"ç¼Ģ":9635,"äººç±»ç¤¾ä¼ļ":9636,"å¹¿æĴŃ":9637,"ä¼ĺåĬ¿åĴĮ":9638,"è´Ŀåı¶æĸ¯":9639,"çļĦçİ°è±¡":9640,"åħ¬æŃ£åĴĮ":9641,"å½©èĻ¹":9642,"æĤĶ":9643,"èĪªå¤©":9644,"åĪ¶ä½ľåĩº":9645,"æ¶ĤæĬ¹":9646,"Ġå½ĵçĦ¶":9647,"å¤§åŃ¦çĶŁ":9648,"åħ±è¯Ĩ":9649,"æ·±åº¦åŃ¦ä¹łç®Ĺæ³ķ":9650,"åĩĿèģļ":9651,"æłª":9652,"æľĢé«ĺçļĦ":9653,"éĢīæĭ©æľĢéĢĤåĲĪ":9654,"åŃ£åº¦":9655,"æĸĩèīºå¤įåħ´":9656,"æ²Ī":9657,"æ¹Ľ":9658,"æĸĲ":9659,"è¯ģåĪ¸":9660,"éĽĩä¸»":9661,"å¿ĥçļĦ":9662,"çļĦçŁ³":9663,"åıĳæĮ¥éĩįè¦ģä½ľçĶ¨":9664,"éļıçĿĢæĬĢæľ¯çļĦä¸įæĸŃåıĳå±ķ":9665,"è·¯ç¨ĭ":9666,"æ®ĸæ°ĳ":9667,"äº§çĶŁæ·±è¿ľçļĦå½±åĵį":9668,"èĩªåĬ¨åĮĸåĴĮ":9669,"ç¹ģå¿Ļ":9670,"æľįåĬ¡åĻ¨":9671,"è¶£åĳ³":9672,"ĠçĥŃ":9673,"é¤Ĳæ¡Į":9674,"ç¨ł":9675,"åĪĿæľŁ":9676,"ç»§æī¿":9677,"è¾¹çķĮ":9678,"å¯¹æĪĳ":9679,"åĲįçļĦ":9680,"æĻķ":9681,"ä¸ĭéĿ¢æĺ¯ä¸ĢäºĽ":9682,"ĠåıĤåĬł":9683,"è·Łéļı":9684,"åľ¨å®ŀéĻħåºĶçĶ¨ä¸Ń":9685,"ä¼ļå¢ŀåĬł":9686,"å¸ĮæľĽä»¥ä¸Ĭ":9687,"æĽĿåħī":9688,"çŃĭ":9689,"åħ¶ä¸»è¦ģ":9690,"æĺ¯ä»İ":9691,"åħ¨è°·":9692,"çĽ®æłĩå®¢æĪ·":9693,"æ±¡æŁĵçī©":9694,"æĬĺåıł":9695,"è¦ģæľī":9696,"å®ĥä»¬ä¹ĭéĹ´çļĦ":9697,"åº·å¤į":9698,"å±±è¥¿":9699,"éĩıåŃĲè®¡ç®Ĺæľº":9700,"æĽ´åĬłä¾¿æį·":9701,"çİ¯å¢ĥä¸ĭ":9702,"ç¼ĸåĨĻä¸Ģä»½":9703,"çļĦåķĨåĵģ":9704,"åı¯ä»¥ä¸İ":9705,"å¯¹åħ¶è¿Ľè¡Į":9706,"Ġç¡®ä¿Ŀ":9707,"åľ¨å½ĵä»Ĭ":9708,"åĴĮæŃ§è§Ĩ":9709,"æľįåĭĻ":9710,"è°¢è°¢æĤ¨çļĦ":9711,"ä¾ł":9712,"æĪĳä»¬è¿ĺåı¯ä»¥":9713,"è¿Ļå®¶é¤Ĳåİħ":9714,"ä¸įåģľ":9715,"åĴĮæĮĩå¯¼":9716,"åħ³æĢĢ":9717,"åħīæ»ĳ":9718,"çļĦçĩ":9719,"çĽĬå¤Ħ":9720,"è·¨è¶Ĭ":9721,"åħ¨éº¦éĿ¢åĮħ":9722,"ä¹¾":9723,"åħĪåĲİ":9724,"æļĳ":9725,"æĺ¯æľī":9726,"é¢ģ":9727,"éĺŁåĳĺ":9728,"åīįçļĦ":9729,"æķĻç¨ĭ":9730,"å¤§éĩıçļĦæķ°æį®":9731,"å·´åİĺå²Ľ":9732,"æ¾Ī":9733,"æľĭåıĭä»¬":9734,"åıįé¦ĪåĴĮå»ºè®®":9735,"èĪªçıŃ":9736,"è¡¨è¾¾èĥ½åĬĽ":9737,"äºĨä¸Ģåľº":9738,"è¯ĪéªĹ":9739,"ä½Ĩæĺ¯å®ĥ":9740,"ä»¥ä¸º":9741,"æĪĳå°±":9742,"æĹ¥èĲ½":9743,"ä¸īæĸĩ":9744,"çĽ´èĩ³":9745,"ä½łè¯´":9746,"æĺİæĺŁ":9747,"åı¯ä»¥æĮīçħ§":9748,"èĩªçĦ¶æĻ¯è§Ĥ":9749,"çĥ¤ç®±ä¸Ń":9750,"Ġk":9751,"éĸĭå§ĭ":9752,"æķ°æį®ä¸ŃçļĦ":9753,"æĹº":9754,"æĬķèµĦäºİ":9755,"æŃ£åľ¨å¯»æī¾":9756,"æ°´å¹³åĴĮ":9757,"åıĹçĽĬ":9758,"æµĵéĥģçļĦ":9759,"Ġg":9760,"ä¸ľæĸ¹":9761,"ç§¯æŀģåľ°":9762,"éĹ°å¹´":9763,"åıĸæ¶Ī":9764,"ç¬¬ä¸īæĸ¹":9765,"2005":9766,"éĻĮçĶŁäºº":9767,"ä½¿åĳ½":9768,"æµģæµª":9769,"æĮĳéĢī":9770,"å»Ĭ":9771,"è¯Ńæ³ķéĶĻè¯¯":9772,"æľīä¸¤ä¸ª":9773,"çĽ´çº¿":9774,"å°ıè¯´ä¸Ń":9775,"çļĦç»ıåİĨ":9776,"çļĦå®ļä¹ī":9777,"çļĦå¢ŀåĬł":9778,"åı¯ä»¥åĲĳ":9779,"éľĢè¦ģä¸įæĸŃåľ°":9780,"ut":9781,"åİŁæľ¬":9782,"åĮĨ":9783,"è§£é¢ĺ":9784,"æŀģä¸º":9785,"çĽĴåŃĲ":9786,"çļĦç¹ģ":9787,"æķŀ":9788,"å¤§åİ¦":9789,"è¿ĺåı¯ä»¥å¸®åĬ©":9790,"Ð¹":9791,"çľŁè¯ļ":9792,"å¿ĥçĲĨæ²»çĸĹ":9793,"èĸĽ":9794,"è·Łè¿Ľ":9795,"æ¯ıå°ıæĹ¶":9796,"ä¿ĿæĮģèģĶç³»":9797,"è¯¸å¤ļ":9798,"æ±Łè¥¿":9799,"ana":9800,"æ±ĤèģĮ":9801,"æĢ»èĢĮè¨Ģä¹ĭ":9802,"éĺ¿çĶĺ":9803,"æĸĩæľ¬ä¸ŃæıĲåıĸ":9804,"ĠéĩĩçĶ¨":9805,"æķ°æį®æĮĸæİĺ":9806,"åİ¨å¸Ī":9807,"åŃ¦ä¹łæĸ°æĬĢèĥ½":9808,"éħįéĢģ":9809,"æĦ¤æĢĴ":9810,"çľŁçļĦå¾Ī":9811,"è§Ħå®ļçļĦ":9812,"æ¤Ń":9813,"åĵĢ":9814,"åĸĿæ°´":9815,"æĸ¥":9816,"ä¸Ńç«ĭ":9817,"ä¸ºäºĨè§£åĨ³":9818,"åĨĪ":9819,"å¸®å¿Ļ":9820,"å¤ĸè¯Ń":9821,"æĮļ":9822,"åºĶè¯¥åľ¨":9823,"ä¿ĿæĬ¤åľ°çĲĥ":9824,"ä¸»è¦ģçļĦ":9825,"æĳ©æīĺ":9826,"çļĦæľªæĿ¥":9827,"è¡Įäºº":9828,"æ´ĽæĿī":9829,"è¼ķ":9830,"åĸľæĤ¦":9831,"æ³°åĿ¦å°¼åħĭ":9832,"äº²çĪ±çļĦ":9833,"çļĦäººä»¬":9834,"æ°Ķåĳ³":9835,"èĬ±æ¤Ĵ":9836,"éĽ¨æŀĹ":9837,"çĻ½èī²çļĦ":9838,"èµļ":9839,"æĸ¯æĭī":9840,"å¤ļåĲĥ":9841,"æºĸ":9842,"æĺ¯åĲ¦ç¬¦åĲĪ":9843,"å®ŀè·µä¸Ń":9844,"åįĹæĸ¹":9845,"çļĦæ¸¸æĪı":9846,"è¿Ļä¸ĢçĤ¹":9847,"æ¼Ķç¤º":9848,"ind":9849,"å¤ªéĺ³èĥ½çĶµæ±łæĿ¿":9850,"ä¸įåħ¬å¹³":9851,"é£İéĽ¨":9852,"æ³¨æĦıåĬĽåĴĮ":9853,"æ¢µ":9854,"æĺ¯å¯¹":9855,"çĤ®":9856,"äºĨè§£æĤ¨çļĦ":9857,"æķ¬ç¤¼":9858,"ãĢĤãĢĤ":9859,"ä½łæĥ³":9860,"å°Ĩè¢«":9861,"çŁ¥è¯Ĩäº§æĿĥ":9862,"èµ¶åĪ°":9863,"ĠK":9864,"ä¸Ĭå¸Ĥ":9865,"é¦ħ":9866,"è¿ĻäºĽæ´»åĬ¨":9867,"çļĦæ¸©åº¦":9868,"åĴĮæİ¢ç´¢":9869,"æĽ´é«ĺæķĪ":9870,"å®¶åĬ¡":9871,"æĪĺèĥľ":9872,"å¹¿æ³ĽåºĶçĶ¨äºİ":9873,"ÏĦ":9874,"åĴĮé«ĺæķĪ":9875,"å³»":9876,"å¼ķäººåħ¥":9877,"çļĦä¼łç»Ł":9878,"æĺ¯ä»¥":9879,"éħįé¥°":9880,"å¦Ĥä½ķå¤ĦçĲĨ":9881,"å¤§å¹ħ":9882,"è¯ģå®ŀ":9883,"åģĩæľŁ":9884,"éĺ²çģ«":9885,"æ³°åĿ¦å°¼åħĭåı·":9886,"åīįéĢĶ":9887,"éŁ³ä¹Ĳä½ľåĵģ":9888,"çļĦéĿ¢ç§¯":9889,"åľ¨è´Ńä¹°":9890,"åĲĥé¥Ń":9891,"è´¨åľ°":9892,"æĺ¯ä¸Ģä»¶":9893,"èĢĲçĶ¨":9894,"æĽ´å®¹æĺĵåľ°":9895,"44":9896,"æĥħæĦŁçļĦ":9897,"å®¡çĲĨ":9898,"éľĢè¦ģä»İ":9899,"æĢĿå¿µ":9900,"ä»¥ç¡®ä¿Ŀåħ¶":9901,"åı¯ä»¥çľĭ":9902,"è¿Ľè¡ĮéĢīæĭ©":9903,"åĴĸåķ¡é¦Ĩ":9904,"çļĦä¸»é¢ĺåĴĮ":9905,"Tæģ¤":9906,"æīĢåŃ¦":9907,"è±Ĩçĵ£":9908,"çļĦæĥħç»ª":9909,"ä¸īæĸĩé±¼":9910,"æĶ¹ç¼ĸ":9911,"ow":9912,"æŀģåľ°":9913,"å£«åħµ":9914,"æĻºèĥ½å®¶å±ħè®¾å¤ĩ":9915,"èµŀç¾İ":9916,"çī©ä¸ļ":9917,"åı¯ä»¥åĮħæĭ¬":9918,"åľ°åŁŁ":9919,"éī´å®ļ":9920,"éĴĻ":9921,"å¾ĹçŁ¥":9922,"éĥ½åħ·æľī":9923,"èĩ³äºİ":9924,"éľĢè¦ģè¿Ľä¸ĢæŃ¥":9925,"æħ¨":9926,"ç»ıéªĮä¸°å¯ĮçļĦ":9927,"ä¸»æĦı":9928,"çĸ²æĥ«":9929,"å¾®çĶŁçī©":9930,"æµ·æ´ĭçĶŁæĢģç³»ç»Ł":9931,"åħ¨åĬĽ":9932,"å¤įåĲĪ":9933,"å¾ĹåĪ°çļĦ":9934,"éļıçĿĢäººå·¥æĻºèĥ½æĬĢæľ¯çļĦä¸įæĸŃåıĳå±ķ":9935,"An":9936,"åĴĮæĪĳ":9937,"è¿ĩéĩı":9938,"åŁºåľ°":9939,"åĪĩåī²":9940,"éĨ«":9941,"è®®é¢ĺ":9942,"è¯»èĢħçļĦ":9943,"Sarah":9944,"ç¬¬äºĮæ¬¡":9945,"åĪĨæŃ§":9946,"åŁºçĿ£":9947,"é©¬å°Ķ":9948,"æĿİæŁĲ":9949,"çļĦå¿ĥ":9950,"æīĶ":9951,"æŃĩ":9952,"å¼ıçļĦ":9953,"æĹ¥è®°":9954,"åı¯ä»¥èİ·å¾Ĺ":9955,"æĶ¾ç½®åľ¨":9956,"å¥Ķè·ĳ":9957,"ä¸įæĸŃä¼ĺåĮĸ":9958,"åıĬæĹ¶è°ĥæķ´":9959,"å¯¦çı¾":9960,"56":9961,"æ¸ħæ¾Ī":9962,"æ°ĳåĽ½":9963,"éĴĪå¯¹æĢ§çļĦ":9964,"æ´ĽæĿīçŁ¶":9965,"åĩºåĶ®":9966,"åģļäºĨ":9967,"æ³ķå®ĺ":9968,"ä½ĵæ£Ģ":9969,"äººç±»åĴĮ":9970,"éĢļå¸¸åħ·æľī":9971,"åħ»çĶŁ":9972,"æ¼«çĶ»":9973,"èĲ¥éĢłåĩº":9974,"æı´åĬ©":9975,"çĤŃ":9976,"åĸ±":9977,"åĲĮæł·çļĦ":9978,"ä¹Łè¢«":9979,"åĪ¶ä½ľçļĦ":9980,"è¿Ľå±ķæĥħåĨµ":9981,"è¨±å¤ļ":9982,"çļĦçĥŃéĩı":9983,"åĪĨç±»åĻ¨":9984,"å®ļæľŁè¿Ľè¡Į":9985,"è¡£è£Ļ":9986,"ä»»åĭĻ":9987,"ä¹Łè¶ĬæĿ¥è¶Ĭ":9988,"æŁ´":9989,"è§Ĵèī²åĴĮ":9990,"è®©ä½łçļĦ":9991,"ç³ĸåĴĮ":9992,"åĽºéĨĩ":9993,"çŁ³æ²¹":9994,"åĽ°éļ¾åĴĮæĮĳæĪĺ":9995,"éĺ¿éĩĮ":9996,"Ġ13":9997,"è§Ĵèī²çļĦ":9998,"æĺı":9999,"å¤ĸåĽ½":10000,"ä¸ĸçķĮåĲĦåľ°":10001,"å¤įæĿĤæĢ§":10002,"æĿ¥è¡¨ç¤º":10003,"èĩªçĦ¶é£İåħī":10004,"éĶ¡":10005,"æĹħå®¢":10006,"çģ«éĶħ":10007,"Î¿":10008,"å¤ļä¸ªæĸ¹éĿ¢":10009,"èĥĮåĲİ":10010,"åħįçĸ«ç³»ç»Ł":10011,"ĠæĮģç»Ń":10012,"çļĦé£İæł¼":10013,"ç¤¾äº¤ç½ĳç»ľ":10014,"æ·±åĪ»åľ°":10015,"äºĨä¸Ģç§į":10016,"åĴĸåĸ±":10017,"äº¿ç¾İåħĥ":10018,"Ġthe":10019,"ä¸įè§ģ":10020,"çŃīåľ°":10021,"çĦ°":10022,"è¨ĵ":10023,"éĢĻæ¨£":10024,"ä¾Ŀèµĸäºİ":10025,"å°Ĩä¼ļæĽ´åĬł":10026,"æŀ¢":10027,"å¼Ħ":10028,"æİĴéª¨":10029,"çĽĳçĭ±":10030,"å¦ĩå¥³":10031,"èĬĴæŀľ":10032,"Ġè¡¨ç¤º":10033,"ä»ĸå¼Ģå§ĭ":10034,"èĬ¦":10035,"Ġåı¯ä»¥":10036,"æ³ķåºŃ":10037,"ä¹¡æĿĳ":10038,"çļĦç´ł":10039,"ent":10040,"èº«ä»½éªĮè¯ģ":10041,"ç»Ĩèĩ´":10042,"æĽ´å¤ļäºº":10043,"âĢĵ":10044,"è¿Ľè¡ĮçļĦ":10045,"åĽ¢éĺŁä¸Ń":10046,"èµ°è¿Ľ":10047,"éģĬ":10048,"å¾®æ³¢çĤī":10049,"å¯¹ç§°":10050,"åĭ¾":10051,"ç»ĨèĬĤåĴĮ":10052,"åĴĮäº¤éĢļ":10053,"åĤĻ":10054,"ry":10055,"ÏĢ":10056,"å·¥ä½ľæķĪçİĩåĴĮ":10057,"çľī":10058,"åĬłæ²¹":10059,"çļĦåİĨåı²åĴĮæĸĩåĮĸ":10060,"å¼ķäººåħ¥èĥľ":10061,"å°¼æĸ¯":10062,"åı¯åı¯":10063,"å¯¹æķ°æį®è¿Ľè¡Į":10064,"é«ĺèĦĤèĤª":10065,"æĶ¾æĿ¾æĬĢå·§":10066,"éłĺ":10067,"æĶ¿åºľåı¯ä»¥":10068,"åĽ¢éĺŁæĪĲåĳĺçļĦ":10069,"æŀģæĢ§":10070,"æ·±åħ¥çļĦ":10071,"åľ¨æ°´ä¸Ń":10072,"éĩĳåŃĹ":10073,"èĢģå¹´":10074,"çļĦåı£æĦŁ":10075,"åĴĮéŁ³ä¹Ĳ":10076,"ä¹ĭè·¯":10077,"ä¸ºä¸Ģ":10078,"æĿ¥åĪĨæŀĲ":10079,"åĲĮå¹´":10080,"èĲ½åľ¨":10081,"å¹¶èİ·å¾Ĺ":10082,"å·«":10083,"åı£åı·":10084,"å®ĺåĳĺ":10085,"ç»¸":10086,"è¿Ľè¡ĮåĪĨæŀĲåĴĮ":10087,"ä»İæķ°æį®ä¸Ń":10088,"é¥º":10089,"49":10090,"æĭ¨":10091,"ç²¥":10092,"åĮħæĭ¬äºĨ":10093,"46":10094,"çļĦäººåı£":10095,"ç´§æĢ¥æĥħåĨµ":10096,"Ġè¯Ħä¼°":10097,"æĥħæĻ¯":10098,"å±¥è¡Į":10099,"éĴł":10100,"à¸Ń":10101,"æī©å¼ł":10102,"åĴĮçĦ¦èĻĳ":10103,"æķħäºĭä¸Ń":10104,"if":10105,"åľ¨ç¤¾äº¤åªĴä½ĵä¸Ĭ":10106,"åħ¨èº«":10107,"åĪĨæŀĲç»ĵæŀľ":10108,"æĽ´å¥½åľ°æİĮæı¡":10109,"ä¸Ģä½įå¹´è½»çļĦ":10110,"è¡Ĺå¤´":10111,"çļĦèĬ±":10112,"å¦ĤæŀľæĤ¨æĥ³":10113,"èĤ¡å¸Ĥ":10114,"æ¯«ç±³":10115,"å®īå¾½":10116,"æ¶Īæ¯Ĵ":10117,"æ¬£èµıåĪ°":10118,"å¥ł":10119,"çľĭäºĨ":10120,"é¢Ħæµĭç»ĵæŀľ":10121,"äººçĶŁçļĦ":10122,"ED":10123,"ä»ĸè¿ĺ":10124,"ä¸İæĤ¨çļĦ":10125,"æķ°åŃĹçļĦ":10126,"æĬĽ":10127,"åįĩèµ·":10128,"æĹ¶ä»£çļĦ":10129,"æĿ¥æİ§åĪ¶":10130,"ç²¾åĩĨçļĦ":10131,"ç³Ł":10132,"èĩªçĦ¶è¯Ńè¨Ģå¤ĦçĲĨåĴĮ":10133,"æ¶Ĥä¸Ĭ":10134,"éĻķè¥¿":10135,"çĶµè·¯":10136,"è°ĥè§£":10137,"çŁ¥è¯ĨåĴĮæĬĢèĥ½":10138,"2004":10139,"é¾Ļå¤´":10140,"ä¸ºåħ¬åı¸":10141,"åı·çº¿":10142,"è¿Ľè¡ĮæİĴåºı":10143,"å¦Ĥæŀľæ²¡æľī":10144,"èĥ½éĩıåĴĮ":10145,"èĹĿè¡ĵ":10146,"ä¸įä½³":10147,"ä¸ĢäºĽéĹ®é¢ĺ":10148,"åłª":10149,"é¸¡ä¸ģ":10150,"åĪĨè¯į":10151,"è¿ĩäºĨ":10152,"çģ«ç®Ń":10153,"èģĨ":10154,"è½¬åĲĳ":10155,"éĩĳåŃĹå¡Ķ":10156,"æľªèĥ½":10157,"å¤įåĪ¶":10158,"è¿ŀè¡£è£Ļ":10159,"ä½ĵçİ°äºĨ":10160,"å®¶åºŃåĴĮ":10161,"èĳ±å§ľèĴľ":10162,"æĬµæĬĹ":10163,"æķ°åŃĹè´§å¸ģ":10164,"æ²ŁéĢļæĬĢå·§":10165,"Ð³":10166,"åĩłåĪĨéĴŁ":10167,"ä»¥åºĶå¯¹":10168,"ç³¯":10169,"çĻĤ":10170,"éĩĩè®¿":10171,"ä¸Ĭåİ»":10172,"å¹³æĿ¿":10173,"èĪĴéĢĤåĴĮ":10174,"åľ¨è¿ĩåİ»çļĦ":10175,"ä¹Łåı¯ä»¥éĢļè¿ĩ":10176,"è§£åĨ³è¿Ļä¸ªéĹ®é¢ĺ":10177,"åĪĿå§ĭ":10178,"å¿ħå¤ĩ":10179,"åĴĮåı¯æĮģç»Ńåıĳå±ķ":10180,"æĪĳä»¬æīĢ":10181,"èĢĮéĿŀ":10182,"éĢļå¸¸æ¯Ķ":10183,"å°Ŀè¯ķæĸ°çļĦ":10184,"è´¢æĶ¿":10185,"ç¹ģçĲĲ":10186,"é¥¿":10187,"ä»Ģä¹Īæł·çļĦ":10188,"çĶŁäº§æķĪçİĩ":10189,"ä¸įåı¯éģ¿åħį":10190,"Ġv":10191,"æĳĨèĦ±":10192,"çº¤ç»´ç´ł":10193,"çĬ¹è±«":10194,"éĽĢ":10195,"éĩĮæĸ¯":10196,"åĲĮä¸Ģä¸ª":10197,"å®ŀæĥł":10198,"å¼Ģåħ³":10199,"è·³ç»³":10200,"ä¸įéĶĻçļĦéĢīæĭ©":10201,"çļĦæ¦Ĥçİĩ":10202,"èĳ¬":10203,"äººæĢ§åĮĸ":10204,"Ġé«ĺ":10205,"èļĬ":10206,"çİ¯ä¿Ŀäºĭä¸ļ":10207,"å¾ŀèĢĮ":10208,"éľ¸":10209,"åĮ»çĶŁè¿Ľè¡Į":10210,"è¦ĸ":10211,"ä¸įæ»¡":10212,"ä»»æĦı":10213,"åĸĬ":10214,"å·¥ä½ľåİĭåĬĽ":10215,"è»Ĭ":10216,"æĦŁè°¢æĤ¨çļĦ":10217,"å°±ä¸ļå¸Ĥåľº":10218,"è¿ĻæĿ¡":10219,"èĢĥæħ®":10220,"Ġæķ°æį®åĪĨæŀĲ":10221,"ä¸ºæŃ¤":10222,"æľĢåħ·":10223,"éĩİé¤Ĳ":10224,"åı¯è¡ĮæĢ§":10225,"åı¯ä»¥å¸¦æĿ¥":10226,"æ±¡æŁĵåĴĮ":10227,"å£ĵ":10228,"åĬ³åĬ¨åĬĽ":10229,"æľīè¶³å¤ŁçļĦ":10230,"èµ·åºĬ":10231,"çŁŃç¼º":10232,"èį·åħ°":10233,"çķĻä¸ĭäºĨ":10234,"åıĳè¾¾":10235,"å¼ºåĪ¶":10236,"åĽłæŀľ":10237,"çĶµèĥ½":10238,"æľįçĶ¨":10239,"æĿ¥å¤ĦçĲĨ":10240,"å¥³ç¥ŀ":10241,"è§ģéĿ¢":10242,"éĩĩåıĸæİªæĸ½æĿ¥":10243,"æ±Ĥåĩº":10244,"ĠÐ²":10245,"ä¸¤æ¬¡":10246,"çĥĺçĦĻ":10247,"æīģ":10248,"æľ¬æ¬¡":10249,"å¤©æ´¥":10250,"çİ¯ä¿ĿçļĦæĸĩç«ł":10251,"å¿ĥè¡Ģç®¡çĸ¾çĹħ":10252,"çļĦä¿ĿæĬ¤":10253,"å¤ĸçķĮ":10254,"è¯´æĺİä¹¦":10255,"å°ıæĺİåĴĮå°ıçº¢":10256,"åĩĳ":10257,"âĢĿï¼Ī":10258,"åķĨåľº":10259,"è¿ĲåĬ¨çļĦ":10260,"æ°ĶåĴĮ":10261,"åĪĨç»Ħ":10262,"èº«é«Ķ":10263,"AN":10264,"æĿİèĢģå¸Ī":10265,"æıĲåĪ°çļĦ":10266,"å®¡ç¾İ":10267,"çļĦçĳľä¼½":10268,"ä¸ªå°ıæĹ¶":10269,"åįµ":10270,"ä¸ĩäºº":10271,"æī§å¯¼":10272,"èĤĸçĶ³åħĭçļĦ":10273,"Ġåģ¥åº·":10274,"çļĦæİªæĸ½":10275,"éŁ³æ¨Ĥ":10276,"ä»¥ä¸ĭæĺ¯ä¸Ģç¯ĩ":10277,"çĶ·äºº":10278,"æĹģè¾¹":10279,"åŀĤçĽ´":10280,"æ¸ĹéĢı":10281,"çŃīä»»åĬ¡":10282,"éĥ¨çļĦ":10283,"æł¹æį®ç»Ļå®ļçļĦæĸĩæľ¬":10284,"ä¸ŃåĽ½ä¼łç»ŁæĸĩåĮĸ":10285,"åģ¥èº«è®¡åĪĴ":10286,"æĪĳå»ºè®®æĤ¨":10287,"ä¼ļåĦ¿":10288,"çŁŃä¿¡":10289,"èĤĸçĶ³åħĭçļĦæķĳèµİ":10290,"æ¯ħ":10291,"éģĵåħ·":10292,"è¿Ļç§įæĸ¹å¼ı":10293,"Ġè°ĥæķ´":10294,"çŃīåĲĦç§į":10295,"éħįä»¶":10296,"èĵĿèİĵ":10297,"èĩĢ":10298,"å»ºç«ĭèµ·":10299,"çİ©æ¸¸æĪı":10300,"åĴĮæĽ´":10301,"ç¡«":10302,"åıĹæįŁ":10303,"çŁŃæĹ¶éĹ´åĨħ":10304,"ä¸ĢåĿĹ":10305,"æł¹æį®è¿Ļä¸ª":10306,"æ¨¡æĿ¿":10307,"åŁİåĮº":10308,"åı¥åŃĲä¸ŃçļĦ":10309,"èĹ¤":10310,"ç³Ļ":10311,"çĪ¬è¡Į":10312,"åľĸ":10313,"è¶ħåĩº":10314,"éĢĽ":10315,"ä¸ºåħ¶":10316,"å¯¹è¯¥":10317,"åĳ¨éķ¿":10318,"çłįä¼Ĳ":10319,"åĪĨæ³Į":10320,"åĽºå®ļçļĦ":10321,"åŃ¦ä¹łæĸ¹å¼ı":10322,"åĪĴåĪĨ":10323,"é¡¹çĽ®ç®¡çĲĨ":10324,"åħ¬äº¤è½¦":10325,"æ©ĺåŃĲ":10326,"çİĦ":10327,"åİŁåĳĬ":10328,"æ·»åĬłä¸ĢäºĽ":10329,"åľ£æ¯į":10330,"æķ°éĩıä¸º":10331,"é²¨é±¼":10332,"åı¯ä»¥çľĭåĪ°":10333,"è¿ĲåĬ¨ä¼ļ":10334,"åľ¨æ°´":10335,"éĢīæĭ©ä¸ĢäºĽ":10336,"å®ļæĹ¶":10337,"åıĺä¸º":10338,"éĢīåıĸ":10339,"è·¯åı£":10340,"çļĦçĶŁåĳ½":10341,"æ£ĢéªĮ":10342,"çģ¯æ³¡":10343,"è´ŁéĿ¢æĥħç»ª":10344,"ä»£çĲĨ":10345,"åĽŀæĿ¥":10346,"éĩĳæĺŁ":10347,"Google":10348,"åıĤä¸İåĪ°":10349,"ç¾İæľ¯":10350,"äºŃ":10351,"æ°¨":10352,"åŃĲçŃī":10353,"åĮ»çĸĹé¢ĨåŁŁ":10354,"çħ®èĩ³":10355,"çīĪæĿĥ":10356,"åıĳæĮ¥çĿĢ":10357,"©çĮİ":10358,"å¥´":10359,"åŃ¸çĶŁ":10360,"å¸¶":10361,"ä½ľæĽ²":10362,"ä¸Ĭè¿Ľè¡Į":10363,"çĦ¡":10364,"å¤§éģĵ":10365,"å¯ŀ":10366,"èº«ä½ĵåĴĮå¿ĥçĲĨ":10367,"åı¯ä¾Ľ":10368,"çĶŁäº§æµģç¨ĭ":10369,"åŃ¦ä¹łæĸ¹æ³ķ":10370,"æīĭä¸Ń":10371,"æ·±åº¦åŃ¦ä¹łæĬĢæľ¯":10372,"åį³åı¯äº«çĶ¨":10373,"è½¬æį¢æĪĲ":10374,"ST":10375,"ä¸įè¶ħè¿ĩ":10376,"å®¶åºŃä¸Ń":10377,"èµ·æºĲäºİ":10378,"çĶµæµģ":10379,"ï¼Īï¼Į":10380,"æĦīå¿«çļĦ":10381,"åı¯ä»¥åĪĨåĪ°":10382,"ä»¤äººæĥĬåı¹":10383,"éĢļéģĵ":10384,"å®¢æĪ·çļĦéľĢæ±Ĥ":10385,"ä¸ªæĢ§åĴĮ":10386,"å¤ļå°ĳéĴ±":10387,"éĢĲæ¸Ĳå¢ŀåĬł":10388,"å®ĩèĪªåĳĺ":10389,"Ġ24":10390,"é¸ŁåĦ¿":10391,"åŃ¦ä¼ļäºĨ":10392,"ĠÑģ":10393,"éļ¨":10394,"éĻįè§£":10395,"çĶ¨æĪ·åıįé¦Ī":10396,"åħħå®ŀ":10397,"ate":10398,"å¼Ĭ":10399,"éħįä¸Ĭ":10400,"å°ģéĹŃ":10401,"å¿ĥçĲĨåĴ¨è¯¢å¸Ī":10402,"åĩ¶":10403,"åĬŀçĲĨ":10404,"æł¹æºĲ":10405,"çī¹å¾ģæıĲåıĸ":10406,"å¼ĢæĶ¾çļĦ":10407,"Ġ60":10408,"çģ«èħ¿":10409,"ä¿®é¥°":10410,"ĠæĹ¶éĹ´":10411,"æĪĳä»¬åħ¬åı¸çļĦ":10412,"è´§è½¦":10413,"æĢ»æķ°":10414,"æľįåĬ¡è´¨éĩı":10415,"ĠåĿļæĮģ":10416,"åĭŁ":10417,"æķħäºĭçļĦ":10418,"æĦıè§ģåĴĮ":10419,"éĴĵé±¼":10420,"æĸ°æīĭ":10421,"äºĨè§£åĴĮ":10422,"æĹħè¡Įä¸Ń":10423,"åªļ":10424,"çķĻåľ¨":10425,"çĨŁéĢı":10426,"ï¼ļ\"":10427,"è§£åĨ³éĹ®é¢ĺçļĦæĸ¹æ³ķ":10428,"ĺèĽĽ":10429,"éĢīè´Ń":10430,"æĹłç©·":10431,"åĽłæŃ¤åı¯ä»¥":10432,"é¦ĻèĤł":10433,"800":10434,"é²ľèĬ±":10435,"å¼łæŁĲ":10436,"è¨ĪåĬĥ":10437,"çĪª":10438,"å»ºçŃĳåĴĮ":10439,"åı¯ä»¥åĪĨæŀĲ":10440,"èľĺèĽĽ":10441,"åĵĩ":10442,"æĶ¯æĮģåĴĮé¼ĵåĬ±":10443,"ä»¥æĽ´å¥½åľ°":10444,"æĽ´æ³¨éĩį":10445,"èľ¡":10446,"èĥĨåĽºéĨĩ":10447,"åĴĮæ³ķå¾ĭ":10448,"åķĨæłĩ":10449,"æ´»åĬ¨ä¸Ń":10450,"æĹħè¡ĮèĢħ":10451,"è´¢åĬ¡æĬ¥è¡¨":10452,"ç»Ħç»ĩçļĦ":10453,"æ¢³çĲĨ":10454,"åĴĮæİ¨å¹¿":10455,"ç¦»å©ļ":10456,"æĭĺçķĻ":10457,"å®ĺåħµ":10458,"æ³¨åħ¥":10459,"åŃĺåľ¨äºİ":10460,"æĺ¯ä¸ĢäºĽ":10461,"çĤ¼":10462,"åĲĦç±»":10463,"ä¹ĥ":10464,"åĬłä»¥":10465,"çļĦéĩįéĩı":10466,"ä¸Ģå¹ħ":10467,"çĶ¨äºĨ":10468,"å¼ĺ":10469,"èĢĮåıĪ":10470,"ä¸İä»ĸä»¬":10471,"Ġâī":10472,"ä»ĸä»¬éľĢè¦ģ":10473,"ä¿®çĲĨ":10474,"åī§æľ¬":10475,"äº¿åħĥ":10476,"76":10477,"ç»Ļäººä»¬":10478,"åħŃå¹´":10479,"çīĽä»Ķè£¤":10480,"æĦıæĦ¿":10481,"ç²¾ç¾İçļĦ":10482,"æĺ¯ä¸ŃåĽ½åı¤ä»£":10483,"ä¸įç¡®å®ļæĢ§":10484,"åıªæľīéĢļè¿ĩ":10485,"çļĦä»·åĢ¼":10486,"åĩ¸":10487,"åĳĬçŁ¥":10488,"âĢĿï¼ĮâĢľ":10489,"åĲ»":10490,"ä½ĵæ¸©":10491,"åĲĳæĪĳ":10492,"çĶ·å¥³":10493,"ä¹Łå¯¹":10494,"ä»ĸä»¬ä¼ļ":10495,"çĴ°å¢ĥ":10496,"åĴĮå¨±ä¹Ĳ":10497,"åľ¨çİ°ä»£":10498,"çĶ¨ä½ľ":10499,"æľºåĬ¨":10500,"ä¸İæĪĳ":10501,"ä¸Ģå¥Ĺ":10502,"åºĶå¯¹æ°ĶåĢĻåıĺåĮĸ":10503,"å®¢æ°Ķ":10504,"ç§ĳåĬ¨çī©":10505,"æĶ¶åħ¥åĴĮ":10506,"ç¶Ń":10507,"æ¸ħéĻ¤":10508,"æĬ½åıĸ":10509,"åĮ»çĸĹè¡Įä¸ļ":10510,"èµĽåŃ£":10511,"èģĶåĲĪåĽ½":10512,"çĮ´åŃĲ":10513,"ä¹¦åĨĻ":10514,"çİĭåĽ½":10515,"åħ¬æŃ£çļĦ":10516,"çļĦèģĶç³»":10517,"å··":10518,"åľ°åĲį":10519,"æĤ¨èĥ½":10520,"ä»ĸä»¬åı¯èĥ½ä¼ļ":10521,"è®¾è®¡æĸ¹æ¡Ī":10522,"Ġä¿ĥè¿Ľ":10523,"åīįéĿ¢":10524,"å¤©èµĭ":10525,"è´£ä»»æĦŁ":10526,"è®¾è®¡ä¸Ń":10527,"éĢıæ°Ķ":10528,"ä½©æĪ´":10529,"ç¥Ī":10530,"æ·±åİļ":10531,"æµ¸æ³¡":10532,"å°ĭ":10533,"æ»¿":10534,"åĨįåĪ©çĶ¨":10535,"äºīåıĸ":10536,"æıĲåįĩèĩªå·±çļĦ":10537,"æľºåĻ¨åŃ¦ä¹łæĺ¯ä¸Ģç§į":10538,"çļĦæľĢ":10539,"æĤĦ":10540,"æ¸©æļĸçļĦ":10541,"æ¬ºéªĹ":10542,"ä»Ļäºº":10543,"æįĲèµł":10544,"GPT":10545,"åĴĮä¸ĢäºĽ":10546,"æµģå¤±":10547,"ä¸İæŃ¤åĲĮæĹ¶":10548,"æĸĩåĮĸäº¤æµģ":10549,"åľ³":10550,"è¾Ī":10551,"åħ¥åı£":10552,"æ··ä¹±":10553,"æĺ¯åľ°çĲĥ":10554,"æ¶¤":10555,"åĩłæ¬¡":10556,"éªĳè¡Į":10557,"çĽ¸ä¼¼ä¹ĭå¤Ħ":10558,"æĢ»ä½ĵèĢĮè¨Ģ":10559,"ä¸ĵè¾ĳ":10560,"æĪĳä»¬æľī":10561,"åĻ¨çŃī":10562,"èĪŁ":10563,"è±ļ":10564,"ä¹Łæľīä¸ĢäºĽ":10565,"æĪĳä»¬ä¸įèĥ½":10566,"åĩıå°ĳç¢³æİĴæĶ¾":10567,"ä¸ĬåŃ¦":10568,"è¯·æĢ»ç»ĵ":10569,"å¼Ģå§ĭäºĨ":10570,"æĭĮåĮĢ":10571,"çļĦå½¢æĪĲ":10572,"å§ĭç»Īä¿ĿæĮģ":10573,"æĪĳå¾Īé«ĺåħ´":10574,"è¨Ģè®º":10575,"å¯¹ä½łæľīæīĢå¸®åĬ©":10576,"åĪ©çĶ¨AIæĬĢæľ¯":10577,"çĥ¤èĤī":10578,"æŃ¤èĩ´":10579,"æľ´ç´ł":10580,"ç®¡çĲĨç³»ç»Ł":10581,"åı°åĮĹ":10582,"çĽĸèĮ¨":10583,"ç¢ºå®ļ":10584,"ĠæĬķèµĦ":10585,"ĠÑ":10586,"çĹħåİĨ":10587,"å¤±è¸ª":10588,"åĹ½":10589,"åĴĮèĩªæĪĳ":10590,"åĵģåĳ³":10591,"åĮ¿åĲį":10592,"èĤ¡ä»½":10593,"åĪĨå¸ĥå¼ı":10594,"86":10595,"é¸ŃåŃĲ":10596,"ç§¯æŀģçļĦå½±åĵį":10597,"æĽ´åĸľæ¬¢":10598,"æĿĲæĸĻçļĦ":10599,"æ²³åįĹ":10600,"æ»ĳéĽª":10601,"åĪ©çļĦ":10602,"æĸĩæľ¬çļĦ":10603,"åºĶå¯¹æİªæĸ½":10604,"åıªæľīåľ¨":10605,"éĿ¢åīį":10606,"éĻĨåľ°":10607,"ä¿ĿæĬ¤æĪĳä»¬çļĦåľ°çĲĥ":10608,"å®ĥéĢļè¿ĩ":10609,"ä¸¤ä½į":10610,"åıĺå¾ĹæĽ´":10611,"åħ¬åı¸åĴĮ":10612,"æģ¶åĬ£":10613,"è¡ĮåĲĦ":10614,"åı¯èĥ½æľī":10615,"èĩªå·±çļĦçĽ®æłĩ":10616,"é»ĳå®¢æĶ»åĩ»":10617,"è¡·":10618,"åĲĳä¸ĭ":10619,"åıĪç§°":10620,"å®ŀä½ĵè¯ĨåĪ«":10621,"è¿ŀè´¯":10622,"æµ·åĨĽ":10623,"ä¸ĸçķĮæĿ¯":10624,"æĿĳæ°ĳ":10625,"çĶŁæľº":10626,"æłĩçĤ¹":10627,"å¹¿å¤§":10628,"è¿ľçļĦ":10629,"éĺŁçļĦ":10630,"ä¸´æĹ¶":10631,"çĻ»å½ķ":10632,"åı¤å¸ĮèħĬ":10633,"åŁİå¸ĤåĮĸ":10634,"é»Ħèī²çļĦ":10635,"çĽ¸éĤ»":10636,"æĭīä¼¸":10637,"æĪĳä¸įèĥ½":10638,"é«ĺäºİ":10639,"å¸®åĬ©çĶ¨æĪ·":10640,"æłĩè¯Ĩ":10641,"å®ŀçİ°çļĦ":10642,"ä¸ĭéĿ¢æĺ¯ä¸Ģ":10643,"æľŁå¾ħçĿĢ":10644,"ab":10645,"å°ĨæĿ¥":10646,"åİ»ä¸Ńå¿ĥ":10647,"ĊĠĠĠĠ":10648,"éļĲç§ģéĹ®é¢ĺ":10649,"çī©è´¨çļĦ":10650,"éĩİå¤ĸ":10651,"åĴĮè´¨éĩı":10652,"åĩıæ³ķ":10653,"çµĦ":10654,"çĭ¬ç«ĭçļĦ":10655,"éģ¿åħįåľ¨":10656,"çļĦè¶ĭåĬ¿":10657,"æĺŁç©º":10658,"æĪĳä»¬è¿ĺéľĢè¦ģ":10659,"ä»¥åıĬåħ¶ä»ĸ":10660,"æķħæĦı":10661,"ä»įçĦ¶æĺ¯":10662,"åĴ³åĹ½":10663,"åĸĤåħ»":10664,"çļĦäººæīį":10665,"ç»ıéªĮçļĦ":10666,"åĩºç§Łè½¦":10667,"å¹¶ä»¥":10668,"çıįè´µçļĦ":10669,"åı¯éĩįå¤į":10670,"ä½¿è®¡ç®Ĺæľº":10671,"æľīçĶ¨çļĦä¿¡æģ¯":10672,"éħ±æĸĻ":10673,"å¡ĳæĸĻæ±¡æŁĵ":10674,"å¹³çŃīçļĦ":10675,"è¿Ļæĺ¯ä¸Ģéĥ¨":10676,"çĸ¯":10677,"æŃ£æĸ¹å½¢":10678,"åĪĹè¡¨ä¸Ń":10679,"ç®Ģæ´ģæĺİäºĨ":10680,"ä¿ĿæĮģä¸ĵæ³¨":10681,"æŁĶéŁ§":10682,"åľ¨ç»Ļå®ļçļĦ":10683,"ä¼ģä¸ļåĴĮä¸ªäºº":10684,"ç¨įå¾®":10685,"åľ°è¯´":10686,"è¿ĺæ¬¾":10687,"å±±æ°´":10688,"çĽ¸ä¼¼çļĦ":10689,"èĽĻ":10690,"èįīåľ°":10691,"éķľå¤´":10692,"Bob":10693,"ä»ĳ":10694,"ä½łçŁ¥éģĵ":10695,"æĢĿæĥ³åĴĮ":10696,"orm":10697,"95":10698,"Ġ19":10699,"æ©ŁåĻ¨åŃ¸ç¿Ĵ":10700,"çļĦè®¡åĪĴ":10701,"å¦Ĥæŀľä½łçļĦ":10702,"åĲĦè¡ĮåĲĦ":10703,"éŃħ":10704,"DI":10705,"é£Łçī©åĴĮ":10706,"èĲ¥ä¸ļ":10707,"åĽĬ":10708,"å®½æĿ¾":10709,"ĠÙħ":10710,"ĠåĽłæŃ¤":10711,"åŁİéķĩ":10712,"åĪĻéľĢè¦ģ":10713,"æ¸ħæ´ģåīĤ":10714,"è·¯æ®µ":10715,"çļĦä¸Ńå¿ĥ":10716,"ç»Ļä¸Ģæ®µ":10717,"ç¬¬åįģ":10718,"çİ°ä»£åĮĸçļĦ":10719,"ç¾¤ä½ĵçļĦ":10720,"èīĺ":10721,"çº³ç±³":10722,"ä¸ļåĬ¡æµģç¨ĭ":10723,"çİĭæŁĲ":10724,"ç±»ä¼¼çļĦ":10725,"åĲĦä½į":10726,"ä¼ļåĳĺ":10727,"åľ¨è¿Ļä¸ªåı¥åŃĲä¸Ń":10728,"à¹Ģ":10729,"åĿļå¼º":10730,"å®Įæķ´æĢ§":10731,"åĴĮåı£æĦŁ":10732,"ä»£è¯į":10733,"å·¥ä½ľåĴĮçĶŁæ´»":10734,"çĹķ":10735,"åķĨä¸ļæ¨¡å¼ı":10736,"çŃ¾ç½²":10737,"éĢīæĭ©çļĦ":10738,"åĩıå°ĳäºĨ":10739,"å¼ķé¢Ĩ":10740,"éĩįåºĨ":10741,"ä¸İä½ł":10742,"ç¢§":10743,"å¹¶ä¸Ķåı¯ä»¥":10744,"æĪĳä»¬éľĢè¦ģå°Ĩ":10745,"çļĦç¢³":10746,"éħ¶":10747,"é¢ľæĸĻ":10748,"è¯¦ç»ĨçļĦè®¡åĪĴ":10749,"æ½ľæ°´":10750,"Ġå¹´":10751,"æĦ¿æľĽ":10752,"æĥĬäººçļĦ":10753,"ä¸ĭä¸ĢæŃ¥":10754,"åĲĦåľ°":10755,"æĬĢæľ¯çļĦä¸įæĸŃåıĳå±ķ":10756,"å®ŀæĹ¶çĽĳæµĭ":10757,"è¿Ļåº§åŁİå¸Ĥ":10758,"ä¸ĬçıŃ":10759,"éģĹè¿¹":10760,"åĽ½æ°ĳ":10761,"æĬķèµĦçŃĸçķ¥":10762,"æĩīè©²":10763,"æİĴæ°´":10764,"åĴĮå®¶åºŃ":10765,"åĲĦè¡ĮåĲĦä¸ļ":10766,"ä¸ºO":10767,"åį¸":10768,"è¿Ľè¡Įä¸ĢäºĽ":10769,"çĻ¼å±ķ":10770,"se":10771,"æŀģéĻĲ":10772,"è¿Ļæł·åı¯ä»¥è®©":10773,"åĲİéĿ¢":10774,"éļĬ":10775,"åĪĽç«ĭ":10776,"æ¯ĶèĲ¨":10777,"å½ĵäºĭäºº":10778,"æĸĩç«łåĨħå®¹":10779,"è´ŁéĿ¢çļĦ":10780,"æľĢå¤§åĢ¼":10781,"åĩīçĪ½":10782,"çŁ®":10783,"app":10784,"ĠåĪ¶ä½ľ":10785,"å²ģæľĪ":10786,"æĸ°åĨł":10787,"ä¹Łä¼ļå½±åĵį":10788,"èį£å¹¸":10789,"æİ¨æĸŃåĩº":10790,"çĶŁäºİ":10791,"æĪĸèĢħåľ¨":10792,"ç½ĳç«ĻçļĦ":10793,"æ£Ģå¯Ł":10794,"å¯ĨçļĦ":10795,"åĿļéŁ§":10796,"å¾®åįļ":10797,"AIçļĦåıĳå±ķ":10798,"çļĦå½±åĵįæĺ¯":10799,"éĮ":10800,"èĥ½å¤Łå¸®åĬ©ä½ł":10801,"æµ·æ°´":10802,"æİ¨èįĲçļĦ":10803,"éĺ»åĬĽ":10804,"ç»Ļä¸Ģæ®µæĸĩæľ¬åĨħå®¹":10805,"æĪĳä»¬ä¹Łåı¯ä»¥":10806,"çļĦç£":10807,"åĵĪåĵĪ":10808,"åŁºåĽłç¼ĸè¾ĳ":10809,"åĴĮèīºæľ¯":10810,"æ·±åľ³":10811,"ç¼ºå°ĳ":10812,"åŃ¦æł¡çļĦ":10813,"è´¤":10814,"åĿł":10815,"å®ĪæĬ¤":10816,"è©¹å§Ĩæĸ¯":10817,"å§¿æĢģ":10818,"æĴŀåĩ»":10819,"çī¹çĤ¹æĺ¯":10820,"XXXX":10821,"çĶľåĳ³":10822,"åĴĮè¿ĽæŃ¥":10823,"éĢıéľ²":10824,"åľ¨åĮ»åŃ¦":10825,"éĥĬ":10826,"åıĤèµĽ":10827,"çļĦè¡£æľį":10828,"èĩªå°Ĭ":10829,"æıĲä¾ĽçļĦä¿¡æģ¯":10830,"é£ŀè¡Įåĳĺ":10831,"åĲ¬èµ·æĿ¥ä¸įéĶĻ":10832,"å¾ĴæŃ¥æĹħè¡Į":10833,"æĿ¥æııè¿°":10834,"ç«Ń":10835,"å®ŀçĶ¨æĢ§":10836,"éĺ¿æĭīä¼¯":10837,"çļĦæĪĲæľ¬":10838,"èī¯å¥½çļĦçĿ¡çľł":10839,"è¼ĥ":10840,"åĬ©çĲĨ":10841,"äººä»¬ä¼ļ":10842,"æĹ¶è¦ģ":10843,"çĮ©":10844,"æĶ¿åºľçļĦ":10845,"åĳ¨åĽ´çİ¯å¢ĥ":10846,"æ³ķåĴĮ":10847,"çľĭæĿ¥":10848,"å¥½å¥ĩå¿ĥ":10849,"çļĦç´§å¼ł":10850,"åıĺèī²":10851,"å·¥ä½ľèĢħ":10852,"æĺ¯åĲ¦éľĢè¦ģ":10853,"é³ŀ":10854,"ä¸¤èĢħ":10855,"çĪ±åĴĮ":10856,"åħ¨çĲĥç»ıæµİ":10857,"éĤ»å±ħ":10858,"å°½æĥħ":10859,"è§£æŀĲ":10860,"éģĵçĲĨ":10861,"æıĲé«ĺåĮ»çĸĹ":10862,"éĢĹ":10863,"è¿ĺåİŁ":10864,"éĢ¸":10865,"ä¸ŃæīĢ":10866,"çĶµèį·":10867,"åīįè¡Į":10868,"èĭį":10869,"æĹ¥çļĦ":10870,"åıĳæĮ¥ä½ľçĶ¨":10871,"æŀ¶æŀĦ":10872,"äº¤ä»ĺ":10873,"æĭĤ":10874,"çļĦä½ĵéªĮ":10875,"ä¼Ĭæĸ¯":10876,"Ġéĺħè¯»":10877,"æıĲä¾Ľä¸Ģä»½":10878,"åľºä¸Ĭ":10879,"æĸĻçĲĨ":10880,"æ³ĽåĮĸ":10881,"åħ³èĬĤ":10882,"åĻ¨æ¢°":10883,"çļĦçĪ¶äº²":10884,"æ´Ĺæ¾¡":10885,"å¹´é¾Ħæ®µ":10886,"åı¯çĪ±çļĦ":10887,"æİ©":10888,"æŃĮè¯įçĶŁæĪĲ":10889,"æ²»æĦĪ":10890,"à¤¿":10891,"ä½łåı¯ä»¥å°Ŀè¯ķ":10892,"æľīåĩłä¸ª":10893,"å¯Ĥå¯ŀ":10894,"In":10895,"åį¿":10896,"å¾Īå°ĳ":10897,"AIç®Ĺæ³ķ":10898,"å®«æ®¿":10899,"å®½åº¦":10900,"äºĨè¿Ļä¸ª":10901,"èµĭäºĪ":10902,"æµģæĦŁ":10903,"åįĹåĮĹ":10904,"ç»Łè®¡åŃ¦":10905,"æĪĸèĢħæĺ¯":10906,"éĢıè¿ĩ":10907,"çļĦæķ°æį®éĽĨ":10908,"æ¸ħæĻ°åľ°":10909,"47":10910,"æ£ĺ":10911,"çļĦç¤¾åĮº":10912,"è¯Ħæµĭ":10913,"æĪĳåĴĮ":10914,"çīĩåĴĮ":10915,"æŃĮæĽ²çļĦ":10916,"å¦Ĥä½ķæıĲé«ĺ":10917,"Ġè®¾è®¡":10918,"ä¸ĳ":10919,"å¯¹æŃ¤":10920,"åĬłåĿ¡":10921,"åĽłåħ¶":10922,"çļĦä¸Ģé¡¹":10923,"åĪĨè¾¨":10924,"éĩįåĨĻ":10925,"æľĪåı°":10926,"æī¹åĪ¤":10927,"æĸ°çĶŁ":10928,"æĺ¯æĹ¥æľ¬":10929,"é£Łçī©çļĦ":10930,"å°Ĭä¸¥":10931,"è¡¨è¾¾åĩº":10932,"é£ŁåĵģåĴĮ":10933,"ä¹Łåı¯èĥ½ä¼ļ":10934,"èįīèį¯":10935,"æ°´éĩı":10936,"æŀģåħ·":10937,"çĤĴé¥Ń":10938,"æĺ¯ä¸įæĺ¯":10939,"åĭ¢":10940,"ç»ĵæŀľè¡¨æĺİ":10941,"æĦŁè§īåĪ°":10942,"çĽ®æłĩå¸Ĥåľº":10943,"éº»çĥ¦":10944,"ä¸ĢçĽ´æĺ¯":10945,"çļĦä¼ĺçĤ¹":10946,"ä¸įåı¯èĥ½":10947,"è°£":10948,"éĵ¶æ²³ç³»":10949,"å¯ĨéĽĨ":10950,"åı£åĳ³åĴĮ":10951,"é«ĺè¾¾":10952,"æµģæ´¾":10953,"æĮĩæİ§":10954,"æłĭ":10955,"æĽ²çº¿":10956,"è·ŁçĿĢ":10957,"å½±åĵįçĿĢ":10958,"æĶ¾åĪ°":10959,"ç¥ĿæĤ¨":10960,"ä½Ĩä¸įéĻĲäºİ":10961,"çļĦä¸ĢåĪĩ":10962,"çļĦè¡¨éĿ¢":10963,"æĺ¯ä¸Ģç¨®":10964,"å½©èī²":10965,"æľīåĬĽçļĦ":10966,"ä»¥ç¡®ä¿ĿæĤ¨çļĦ":10967,"å®ļäºĨ":10968,"Ġå°ıæĺİ":10969,"èŃ¦åĳĬ":10970,"èĤ¿çĺ¤":10971,"çĢĳå¸ĥ":10972,"çºĮ":10973,"èı²å°Ķéĵģå¡Ķ":10974,"åĴĮåİĭåĬĽ":10975,"éĿ¢åĲĳ":10976,"è¿ĺåĮħæĭ¬":10977,"åľ¨åĵªéĩĮ":10978,"çľĭèµ·æĿ¥æĽ´åĬł":10979,"è¢«çĶ¨æĿ¥":10980,"ç£ģåľº":10981,"åľ¨èģĮåľº":10982,"çªĹå¸ĺ":10983,"æįŀåĩº":10984,"èĥ½å¤Łæ»¡è¶³":10985,"éļıæĹ¶éļı":10986,"æīĢå¾Ĺç¨İ":10987,"ä½£":10988,"ä¸Ģå¼Ģå§ĭ":10989,"å¦ĤåĲĮ":10990,"éģĤ":10991,"éĢīæĭ©åĴĮ":10992,"è¿ĩåİ»çļĦ":10993,"çİ°æľīçļĦ":10994,"åĬłåħ¥éĢĤéĩı":10995,"åĲĪä½ľåħ³ç³»":10996,"çļĦä¸»è¦ģåİŁåĽł":10997,"åĽŀæĬ¥çİĩ":10998,"ä¿ĥéĶĢæ´»åĬ¨":10999,"éĽ¨æ°´":11000,"åľ¨è®Ńç»ĥ":11001,"è¿Ļä¸įä»ħ":11002,"BA":11003,"èµģ":11004,"æ´Ĺæ¶¤":11005,"æĬĳéĥģçĹĩ":11006,"æĹ¥ä¸ĭåįĪ":11007,"æĭįçħ§":11008,"çļĦæ®µèĲ½":11009,"æ²¥":11010,"ç¬¬ä¸īä¸ª":11011,"åīįæıĲ":11012,"èµ°è·¯":11013,"ç½ļæ¬¾":11014,"è¦ĭ":11015,"æĸ°åĬłåĿ¡":11016,"æ¯Ķåħ¶ä»ĸ":11017,"åĨľåİĨ":11018,"å½¼å¾Ĺ":11019,"åľ¨åħ¶":11020,"ä¿ĿèŃ·":11021,"å°Ķæĸ¯":11022,"èİ·èĥľ":11023,"ä¸ºç¤¾ä¼ļ":11024,"åĪĨå¼Ģ":11025,"çļĦçŁ¥è¯ĨåĴĮæĬĢèĥ½":11026,"å¿ĥèĤºåĬŁèĥ½":11027,"ä½İäºİ":11028,"ç§Łèµģ":11029,"åĸľå¥½åĴĮ":11030,"æĳĩæ»ļ":11031,"æĳ©æīĺè½¦":11032,"çī¹æķĪ":11033,"å¤§æµ·":11034,"ä½ĨçĶ±äºİ":11035,"å¤ĸçº¿":11036,"çº¦æĿŁ":11037,"ä¸įè¢«":11038,"æĪĲå¹´äºº":11039,"åľ¨æĪĳä»¬çļĦ":11040,"è¡Įä¸ļåĴĮ":11041,"è±Ĩçĵ£éħ±":11042,"ä»£è¡¨æĢ§çļĦ":11043,"é¼ĵåĬ±äººä»¬":11044,"å¹³åı°ä¸Ĭ":11045,"èĳĽ":11046,"äººå·¥æĻºèĥ½æĬĢæľ¯çļĦåºĶçĶ¨":11047,"ä¸ŃåĮ»":11048,"è®©æĤ¨çļĦ":11049,"åĸ®":11050,"çĶŁæ´»åĴĮå·¥ä½ľ":11051,"æ²¡éĹ®é¢ĺ":11052,"æĹ¶éľĢè¦ģ":11053,"æĹħéĢĶä¸Ń":11054,"æŃ£æĸĩ":11055,"å¤ĦçĲĨåĴĮåĪĨæŀĲ":11056,"ä½ľèĢħå¯¹":11057,"ä¸ŃåĽ½äººæ°ĳ":11058,"ç¾İåĽ½çļĦ":11059,"ä¸Ģæ®µæĸĩæľ¬":11060,"ç£ħ":11061,"æĺ¯ä¸Ģåıª":11062,"æ·±çļĦ":11063,"å¤ªå¥½äºĨ":11064,"ä¸ŃåĽ½æĸĩåĮĸ":11065,"BazingaçļĦ":11066,"ï½ŀ":11067,"åĪĨè§£ä¸º":11068,"èĦĬæ¤İ":11069,"çī¹çļĦ":11070,"çĮľæµĭ":11071,"ä¼¤äº¡":11072,"ä¸ĸçķĮåĲĦåľ°çļĦ":11073,"åİĮ":11074,"Ð¿":11075,"çļĦç¡¬":11076,"à¸ģ":11077,"åī¥":11078,"å¸«":11079,"è¯Ńè°ĥ":11080,"éĻĲåº¦":11081,"æĬĬå®ĥ":11082,"ä¸Ńæī¾åĪ°":11083,"ä¹Łå¼Ģå§ĭ":11084,"çļĦçĥŃéĹ¨":11085,"Ġ\\":11086,"é£ĵ":11087,"ç¡ķ":11088,"å¢ŀå¼ºçİ°å®ŀ":11089,"åıªæľīè¿Ļæł·":11090,"è¿Ļå°±":11091,"æİ¨éĶĢ":11092,"ä¸įæĸŃå¢ŀåĬł":11093,"åĩıè½»åİĭåĬĽåĴĮçĦ¦èĻĳ":11094,"ä¸ĢäºĽæĸ°çļĦ":11095,"åŁİå¸Ĥäº¤éĢļ":11096,"æĬĢèĥ½åĴĮç»ıéªĮ":11097,"çļĦåħ³éĶ®è¯į":11098,"æ³¢éķ¿":11099,"èī°éļ¾":11100,"ä¿Ŀå¯Ĩ":11101,"éļıä¹ĭ":11102,"åı¯ä»¥è¯´":11103,"çº³ç¨İ":11104,"Ġå¯»æ±Ĥå¸®åĬ©":11105,"æ°Ķåİĭ":11106,"æĳ§":11107,"é¡¹çĽ®ä¸Ń":11108,"è¿ŀæİ¥åĪ°":11109,"ä¸ºæĤ£èĢħ":11110,"çļĦçłĶåıĳ":11111,"çĪµå£«":11112,"é¥¥":11113,"æĸ¯æŀĹ":11114,"åİĨåı²æĤłä¹ħ":11115,"çĨ¬":11116,"éĢĥç¦»":11117,"78":11118,"çļĦç»ıåħ¸":11119,"å¼ºå£®":11120,"éĢıæĺİçļĦ":11121,"æĹłéĻĲçļĦ":11122,"åħ±äº§åħļ":11123,"éªĳè½¦":11124,"åı¯è§£éĩĬæĢ§":11125,":âĢľ":11126,"å¤ĸäº¤":11127,"åĩıå°ĳæ¸©å®¤æ°Ķä½ĵæİĴæĶ¾":11128,"æĶ¶éĽĨåĴĮåĪĨæŀĲ":11129,"é£ĵé£İ":11130,"Ġæİ¨å¹¿":11131,"èµĮ":11132,"å°ıæķ°":11133,"éħĴåĲ§":11134,"èģ¯":11135,"åŃĲå¥³":11136,"åĹħ":11137,"æĺ¯å½ĵä»Ĭ":11138,"åĪĽéĢłæĸ°çļĦ":11139,"æĦ¿æĻ¯":11140,"çļĦç¦ı":11141,"ĠæĢ»":11142,"èµ°åĪ°":11143,"æ²³åĮĹ":11144,"æ©¡çļ®":11145,"ä¸Ļ":11146,"æĶ¾æĿ¾èº«ä½ĵåĴĮ":11147,"èī¾ç±³ä¸½":11148,"çļĦè®¡ç®Ĺ":11149,"è¥¿éĥ¨":11150,"æĪĳçļĦå¿ĥ":11151,"çĶŁéķ¿åĴĮ":11152,"æ¢¯åº¦":11153,"ç¸½ä¹ĭ":11154,"çĭĢ":11155,"èĻ«å®³":11156,"éķ¿æĹ¶éĹ´çļĦ":11157,"æĺ¯åĲ¦ä¼ļ":11158,"æĩĴ":11159,"ï¼ļ[":11160,"å¥ĩå¹»":11161,"ä¸Ģç¾¤":11162,"ä¸ĢåıĮ":11163,"åľ¨æĪĳä»¬":11164,"å·©":11165,"å°Ĩæķ°æį®":11166,"æ±½è½¦çļĦ":11167,"æ°¸æģĴ":11168,"éĩĬæĶ¾åĩº":11169,"æ½®æ¹¿":11170,"ä¸Īå¤«":11171,"å¹¾":11172,"ä»·åĢ¼è§ĤåĴĮ":11173,"ä¸ºå®¢æĪ·æıĲä¾Ľ":11174,"å»ºçŃĳçļĦ":11175,"çĮ«çļĦ":11176,"æľºåĻ¨äººåĴĮ":11177,"æĺ¯åħ¨çĲĥ":11178,"æĴ¼":11179,"åıĸä»£äººç±»":11180,"ä¸»èıľ":11181,"æīĵç²ī":11182,"çļĦç¬¬ä¸Ģä¸ª":11183,"å·ŀçļĦ":11184,"å¹¼åĦ¿":11185,"åıĳæĮ¥èĩªå·±çļĦ":11186,"ä¿¯åį§":11187,"æĬ¤èĤ¤":11188,"åĥıæĺ¯":11189,"åĥıäººç±»":11190,"Ġ14":11191,"çªĿ":11192,"èĳ±èĬ±":11193,"ÑĤÐ°":11194,"ä¼´éļıçĿĢ":11195,"æĹłè®ºæĤ¨":11196,"èĴľæľ«":11197,"çļĦç¯":11198,"å¹´åľ¨":11199,"çĦ¦èĻĳåĴĮåİĭåĬĽ":11200,"åºĶçĶ¨çļĦ":11201,"åı¯ä»¥å¸®åĬ©åŃ¦çĶŁ":11202,"çĥĽ":11203,"èĪĴéĢĤåº¦":11204,"äºĽä»Ģä¹Ī":11205,"è¾ĥå°ıçļĦ":11206,"åĪĨç±»åĴĮ":11207,"åİĨåı²ä¸ĬçļĦ":11208,"æ¯ıä»½":11209,"è¿ĲåĬ¨éŀĭ":11210,"åĽŃæŀĹ":11211,"é¸¡èħ¿":11212,"åĨĻåĩº":11213,"ç¾¤å²Ľ":11214,"ä¸Ńç§ĭ":11215,"åİŁæĸĩ":11216,"è§£åĨ³æĸ¹æ³ķ":11217,"éĿŀå¸¸åĩºèī²":11218,"çĶŁæ´»ä¹łæĥ¯":11219,"æľªä¾Ĩ":11220,"çİ¯ä¿Ŀæİªæĸ½":11221,"åıĭå¥½çļĦ":11222,"åĲĮæĹ¶ä¹Łè¦ģ":11223,"æĹłåħ³":11224,"åį·ç§¯":11225,"ä»¥ä½¿":11226,"è°¦":11227,"æĭīä¸ģ":11228,"ç§įç§į":11229,"600":11230,"çļĦèīºæľ¯":11231,"ç¾İå®¹":11232,"æĥ³èµ·":11233,"äºĳåįĹ":11234,"1990":11235,"Ġæ¸¸æĪı":11236,"äººé¡ŀ":11237,"çī²":11238,"å¤ĸè²Į":11239,"è§£éĩĬä¸Ģä¸ĭ":11240,"åµĮ":11241,"Fi":11242,"å°Ĩæĺ¯":11243,"éĺ®":11244,"é¼»åŃĲ":11245,"ä½¿çĶ¨æľºåĻ¨åŃ¦ä¹łç®Ĺæ³ķ":11246,"åĥ§":11247,"é»ĳèī²çļĦ":11248,"ç»ĥä¹łåĴĮ":11249,"åĺ¿":11250,"ç«ŀèµĽ":11251,"à¸ĩ":11252,"çĽ¸åħ³æĢ§":11253,"ä¾ĭåŃĲä¸Ń":11254,"æĿ¥åĪ°äºĨ":11255,"å¸ĤåĮº":11256,"åħĪå°Ĩ":11257,"è®ºåĿĽ":11258,"ä¸ŃæıĲåıĸ":11259,"çŃĴ":11260,"çĽ£":11261,"Ġå°Ĭéĩį":11262,"å¤ļå°ĳä¸ª":11263,"å®ĥè¿ĺ":11264,"è´µæĹı":11265,"ĠæĽ´åĬł":11266,"äºĨä¸Ģå®¶":11267,"ä¸įåĪ©":11268,"ä¹Łä¸įä¼ļ":11269,"å¤©åłĤ":11270,"ä¸ŃçļĦåħ³éĶ®è¯į":11271,"æĤ¬æĮĤ":11272,"çļĦå®īåħ¨åĴĮ":11273,"æ¸©æļĸåĴĮ":11274,"Î¹":11275,"é«ĺå³°":11276,"ç¯¡":11277,"åĢ¾æĸľ":11278,"è¿Ļåı¯èĥ½åĮħæĭ¬":11279,"æ±ª":11280,"åĲįè¨Ģ":11281,"ä»£æķ°":11282,"åĪĽå§ĭ":11283,"äººç±»è¯Ńè¨Ģ":11284,"åĦĴå®¶":11285,"äººåĢĳ":11286,"å¼łåħĪçĶŁ":11287,"pe":11288,"Ġçº¢":11289,"æĽ´æľīæķĪçļĦ":11290,"æ´»æ³¼":11291,"æ²¡éĶĻ":11292,"ç»¿åĮĸ":11293,"åŁ¹è®ŃåĴĮ":11294,"å¡ĳæĸĻåŀĥåľ¾":11295,"ä¸įåĲĮä¹ĭå¤Ħ":11296,"ç®¡éģĵ":11297,"åı¯éĿłæĢ§åĴĮ":11298,"åĲķ":11299,"ç¾©":11300,"äºĨä¸Ģæ¬¡":11301,"ä»¥å¸®åĬ©æĤ¨":11302,"éĢģåĪ°":11303,"ä¸įå¾Ĺä¸į":11304,"ä¸ĢåĲĮ":11305,"éľĢè¦ģä¸Ģå®ļçļĦ":11306,"äº¤éĢļæĸ¹å¼ı":11307,"è«ĸ":11308,"åĬ£åĬ¿":11309,"èĤīè´¨":11310,"å»¶è¿Ł":11311,"æŃ£å¸¸çļĦ":11312,"åįĳ":11313,"åħĭæľįåĽ°éļ¾":11314,"ä»ĻäººæİĮ":11315,"å·¥ä½ľçİ¯å¢ĥ":11316,"åĽłä¸ºä»ĸ":11317,"æ´ŀå¯Ł":11318,"çĨŁç»ĥ":11319,"è½»çĽĪ":11320,"æ¼Ķåıĺ":11321,"est":11322,"æĸĩåĮĸèĥĮæĻ¯":11323,"å¯¨":11324,"èµĲ":11325,"å¦Ĥæŀľæĺ¯":11326,"åĩĨç¡®åĴĮ":11327,"ç»ıæµİåĴĮç¤¾ä¼ļ":11328,"çĽ¸ç¬¦":11329,"ç»ıæµİåŃ¦":11330,"çļĦçĥ¤ç®±":11331,"å¤§æ¡¥":11332,"æ´»æĢ§":11333,"æ¤įè¢«":11334,"ä»ĸçļĦä½ľåĵģ":11335,"2003":11336,"èĭ±è¯Ńåı£è¯Ń":11337,"çŃīæİªæĸ½":11338,"å®ĮæĪĲå·¥ä½ľ":11339,"æĪĲåĬŁçļĦåħ³éĶ®":11340,"é²ľæĺİ":11341,"æĿ¥äºĨè§£":11342,"æīĢè°ĵ":11343,"æ²¹çĶ»":11344,"æĮĳæĪĺæĢ§çļĦ":11345,"ä»¥ä¸ĭæĺ¯åħ³äºİ":11346,"æĢĿç»´åĴĮ":11347,"æľºéģĩåĴĮæĮĳæĪĺ":11348,"æŀĹåĮ¹":11349,"éĴ¥åĮĻ":11350,"è®¡åĪĴçļĦ":11351,"æĿĥå¨ģ":11352,"ä»¥ä¸ĬçļĦ":11353,"ĠÐ½":11354,"ç«ŀæĬĢ":11355,"çĭ©çĮİ":11356,"å¾ĹåĪ°å¹¿æ³ĽåºĶçĶ¨":11357,"åħ¸åŀĭçļĦ":11358,"çĶ¨è¯į":11359,"äºĶç§į":11360,"åĲĮæĹ¶ä¹ŁéľĢè¦ģ":11361,"è¦ģåľ¨":11362,"å¤§å°ıåĴĮ":11363,"è±¡å¾ģçĿĢ":11364,"åīªåĪĢ":11365,"ĠçĶ¨æĪ·":11366,"ä¾Ŀæ¬¡":11367,"Ġ40":11368,"Ġæ°´æŀľ":11369,"å¹¶ä½¿":11370,"æľĢéĩįè¦ģçļĦä»»åĬ¡":11371,"è¯ģäºº":11372,"æĵįä½ľç³»ç»Ł":11373,"æľįåĬ¡çļĦ":11374,"èĬ±äºĨ":11375,"çļĦè®Ńç»ĥ":11376,"ç»Ļå®ļä¸Ģç»Ħ":11377,"åĲİæľŁ":11378,"åħīèĬĴ":11379,"åĽ¢éĺŁæĪĲåĳĺä¹ĭéĹ´çļĦ":11380,"åįİçĽĽ":11381,"å¤§èĩªçĦ¶çļĦ":11382,"æ²ŁéĢļèĥ½åĬĽ":11383,"åĪĨäº«èĩªå·±çļĦ":11384,"ä¸»è¦ģåĨħå®¹":11385,"ä¼ĳæģ¯åĴĮæĶ¾æĿ¾":11386,"éĩĮç¨ĭç¢ĳ":11387,"æĦıå¼ı":11388,"åįķåħĥ":11389,"è¿ĺæľīä¸Ģä¸ª":11390,"æ·±æ·±åľ°":11391,"åĢĻéĢīäºº":11392,"çķ«":11393,"ç»ĺåĪ¶":11394,"è¯·éĹ®æĤ¨":11395,"å°ĳæķ°æ°ĳæĹı":11396,"è¿Ļä¸īä¸ª":11397,"å¢ĥåĨħ":11398,"éŁ³åĵį":11399,"æħĭ":11400,"çİ°ä»£ç§ĳæĬĢ":11401,"è¿Ļä¼ļ":11402,"ä½¿çĶ¨ä¸ĢäºĽ":11403,"éĴ±åĮħ":11404,"çĥ¤é¸Ń":11405,"å¤ļä¸ªåĽłç´ł":11406,"è¿Ŀçº¦":11407,"éĦ":11408,"æµ©":11409,"åĮħæĭ¬ä½Ĩä¸įéĻĲäºİ":11410,"çĦ¶åĲİåľ¨":11411,"è§£éĩĬä»Ģä¹Īæĺ¯":11412,"æ³¡æ²«":11413,"çļĦå¢ŀéķ¿":11414,"è¿Ļåı¯èĥ½å¯¼èĩ´":11415,"åľŁæĺŁ":11416,"æĮ¯åĬ¨":11417,"ä¸Ģå¯¹":11418,"çĦ¶åĲİçĶ¨":11419,"æıĲé«ĺçĶŁäº§æķĪçİĩ":11420,"äººæĢ§çļĦ":11421,"åı¯èĥ½æĹłæ³ķ":11422,"æĽ¾åľ¨":11423,"ç¾ĬèĤī":11424,"æĸĩæľ¬ä¸ŃçļĦåħ³éĶ®è¯į":11425,"æľĢåĸľæ¬¢":11426,"æĺ¯ä¸Ģç§įå¸¸è§ģçļĦ":11427,"çļĦäººéĻħ":11428,"åĴĮåĬŁèĥ½":11429,"ä¼ģä¸ļåºĶè¯¥":11430,"å¤©æ°Ķé¢ĦæĬ¥":11431,"ÑĮ":11432,"åľ¨éĿ¢å¯¹":11433,"åı¯èĥ½æľĥ":11434,"å±ĤéĿ¢":11435,"æĸ°æĬĢèĥ½":11436,"æłĳæŀĿ":11437,"ä»¥åĲ¸å¼ķ":11438,"éļ§":11439,"èĥ½å¤ŁéĢļè¿ĩ":11440,"éħįä»¥":11441,"æĳĨæĶ¾":11442,"åĴĮæī§è¡Į":11443,"éĺ²å®Ī":11444,"èĬĤçº¦çĶ¨æ°´":11445,"åĴĮåĲĪä½ľ":11446,"æĸ°éĹ»æĸĩç«ł":11447,"å·¨å¤§çļĦå½±åĵį":11448,"å¾Īå¥½åľ°":11449,"çļĦçĹĽ":11450,"åĴĮå®ĮåĸĦ":11451,"æīĭå¥Ĺ":11452,"å®¡åĪ¤":11453,"ä¸Ģç§įæĸ°åŀĭ":11454,"ĠåĮ»çĸĹ":11455,"çļĦåĲįåŃĹ":11456,"çļĦè±¡å¾ģ":11457,"æľºç¥¨":11458,"åĲįåįķ":11459,"åŀĥåľ¾æ¡¶":11460,"åŁºåĩĨ":11461,"åİ»çľĭ":11462,"å¼Ģå§ĭä½įç½®":11463,"ä¿¯åį§æĴĳ":11464,"âĢĿ,":11465,"åĨĻä¸ĭ":11466,"å®«ä¿Ŀ":11467,"è²»":11468,"æĦģ":11469,"è®¿éĹ®æİ§åĪ¶":11470,"å£®è§ĤçļĦ":11471,"Ġå½ĵ":11472,"ç²īä¸Ŀ":11473,"æłĩçĤ¹ç¬¦åı·":11474,"Ġr":11475,"çļĦçĶ¨æĪ·":11476,"ä½ľæģ¯":11477,"å¤§ä¼ļ":11478,"ä¸Ģç§įæĸ°çļĦ":11479,"ä¸ĵä¸ļäººåĳĺ":11480,"äºĨä¸Ģä»½":11481,"åģļåĩºæĽ´":11482,"è¸¢":11483,"å°ģå»º":11484,"éĢĤåº¦çļĦ":11485,"ç»Ĵ":11486,"çĶŁæ´»åĴĮ":11487,"å¤§å°ıçļĦ":11488,"æ®ĭçĸ¾":11489,"åįİçĽĽé¡¿":11490,"éĬ":11491,"éĹ¨ç¥¨":11492,"åĳĬè¯īä½ł":11493,"ç¿»è¯ĳæĪĲ":11494,"ä¼ĺæĥłåĪ¸":11495,"åı¤è¿¹":11496,"çĥģ":11497,"æĢ»éĥ¨":11498,"é²į":11499,"æĪĸè®¸":11500,"çĭŃ":11501,"å¢ŀè¿Ľ":11502,"è¿Ļæł·åģļ":11503,"åıĹåĪ°å½±åĵį":11504,"äººå·¥æĻºèĥ½åľ¨åĮ»çĸĹé¢ĨåŁŁçļĦåºĶçĶ¨":11505,"å¹¶å¼Ģå§ĭ":11506,"åħ»åĪĨ":11507,"è¯ŃéŁ³è¯ĨåĪ«åĴĮ":11508,"èĩªåĬ¨é©¾é©¶æĬĢæľ¯":11509,"èĨ³é£Łçº¤ç»´":11510,"çļĦç«ĭåľº":11511,"è¿Ļä¸ªä¸ĸçķĮ":11512,"éĩıåŃĲè®¡ç®Ĺ":11513,"Ġto":11514,"åģļå¾Ĺ":11515,"ä¸»æĮģäºº":11516,"æ²¹èĦĤ":11517,"ä¿®å»º":11518,"æķĻèĤ²åĴĮåŁ¹è®Ń":11519,"äººå·¥æĻºèĥ½æĺ¯ä¸Ģç§į":11520,"ä¸»ä¹īèĢħ":11521,"çĶŁåŃĺçİ¯å¢ĥ":11522,"åĩĮæĻ¨":11523,"åıįåĲĳ":11524,"ä¹ŁåŃĺåľ¨ä¸ĢäºĽ":11525,"åĢŁæ¬¾":11526,"å´©æºĥ":11527,"ãĢĤ'":11528,"å°ĨæľīåĬ©äºİ":11529,"é¡ºåºıæİĴåĪĹ":11530,"æµĵç¼©":11531,"çĽ®åĩ»":11532,"æĮĩéĴĪ":11533,"å§ĳå¨ĺ":11534,"ä»İèĢĮå½±åĵį":11535,"å®½æķŀ":11536,"æĦŁæ¿Ģä¹ĭæĥħ":11537,"åĮĸç®Ģ":11538,"æĸĩæľ¬æķ°æį®":11539,"2001":11540,"èĢĲåĬĽ":11541,"åľ¨éĩĳèŀįé¢ĨåŁŁ":11542,"ä¸įåĲĮç±»åŀĭ":11543,"æĥħæ³ģ":11544,"ç½ĳåıĭ":11545,"æĬķèµĦåĨ³çŃĸ":11546,"èŁ¹":11547,"åĴĮè¶ĭåĬ¿":11548,"æĽ´åĬłç¾İå¥½":11549,"åŃ¦çĶŁä»¬":11550,"çļĦåºĶçĶ¨ç¨ĭåºı":11551,"çļĦæķĪçİĩåĴĮ":11552,"ç·ļ":11553,"ä¸ŃåįĪ":11554,"ä¸Ģä¸ªæĸ°çļĦ":11555,"é¥°åĵģ":11556,"æľĢå¤§éĻĲåº¦":11557,"æĪĲç«ĭäºİ":11558,"æĸĩåĮĸå·®å¼Ĥ":11559,"Ġåħ¬åı¸":11560,"åĴĮåĨ²çªģ":11561,"æĹłçĽĳçĿ£åŃ¦ä¹ł":11562,"æĺ¯åĲ¦æŃ£ç¡®":11563,"çļĦä¼łæĴŃ":11564,"å·¥ä½ľæĹ¶éĹ´":11565,"å¾®è§Ĥ":11566,"åĲĪè§Ħ":11567,"çī¹è´¨":11568,"è®®ä¼ļ":11569,"ç¤¾ä¼ļéĹ®é¢ĺ":11570,"æ¿Ģåħī":11571,"æłĳçļĦ":11572,"éĹ·":11573,"å¸®åĬ©ä¼ģä¸ļ":11574,"ç¼©å°ı":11575,"ä»ĸä»¬èĥ½å¤Ł":11576,"çīĩæ®µ":11577,"è¦ģç¡®ä¿Ŀ":11578,"æĿ¥èİ·å¾Ĺ":11579,"å¸®ä½ł":11580,"çĥ·":11581,"è¥¿åįĹ":11582,"è¿Ļé¦ĸæŃĮ":11583,"çĺ¦èĤī":11584,"ä»¥èİ·åıĸ":11585,"äººä¸İ":11586,"æĪĳæľĢåĸľæ¬¢çļĦ":11587,"ä½łåı¯ä»¥éĢļè¿ĩ":11588,"è´¨æĦŁ":11589,"ãĢĤâĢĿ<|":11590,"åºĬä¸Ĭ":11591,"æĮĳæĪĺåĴĮåĽ°éļ¾":11592,"ç§ĴéĴŁ":11593,"æ·±æµ·":11594,"âĢ¢":11595,"ç®Ģç§°":11596,"å¸¦æĿ¥äºĨè®¸å¤ļ":11597,"é¢Ħéĺ²çĸ¾çĹħ":11598,"åĴĮä»»åĬ¡":11599,"æĥħäºº":11600,"ç¨»":11601,"è®¡ç®Ĺæľºç¨ĭåºı":11602,"çº·çº·":11603,"æĪĳä¸ºæĤ¨":11604,"ç¨³åģ¥":11605,"ç»£":11606,"ä¸ºä¾ĭ":11607,"è¯įæĢ§":11608,"æĽ´å¤ļä¿¡æģ¯":11609,"æ£®æŀĹéĩĮ":11610,"App":11611,"è¶Ĭå¤§":11612,"çĻ¾å¹´":11613,"èĽĭçĻ½è´¨åĴĮ":11614,"ç¤¾äº¤åªĴä½ĵåĴĮ":11615,"å¹¶èĥ½å¤Ł":11616,"åĪĴåĪĨä¸º":11617,"æĤ¨åı¯ä»¥æł¹æį®èĩªå·±çļĦ":11618,"éľĩæĴ¼":11619,"çļĦçĬ¯":11620,"æĪªèĩ³":11621,"åĪĽä¸ļèĢħ":11622,"æľīä¸įåĲĮ":11623,"éĹªçĥģ":11624,"Ð·":11625,"æĪĲä¸ºäºĨä¸Ģä¸ª":11626,"éĩĩåıĸäºĨ":11627,"æľīåĬĽ":11628,"å·¥ä½ľæ³ķ":11629,"çľŁçĽ¸":11630,"åĽŀçŃĶä¸ĭéĿ¢":11631,"èĪŀèĢħ":11632,"åĲĪçĲĨå®īæİĴ":11633,"æĭīæĸ¯":11634,"åĲĵ":11635,"åįĹçĵľ":11636,"è¡ĮåĬ¨è®¡åĪĴ":11637,"å°±åľ¨":11638,"æľĢåĲİä¸Ģä¸ª":11639,"çļĦçĲĨè§£":11640,"è¿Ļæľ¬":11641,"æĻºåķĨ":11642,"åıªéľĢ":11643,"ub":11644,"æĪĲè¯Ń":11645,"äººå·¥æĻºèĥ½å·²ç»ı":11646,"å¹¶ä¸Ķèĥ½å¤Ł":11647,"ä½įç½®åĴĮ":11648,"ç¾İé£ŁåĴĮ":11649,"èĮİ":11650,"æµģè¡ĮéŁ³ä¹Ĳ":11651,"æĸ¹éĿ¢çļĦåºĶçĶ¨":11652,"çħ§å°Ħ":11653,"Ġä»İ":11654,"ç²¾å¿ĥ":11655,"ä½įäºİä¸ŃåĽ½":11656,"æľīå®³çī©è´¨":11657,"ç¤¾æľĥ":11658,"ä¿ĿæĮģç§¯æŀģ":11659,"çĶ¨æĪ·éľĢæ±Ĥ":11660,"è´Łè´£äºº":11661,"ĠØ¨":11662,"æĺİåªļ":11663,"çĶµè§ĨèĬĤçĽ®":11664,"ä¸Ńè¿Ľè¡Į":11665,"å»ºè®®åľ¨":11666,"æľĽè¿ľ":11667,"çİĭæľĿ":11668,"èĶ¡":11669,"çļĦå¤ĦçĲĨ":11670,"è°İ":11671,"èıĬ":11672,"åı¯ä»¥è®©äººä»¬":11673,"éĢıæĺİåº¦åĴĮ":11674,"äºĮåıī":11675,"æİ§åĪ¶ç³»ç»Ł":11676,"æĽ¾ä»»":11677,"ä¼ĺåħĪå¤ĦçĲĨ":11678,"çļĦçĪ¶æ¯į":11679,"è¯ģä¹¦":11680,"èĢ³æľº":11681,"ri":11682,"æ¨¡åĿĹ":11683,"éĺĲæĺİ":11684,"Ġç¡®è®¤":11685,"æĿ¥åŃ¦ä¹ł":11686,"éķ¿åº¦ä¸º":11687,"è¶Ĭé«ĺ":11688,"æĺ¯ä¸Ģä¸ªéĩįè¦ģçļĦ":11689,"éĵŃ":11690,"éĩįå¤§å½±åĵį":11691,"åľ°æ¯¯":11692,"éľĢè¦ģæĹ¶":11693,"æĦŁå®ĺ":11694,"æĿ¥è§£åĨ³è¿Ļä¸ªéĹ®é¢ĺ":11695,"ä¸ºé£Ł":11696,"éģĵæŃī":11697,"åŃķå¦ĩ":11698,"åĴĮå¼¦":11699,"æīĭåĨĮ":11700,"æĹłèģĬ":11701,"çŁ¥è¯ĨåĴĮ":11702,"å»ºè®®éĢīæĭ©":11703,"äººä»¬åºĶè¯¥":11704,"ello":11705,"é¸¡ç²¾":11706,"åĲĦèĩªçļĦ":11707,"åı¯ä»¥æĽ´åĬł":11708,"ä½¿æĪĳä»¬":11709,"çļĦæĹ¶éĹ´åĨħ":11710,"è¯·æĤ¨":11711,"è½¨è¿¹":11712,"åĪĩç¢İçļĦ":11713,"å¤§çģ«":11714,"æķ°åįĥ":11715,"ç»ĵäº¤":11716,"åľ¨åŃ¦æł¡":11717,"å®ŀä¾ĭ":11718,"æĪ¿ä»·":11719,"æ¯ıæĻļ":11720,"æµ·æµª":11721,"æĭ¿éĵģ":11722,"åģļå¥½åĩĨå¤ĩ":11723,"åĴĮæ±¡æŁĵ":11724,"æĻºèĥ½çļĦ":11725,"åĮħè£¹":11726,"åĻ¬":11727,"2002":11728,"çĽ¸æ¯Ķä¹ĭä¸ĭ":11729,"è©ķä¼°":11730,"å»ºè®®åĲĹ":11731,"é©¬ä¸Ĭ":11732,"SA":11733,"å¹¶ä¸įä¼ļ":11734,"éĢļå¸¸æľī":11735,"è¿Ļç§įè¡Įä¸º":11736,"èĮĥåĽ´åĨħçļĦ":11737,"å¹³çŃīåĴĮ":11738,"çļĦç³ĸæŀľæķ°":11739,"ä¸¸":11740,"é¢ĺæĦı":11741,"çļĦç¥ŀç§ĺ":11742,"ä¿Ĭ":11743,"æĽ´ä½İ":11744,"æĸĩæ¡Ī":11745,"è¿Ľåº¦åĴĮ":11746,"èĭ¥å¹²":11747,"é£İåĬĽ":11748,"è£ķ":11749,"ç¯ĩå°ıè¯´":11750,"æ¤įæłĳ":11751,"æ¯ķä¸ļäºİ":11752,"åĿĿ":11753,"äººç±»å¯¹":11754,"éĻ¨":11755,"æĪĸå¤ļä¸ª":11756,"äºĨä¸Ģä½į":11757,"ax":11758,"è®°è½½":11759,"è¥¿å®ī":11760,"åİĨåı²äºĭä»¶":11761,"åĪ¶ä½ľæŃ¥éª¤":11762,"1997":11763,"æıŃç¤ºäºĨ":11764,"ä¼ļæł¹æį®":11765,"åĲĦé¡¹":11766,"åŁİå¢Ļ":11767,"ä¹ĭéĹ´åŃĺåľ¨":11768,"æĲŀ":11769,"èµ°åĬ¿":11770,"å½ĵåīįçļĦ":11771,"éļıæľºæ£®æŀĹ":11772,"éĽĨä½ĵ":11773,"å¥³äºº":11774,"åħ¨çĲĥæ°Ķæ¸©":11775,"åĸ·åıĳ":11776,"64":11777,"é¢ł":11778,"æ¸¸æ³³æ±ł":11779,"åĴĮç¤¾äº¤åªĴä½ĵ":11780,"çİ²":11781,"ä½¿çĶ¨çİ¯ä¿Ŀ":11782,"æ°ĶåĢĻåıĺåĮĸå¯¹":11783,"çļĦå·¥åħ·":11784,"æĺ¯åķĬ":11785,"å½Ĵä¸º":11786,"é«ĺçŃī":11787,"åħ¸åŀĭ":11788,"ç½ĳç«Ļä¸Ĭ":11789,"èĸĦçīĩ":11790,"çļĦçĩĥ":11791,"æĬķèµĦçĽ®æłĩ":11792,"ä¼¯çī¹":11793,"åĪĨå¾Ĺ":11794,"çĹħä¾ĭ":11795,"åĪ©çĶ¨äººå·¥æĻºèĥ½æĬĢæľ¯":11796,"æĦıè§ģåĴĮå»ºè®®":11797,"ä¸ĢéĹ¨":11798,"éľĢè¦ģçĶ¨":11799,"åħ¥çĿ¡":11800,"ç¦ħ":11801,"é¢ĦæµĭæľªæĿ¥çļĦ":11802,"å°ĨæĽ´åĬł":11803,"æ²īæµ¸åľ¨":11804,"çĶ«":11805,"åĤħ":11806,"åĴĮæłĩåĩĨ":11807,"è¥¿åĮĹ":11808,"åı¯ä»¥æľīæķĪ":11809,"çŃīæķ°æį®":11810,"åıĺæį¢":11811,"Ġä¸ŃåĽ½":11812,"ä¸ĢæĬĬ":11813,"æĺĵæĩĤ":11814,"èĤ¡ä¸ľ":11815,"çİĽä¸½äºļ":11816,"æ»¡äºĨ":11817,"è£½":11818,"åĽĽåŃ£":11819,"å±ĭé¡¶":11820,"çķªèĮĦå·¥ä½ľæ³ķ":11821,"åĶ®ä»·":11822,"èµ°è¿ĩ":11823,"ä½ıåľ¨":11824,"ä¸ĥå¹´":11825,"Ġä»ĸ":11826,"åĳĨ":11827,"åħ³ç³»çļĦ":11828,"çľ¼éķľ":11829,"åľ¨è®¸å¤ļé¢ĨåŁŁ":11830,"éĤĵ":11831,"æŃ¥ä¼Ĳ":11832,"ç¡®ä¿Ŀåħ¶":11833,"åı¤åħ¸éŁ³ä¹Ĳ":11834,"ä¸¤ç»Ħ":11835,"åĭ¤å¥ĭ":11836,"æģ°å½ĵ":11837,"åı¯ä»¥å¿«éĢŁ":11838,"é¬Ĩ":11839,"æ¶¡":11840,"åĲĮæĹ¶ä¹Łæĺ¯":11841,"æĬĬå®ĥä»¬":11842,"éģ©åĲĪ":11843,"æŃ·åı²":11844,"ä½łæĥ³è¦ģ":11845,"çĩĥæ²¹":11846,"å¥¢":11847,"çº¦å®ļ":11848,"åı¯ä»¥å¸®åĬ©æĪĳä»¬æĽ´å¥½åľ°":11849,"å¹¶å°Ĩå®ĥä»¬":11850,"çļĦåĬ¨ä½ľ":11851,"æľīä¸Ģç§į":11852,"å¦Ĥä½ķåºĶå¯¹":11853,"åĮ»çĸĹæķ°æį®":11854,"ä¸įè¦ģè®©":11855,"èĤ©èĨĢ":11856,"æĶĢçĻ»":11857,"çļĦä¸Ń":11858,"èĬĤèĥ½åĩıæİĴ":11859,"ç¯¡æĶ¹":11860,"éķ¿è¾¾":11861,"éĢīæĭ©éĢĤå½ĵçļĦ":11862,"ak":11863,"æĹłæ¯Ķ":11864,"ä¸»æµģ":11865,"äº®åº¦":11866,"è®©æĪĳæĦŁåĪ°":11867,"æ²¿æµ·":11868,"ĠçĭĹ":11869,"ä»»åĬ¡ä¸Ń":11870,"çģ¯åħ·":11871,"åľ¨è®¾è®¡":11872,"å¾Īä¹ħ":11873,"èĢĮåĩº":11874,"éĢĤåº¦":11875,"äººå·¥æĻºèĥ½ç®Ĺæ³ķ":11876,"æł¹æį®å¯¹è¯ĿåĨħå®¹":11877,"250":11878,"æĹ¥åĩº":11879,"è½¦åŀĭ":11880,"è¨ĵç·´":11881,"çļĦå½¢çĬ¶":11882,"äºĨåĲĹ":11883,"æĿ¥åĪ¤æĸŃ":11884,"èĩªå·±åľ¨":11885,"68":11886,"æŁ¯":11887,"æ°´åĪĨåŃĲ":11888,"æ½ĺ":11889,"æĹ¥ä¸ĬåįĪ":11890,"è½»è½»åľ°":11891,"éĩĩåıĸä¸ĢäºĽ":11892,"ç¢İçīĩ":11893,"åĴĮå¤§":11894,"éľĢè¦ģæĹ¶éĹ´åĴĮ":11895,"èµ·è¯ī":11896,"åħ«å¹´":11897,"çļĩåĲİ":11898,"API":11899,"æ»¡æĦıåº¦åĴĮå¿łè¯ļåº¦":11900,"åºĹéĵº":11901,"çıłå®Ŀ":11902,"å¤ļä½Ļ":11903,"æ¥µ":11904,"ç»´æĬ¤åĴĮ":11905,"à¹Ī":11906,"è¡Ķ":11907,"çĽ¸å¯¹è¾ĥä½İ":11908,"é¢Ħéĺ²æİªæĸ½":11909,"ĠæľºåĻ¨åŃ¦ä¹ł":11910,"ï¼ļ$":11911,"éĥ½æ²¡æľī":11912,"åķĨä¸ļè®¡åĪĴ":11913,"èĦĨå¼±":11914,"åĲ¦å®ļ":11915,"ä¹ĭéĹ´çļĦèģĶç³»":11916,"å¤ļç§įåĽłç´ł":11917,"å½ĵä»ĸ":11918,"æľīä¸Ģåıª":11919,"æĬĳåĪ¶":11920,"æĪĳä»¬æĹłæ³ķ":11921,"æĤ¨è¿ĺåı¯ä»¥":11922,"æıĲé«ĺåŃ¦ä¹ł":11923,"ï¿":11924,"ä½łæĺ¯åĲ¦":11925,"ç¡®å®ļçļĦ":11926,"é£ŁæĢ§":11927,"æģ¶åĮĸ":11928,"æŀķ":11929,"ä¸Ĭçº§":11930,"æĽ´åĬłçĶŁåĬ¨":11931,"å¢ĻéĿ¢":11932,"Ð½Ð°":11933,"åĽłæĸ¯åĿ¦":11934,"ç»Ħè£ħ":11935,"åĽĽå¤§":11936,"æķ°åŃ¦éĹ®é¢ĺ":11937,"çļĦä¹¦":11938,"æĪĳä»¬éľĢè¦ģåľ¨":11939,"æķĪæŀľåĴĮ":11940,"çļĦç¬ĳ":11941,"éĺ»ç¢į":11942,"ä¹ĲåĽŃ":11943,"ä¸¤åıª":11944,"æĿİåħĪçĶŁ":11945,"è®°å½ķåĴĮ":11946,"åıįä¹īè¯į":11947,"èµ°åľ¨":11948,"åĤ¨å¤ĩ":11949,"åºĶçĶ¨é¢ĨåŁŁ":11950,"é¦Ļèıľ":11951,"æº¶æ¶²":11952,"åĨ¯":11953,"èģĮåĬ¡":11954,"ä¸įè¦ģè¿ĩåº¦":11955,"æľĢå¤§éĻĲåº¦åľ°":11956,"ç»ĳ":11957,"åįĴ":11958,"æ¬²æľĽ":11959,"æł¹æį®ä»¥ä¸Ĭè¿Ļæ®µå¯¹è¯ĿåĨħå®¹":11960,"æł¹æį®ä»¥ä¸Ĭè¿Ļæ®µå¯¹è¯ĿåĨħå®¹åĽŀçŃĶ":11961,"èĥ½éĩıçļĦ":11962,"éĿ¢èĨľ":11963,"æĤ¨çļĦéľĢæ±Ĥ":11964,"å°ĨæīĢæľī":11965,"éĩįå¤§çļĦ":11966,"åĮ»çĶŁåĴĮ":11967,"ä¸ĩçī©":11968,"å¹¶ä¸įæĦıåĳ³çĿĢ":11969,"ith":11970,"éģ£":11971,"æĸ°äºº":11972,"æİªæĸ½æĿ¥ä¿ĿæĬ¤":11973,"éĤªæģ¶":11974,"åĴĮå£°":11975,"é©¾è½¦":11976,"çī¹èī²çļĦ":11977,"å¤ĸè¡¨":11978,"è½»ä¾¿":11979,"ä¹Łç§°ä¸º":11980,"åĬĿ":11981,"å¸Ĩ":11982,"çĶ¨æĪ¶":11983,"æĪĲå¹´":11984,"è§£åĨ³çļĦéĹ®é¢ĺ":11985,"ç©Ĩæĸ¯æŀĹ":11986,"åĪ°åºķ":11987,"å¹¶æī¾åĪ°":11988,"æ°´æĺŁ":11989,"æĹłè®ºæĺ¯åľ¨":11990,"æİ¨çĲĨè¿ĩç¨ĭ":11991,"å¯¹èĩªå·±çļĦ":11992,"æĳĶ":11993,"æĬĹæ°§åĮĸ":11994,"æĸ¹å½¢çļĦ":11995,"æĽ´å¤ļåħ³äºİ":11996,"åĪĨéħįåĪ°":11997,"èµŀèµı":11998,"çķ¶çĦ¶":11999,"ìĿ":12000,"ä¿Ŀæļĸ":12001,"åĪĽéĢłæĽ´å¤ļçļĦ":12002,"çļĦç¤¼çī©":12003,"çºłç¼ł":12004,"èĤ¢ä½ĵ":12005,"èĤ²åĦ¿":12006,"å±ĤçļĦ":12007,"çļĦçģ¯åħī":12008,"é³Ħ":12009,"åĽĽå·Ŀçľģ":12010,"æ··åĩĿ":12011,"è¦ı":12012,"å®¤å¤ĸ":12013,"ä¸ĢåįĬ":12014,"ä¸įåĸľæ¬¢":12015,"éĤ£ä¹Īä»ĸ":12016,"åĴĮèĥ½åĬĽ":12017,"æĪĳåĽ½":12018,"æīĢæľª":12019,"å¤ĸåĩº":12020,"çĥ¦æģ¼":12021,"å¦ĥ":12022,"è¿ĻäºĽåıĺåĮĸ":12023,"ä¸įåĲĮçļĦäºº":12024,"Ø¹":12025,"ä¼ģæ¥Ń":12026,"åī©ä½ĻçļĦ":12027,"æĽ´éķ¿":12028,"ç¬¬ä¸Ģä½į":12029,"é¸¡ç¿ħ":12030,"çļĦç«ŀäºīåĬĽ":12031,"ä¿ĿæĮģèº«ä½ĵ":12032,"æīĵè´¥":12033,"çıĤ":12034,"å®¢æĪ·çļĦéĹ®é¢ĺ":12035,"å¯¹äºİéĤ£äºĽ":12036,"æĮĳæĪĺæĢ§":12037,"æ·±åº¦åŃ¦ä¹łåĴĮ":12038,"ç©ºéĹ´çļĦ":12039,"åģ¥åº·çļĦé¥®é£Ł":12040,"è®©å¥¹":12041,"æłĳæŀĹ":12042,"å°ļæľª":12043,"æ£ĢæµĭåĴĮ":12044,"âĢĻ":12045,"çļĦéĩįè¦ģæĢ§åĴĮ":12046,"1998":12047,"ç«ŀäºīå¯¹æīĭçļĦ":12048,"éľĢè¦ģä¸ĢäºĽ":12049,"ä½¿çĶ¨AI":12050,"å¢ŀåĢ¼":12051,"æ¸Ĳè¿Ľ":12052,"ä¸ĸçºªåĪĿ":12053,"çļĦçłĶç©¶åĴĮ":12054,"æĥħèĬĤåĴĮ":12055,"åı¯ä»¥ç¡®ä¿Ŀ":12056,"çĶµæ¢¯":12057,"éĢīæĭ©äºĨ":12058,"Ġåħ³æ³¨":12059,"åıĳåħī":12060,"èĥ½å¤Łä¸º":12061,"è½¦è¾ĨçļĦ":12062,"çļĦçĵ":12063,"åĪ¶ä½ľæĸ¹æ³ķ":12064,"å®«ä¿Ŀé¸¡ä¸ģ":12065,"æĪĳæľī":12066,"æĻºèĥ½æľºåĻ¨äºº":12067,"æĽ´æ·±åħ¥åľ°äºĨè§£":12068,"çļĦäº§çĶŁ":12069,"åįĶ":12070,"è¿ĺåºĶè¯¥":12071,"åıĭåĸĦ":12072,"èĳµ":12073,"äºĨä¸Ģæ®µ":12074,"èģĶç³»æĸ¹å¼ı":12075,"æ²īè¿·":12076,"ç¬¬åħŃ":12077,"ä¹°äºĨä¸Ģ":12078,"å½ĵéĢī":12079,"æĶ¾ä¸ĭ":12080,"çĮ«åĴĮ":12081,"æĶ¹éĢł":12082,"äºĮè¿ĽåĪ¶":12083,"èªį":12084,"åĢ¼å¾Ĺæ³¨æĦı":12085,"çĸ«èĭĹæİ¥ç§į":12086,"è¤Ĳ":12087,"å¤§èĩ´":12088,"ä¸įèĥ½è¢«":12089,"äººæľºäº¤äºĴ":12090,"è¡ĮæĿİ":12091,"å»£":12092,"åħ»æ®ĸ":12093,"è¿ĺåı¯ä»¥çĶ¨äºİ":12094,"çĽ®åīįçļĦ":12095,"æķıæį·":12096,"ç§ĳå¹»å°ıè¯´":12097,"ç²¾ç¾İ":12098,"å¤©ç©ºä¸Ń":12099,"åľ¨æķ´ä¸ª":12100,"çļĦäººæĿ¥è¯´":12101,"éļĲæĤ£":12102,"ä¸ºä½ķ":12103,"åĲĥçļĦ":12104,"è¿Ľä¸ĢæŃ¥çļĦ":12105,"çĽ¸ä¼¼åº¦":12106,"æµ®å®«":12107,"ï¼Į\"":12108,"åľ¨è¿Ļæ®µ":12109,"å¾Ĺå¤ļ":12110,"æĪĳä»¬åı¯ä»¥çľĭåĪ°":12111,"æĹıè£Ķ":12112,"ä¼ĺçĤ¹åĴĮç¼ºçĤ¹":12113,"çļĦåįķè¯į":12114,"ä½¿äººä»¬":12115,"å¼ĢæĶ¾å¼ı":12116,"ä¸įèī¯å½±åĵį":12117,"æĸĩçī©ä¿ĿæĬ¤":12118,"æľĪèĩ³":12119,"åľ¨åħ¨çĲĥèĮĥåĽ´åĨħ":12120,"æĪĳä»¬å°±":12121,"å·¥ä½ľæľºä¼ļ":12122,"èĹ»":12123,"æĸĹäºī":12124,"å¼±çĤ¹":12125,"å®¶çĶ¨":12126,"è¿ĻäºĽéĥ½":12127,"åĵĪåĪ©æ³¢çī¹":12128,"çļĦèī²å½©":12129,"ä¸ºä¸»é¢ĺ":12130,"äºļåİĨ":12131,"åĮ»åŃ¦åĽ¾åĥı":12132,"çļĦç¨ĭåº¦":12133,"ä¸ĵåĪ©":12134,"èĤ¡ç¥¨å¸Ĥåľº":12135,"æĽ´å¹¿æ³ĽçļĦ":12136,"æ°ĳä¼Ĺ":12137,"é¥°æ¼Ķ":12138,"æŃ£åĪĻåĮĸ":12139,"åľ¨ä»¥ä¸ĭ":12140,"äººå·¥æĻºèĥ½åı¯ä»¥éĢļè¿ĩåĪĨæŀĲ":12141,"ä¸įçŁ¥éģĵè¯¥":12142,"åĮĹæŀģçĨĬ":12143,"ä¸ŃæľĢéĩįè¦ģçļĦ":12144,"è¿Ĳè½¬":12145,"å¸¦ä¸Ĭ":12146,"å¿«éĢĴ":12147,"éľĢæ±ĤåĴĮåģıå¥½":12148,"à¥Ģ":12149,"åĬłæ³ķ":12150,"è¯´æľį":12151,"å¹¶åĪĹåĩº":12152,"äººå·¥æĻºèĥ½åı¯ä»¥å¸®åĬ©åĮ»çĶŁ":12153,"æľįé¥°":12154,"çĸ¾çĹħçļĦé£İéĻ©":12155,"åĿĲæłĩ":12156,"çļĦåĩłä¸ª":12157,"åħ¨çĲĥåĮĸ":12158,"æ¯Ĵåĵģ":12159,"æĺĵäºİçĲĨè§£":12160,"çŃīå¤ļä¸ªæĸ¹éĿ¢":12161,"åıĮæĸ¹çļĦ":12162,"æĺ¯èĩ³åħ³éĩįè¦ģçļĦ":12163,"èµ·åĪ°äºĨ":12164,"æº¶è§£":12165,"éĩįè¦ģçļĦä»»åĬ¡":12166,"èħ¹éĥ¨":12167,"çļĦçĬ¯ç½ª":12168,"åĩĢåĮĸåĻ¨":12169,"Ġåħĭ":12170,"çĶ±æŃ¤":12171,"åĪ¶å®ļä¸Ģä»½":12172,"åĬ¨çī©åĽŃ":12173,"æĿ¾é¼ł":12174,"å¼ºåº¦åĴĮ":12175,"äºĶèĬ±":12176,"è¥¿åħ°èĬ±":12177,"æĿıä»ģ":12178,"é¢ĺçĽ®ä¸Ń":12179,"èĸªéħ¬":12180,"æĪĳåİ»":12181,"å®ĥæĺ¯ä¸Ģä¸ª":12182,"1999":12183,"å¤§æ°Ķä¸Ń":12184,"æŀĹåĮ¹åħĭ":12185,"åħ¬åħ±åľºæīĢ":12186,"å¤ļå¹´çļĦ":12187,"èªĵ":12188,"æµªè´¹æĹ¶éĹ´":12189,"ä¼ļåĩºçİ°":12190,"ä½łæľīæ²¡æľī":12191,"é©¬æĿ¥":12192,"çĳŀå£«":12193,"æ··åĩĿåľŁ":12194,"å¦¨":12195,"é¢ĺæĿĲ":12196,"ä¸İä¹ĭ":12197,"å®¢æĪ·ä½ĵéªĮ":12198,"ç¥Ģ":12199,"Î½":12200,"ä¸¤åĲį":12201,"çĽĳç®¡åĴĮ":12202,"ÙĤ":12203,"æłĩåĩĨåĴĮ":12204,"æĺ¾èĳĹçļĦ":12205,"å³¡è°·":12206,"LED":12207,"æıĲä¾ĽäºĨä¸Ģä¸ª":12208,"éŁ³ç¬¦":12209,"æ¹ĸåĮĹ":12210,"éģĩåĪ°åĽ°éļ¾":12211,"æĸ¯ç§ĳ":12212,"ä¸ĭè¾ĸ":12213,"åı¯èĥ½åĩºçİ°":12214,"è®Ńç»ĥéĽĨ":12215,"å·©åĽº":12216,"98":12217,"Ġä¸º":12218,"Ġå¢ŀå¼º":12219,"ä¸ŃåĬłåħ¥":12220,"æıī":12221,"æĽ´å¥½åľ°ç®¡çĲĨæĹ¶éĹ´":12222,"æł¹æį®è¿Ļæ®µå¯¹è¯ĿåĨħå®¹":12223,"ä¸ľéĥ¨":12224,"åĽĽåįģ":12225,"èİ·å¾ĹæĽ´å¤ļçļĦ":12226,"åĴĮæľªæĿ¥":12227,"ä¹ŁéĿŀå¸¸éĩįè¦ģ":12228,"å¸¦æĿ¥æĽ´å¤ļ":12229,"éĹ®é¢ĺä¸Ń":12230,"è¢«è¿«":12231,"æ·±åº¦åŃ¦ä¹łæ¨¡åŀĭ":12232,"ä¸¥å³»":12233,"èĵ¬":12234,"æķ£åıĳ":12235,"çļĦæĸ¹å¼ıæĿ¥":12236,"1994":12237,"å¦¥åĸĦ":12238,"æł¹æį®è¿Ļæ®µå¯¹è¯ĿåĨħå®¹åĽŀçŃĶéĹ®é¢ĺ":12239,"æ»ŀ":12240,"é±¼èĤī":12241,"é¢Ĩå¯¼åĬĽ":12242,"åŃ¦ä¹łèĢħ":12243,"æ¹ĸåįĹ":12244,"åıĺå¼Ĥ":12245,"ä»¥ä¸ĭæĺ¯åĩłç§į":12246,"å»ºçŃĳçī©çļĦ":12247,"ãģ®":12248,"åį¢æµ®å®«":12249,"åľ¨æĪĳçļĦ":12250,"è¾°":12251,"åīĩ":12252,"ç²¹":12253,"æŀģé«ĺçļĦ":12254,"çĽ´è§Ĥ":12255,"éļ§éģĵ":12256,"å¤ļäºº":12257,"çī©èµĦ":12258,"åĲĥæİī":12259,"é£ŀç¿Ķ":12260,"å°Ĩä¼ļå¯¹":12261,"è¯·éļıæĹ¶èģĶç³»":12262,"çļĦæĮĩå¯¼":12263,"æ¿Ĵ":12264,"æĹħæ¸¸ä¸ļ":12265,"ane":12266,"è¯įæ±ĩåĴĮ":12267,"åĿ¦è¯ļ":12268,"å¹¶å¸®åĬ©":12269,"æĶ¶çĽĬçİĩ":12270,"åı¯å¾Ĺ":12271,"äº§éĩı":12272,"éĢļå¸¸è¢«":12273,"æıĲé«ĺåħ¬ä¼Ĺ":12274,"åĴĮæ»¡è¶³":12275,"é²Ī":12276,"Ġ17":12277,"èĩªåľ¨":12278,"èĩªè±ª":12279,"å®¹çº³":12280,"åįĬçĲĥ":12281,"3000":12282,"åĬ¨æ¼«":12283,"èĩªæĪĳæĦıè¯Ĩ":12284,"é¾ĻèĻ¾":12285,"çļĦç¨³å®ļæĢ§":12286,"é¼ĵåĬ±åĽ¢éĺŁæĪĲåĳĺ":12287,"åľºæĻ¯ä¸Ń":12288,"åĥıäººç±»ä¸Ģæł·":12289,"ĠåĮ»çĸĹä¿Ŀåģ¥":12290,"æķĻèĤ²çļĦ":12291,"éĽķåĪ»":12292,"è¨ĺ":12293,"å»ºç«ĭä¿¡ä»»":12294,"äººéĻħäº¤å¾Ģ":12295,"æ¶Įçİ°":12296,"Ġä»·æł¼":12297,"å¼Ľ":12298,"çĸĨ":12299,"å§Ķæīĺ":12300,"éħįèıľ":12301,"å¼Łå¼Ł":12302,"ç³Łç³ķ":12303,"ä¸Ģäºº":12304,"çļĦçŁĽçĽ¾":12305,"æŁĶè½¯çļĦ":12306,"èĩŃ":12307,"çĶµå½±è¯Ħè®º":12308,"èģĨåĲ¬":12309,"çĿĢä½ł":12310,"ä¹ĭéĹ´çļĦå·®å¼Ĥ":12311,"èĩªçĦ¶è¯Ńè¨ĢçĶŁæĪĲ":12312,"DIY":12313,"è¿ľå¤Ħ":12314,"åŁĥèı²å°Ķéĵģå¡Ķ":12315,"åı¯ä¿¡åº¦":12316,"æĽ´é«ĺæķĪçļĦ":12317,"æĺ¯æŃ£ç¡®çļĦ":12318,"ä¸İæĪĳä»¬":12319,"æģŃ":12320,"æĦŁäºº":12321,"è¿Ľè¡Įæ²ŁéĢļ":12322,"æĮĩå®ļçļĦ":12323,"ä»įåľ¨":12324,"è´©":12325,"åĴĮæĢĿèĢĥ":12326,"æľĽè¿ľéķľ":12327,"åŃ¦ä¹łåĴĮæĪĲéķ¿":12328,"é¢¨æł¼":12329,"åı¯ä»¥çľĭåĩº":12330,"æ°´æ±¡æŁĵ":12331,"æ¯Ķçī¹å¸ģ":12332,"å°Ĩä¸º":12333,"èµ·çĿĢ":12334,"æĶ¯ç¬Ķ":12335,"ä¿ĿéĻ©åħ¬åı¸":12336,"Ġéĩĳèŀį":12337,"åı¯è¾¾":12338,"éļĻ":12339,"æŃ¥éª¤å¦Ĥä¸ĭ":12340,"åĶ¯ä¸ĢçļĦ":12341,"å¤±ä¸ļçİĩ":12342,"è°¢è°¢ä½łçļĦå»ºè®®":12343,"æŃ¡":12344,"æķĻä¼ļ":12345,"åĪĻåı¯ä»¥":12346,"çĪ±åĽłæĸ¯åĿ¦":12347,"èŀįèµĦ":12348,"æĿł":12349,"ä¸ŃåĲ«æľī":12350,"ç»¿èĮ¶":12351,"æľĢå¤§ç¨ĭåº¦":12352,"ä¹Łå¾Īéĩįè¦ģ":12353,"è¬":12354,"ä½ľæĪĺ":12355,"çº¦ä¼ļ":12356,"æĹ¶éĹ´åĴĮèµĦæºĲ":12357,"å®łçī©çĭĹ":12358,"åĴĮç¤¾äº¤":12359,"åı¯è¯»":12360,"é£Łæ¬²":12361,"æīĭåĬ¿":12362,"åĸľæ¬¢åľ¨":12363,"SE":12364,"è¿ĺåı¯ä»¥åľ¨":12365,"æ¹ĺ":12366,"æīĢéľĢæĿĲæĸĻ":12367,"èĴ¸åıĳ":12368,"çļĦçī©è´¨":12369,"åľ¨çİ°ä»£ç¤¾ä¼ļä¸Ń":12370,"à¤Ĥ":12371,"éķ¿é¢Ī":12372,"å¤ļåħĥåĮĸçļĦ":12373,"çļĦèĥ½éĩı":12374,"éľŀ":12375,"ä»¥ä¿ĥè¿Ľ":12376,"âĢĿï¼ļ":12377,"çĻ½ç³ĸ":12378,"å¹¶æĮīçħ§":12379,"å®ĥä¹Ł":12380,"å¸½åŃĲ":12381,"æł¹æį®å¯¹è¯ĿåĨħå®¹åĽŀçŃĶè¿Ļä¸ªéĹ®é¢ĺ":12382,"èĩªåĬ¨åĮĸçļĦ":12383,"æĿĥè¡¡":12384,"çļĦçªģ":12385,"åĴĮçĽĲ":12386,"èĪĴç¼ĵ":12387,"æ¬¢è¿İæĿ¥åĪ°":12388,"åĪĨç»Ļä»ĸçļĦ":12389,"æµ·åºķ":12390,"å»¶ä¼¸":12391,"åı¯èĥ½æĺ¯åĽłä¸º":12392,"æĻ´æľĹ":12393,"ĠåĪĨéĴŁ":12394,"å½Ĺ":12395,"è¿ĺåħ·æľī":12396,"ç©ºæ°Ķä¸ŃçļĦ":12397,"åĲŀåĻ¬":12398,"æµ·æ»¨":12399,"äº«æľī":12400,"å¯»æī¾æĸ°çļĦ":12401,"Ġ500":12402,"æ¨¡åŀĭçļĦæĢ§èĥ½":12403,"åīµéĢł":12404,"åĳµ":12405,"çļĦä¸»è¦ģè§ĤçĤ¹":12406,"æĪĳå¾Īä¹ĲæĦı":12407,"æ§ĭ":12408,"ä»¥å¢ŀå¼º":12409,"æĹ¥æľ¬çļĦ":12410,"Sam":12411,"Tr":12412,"è¯¥äº§åĵģ":12413,"æºī":12414,"æľīæķĪçļĦæĸ¹æ³ķ":12415,"æĺ¯ä¸Ģæľ¬":12416,"ç«ĭåĪ»":12417,"è®¸åı¯":12418,"è¯ģæĺİäºĨ":12419,"çº±":12420,"è§ĦåĪĴåĴĮ":12421,"æī©æķ£":12422,"çĥ§çĥ¤":12423,"é£²":12424,"è¨Ģè¯Ń":12425,"éĿŀå¸¸é«ĺ":12426,"è½¬åıĺ":12427,"ĠV":12428,"Ġis":12429,"è®¶":12430,"æĪĳä»¬åı¯ä»¥åľ¨":12431,"åĪ¶ä½ľä¸Ģä»½":12432,"éļıæĹ¶éļıåľ°":12433,"em":12434,"éĺ±":12435,"æĮĩæĺİ":12436,"ä½łåı¯ä»¥ä½¿çĶ¨":12437,"åĢ¦":12438,"éĶĢåĶ®éĩı":12439,"æ³ķå¾ĭè§Ħå®ļ":12440,"äºĭçī©çļĦ":12441,"å¨ģå»ī":12442,"åħīæĺİ":12443,"è®¸å¤ļä¸įåĲĮçļĦ":12444,"åĨ²æµª":12445,"èĥĮæĻ¯ä¸ĭ":12446,"ç»Ļå®ļçļĦæĸĩæľ¬":12447,"ä¸Ńç§ĭèĬĤ":12448,"æķ²":12449,"è£Ŀ":12450,"åľ£æ¯įéĻ¢":12451,"åĨĻçļĦ":12452,"è¯ļä¿¡":12453,"äººçī©çļĦ":12454,"ä»»åĬ¡çļĦä¼ĺåħĪçº§":12455,"å¤©æķ°":12456,"å®īè¿ª":12457,"æłĳä¸Ĭ":12458,"ä»¥ç¡®ä¿ĿæĤ¨":12459,"æĳ§æ¯ģ":12460,"å¹¶ä»İä¸Ń":12461,"è®¸å¤ļé¢ĨåŁŁ":12462,"ç§Łéĩĳ":12463,"å»ĵ":12464,"æ°´è´¨":12465,"å®Ŀè´µ":12466,"éģĵè·¯ä¸Ĭ":12467,"GB":12468,"åįİä¸º":12469,"ç¥ĸçĪ¶":12470,"éĢ®":12471,"åĪĨæķ£æĬķèµĦ":12472,"ä»İèĢĮéĻįä½İ":12473,"å¿Į":12474,"å¿«é¤Ĳ":12475,"å½ĵåľ°äºº":12476,"æ¯įè¯Ń":12477,"çļĦçħ§çīĩ":12478,"å°¸":12479,"äºĨæĪĳ":12480,"åºĶè¯¥åĮħæĭ¬":12481,"åªĴä»ĭ":12482,"éłħ":12483,"äººå·¥æĻºèĥ½åĴĮæľºåĻ¨åŃ¦ä¹ł":12484,"èĥ½å¤ŁæıĲä¾Ľ":12485,"æĸ½åĬł":12486,"ä¹¾éļĨ":12487,"åĪĨä¹ĭä¸Ģ":12488,"æķĻæĿĲ":12489,"çº§çļĦ":12490,"å»ºçŃĳå¸Ī":12491,"å½Ĵå¹¶":12492,"à¹Ģà¸":12493,"ï¿¥":12494,"æĢİä¹Īåģļ":12495,"èĤłéģĵ":12496,"ä¸ĢäºĽæĮĳæĪĺ":12497,"å¸®åĬ©åĴĮæĶ¯æĮģ":12498,"æĺ¯ä¸ĢéĹ¨":12499,"ä¸Ĭæµ·å¸Ĥ":12500,"åĩºè¡Įæĸ¹å¼ı":12501,"çķĶ":12502,"æľĢå°ıåĢ¼":12503,"avid":12504,"ç±½":12505,"å¥ĩå¦Ļ":12506,"èĲ¥åħ»ä»·åĢ¼":12507,"åı¯éĢī":12508,"èĤļ":12509,"è¯¥çĶµå½±":12510,"ç¡®ä¿Ŀä½łçļĦ":12511,"å¿«èµ°":12512,"çļĦè´¡çĮ®":12513,"å°ıåŃ©":12514,"æĢ»åĴĮ":12515,"éĵĿ":12516,"åĭ¿":12517,"èıłèıľ":12518,"åĴĮçĶŁæĢģç³»ç»Ł":12519,"çŃīåħĥç´ł":12520,"æµ·è±ļ":12521,"æľĭåıĭæĪĸ":12522,"è°ĥåĳ³åĵģ":12523,"å¤§æ°Ķæ±¡æŁĵ":12524,"éļľç¢įçī©":12525,"ä¸įå¹¸":12526,"æīĢå¸¦æĿ¥çļĦ":12527,"çĹ´":12528,"å¹¿è¥¿":12529,"å¤ªå¤ļçļĦ":12530,"op":12531,"æľīæķĪæĢ§":12532,"ç©¿ä¸Ĭ":12533,"éĶ¦æłĩ":12534,"Ġé¥®é£Ł":12535,"åĴĮå¹¸ç¦ı":12536,"å¤§åĬĽ":12537,"èĢĮæľīæīĢä¸įåĲĮ":12538,"è§£åĨ³è¿ĻäºĽéĹ®é¢ĺ":12539,"æĢ¥æķĳ":12540,"ä¸įåĲĮç§įç±»çļĦ":12541,"æīĢèĥ½":12542,"åŃ¦ä¹łèµĦæºĲ":12543,"ä¼łç»ŁèĬĤæĹ¥":12544,"åŃ¦åĴĮ":12545,"éĴ¦":12546,"ç¬¬äºĮå¤©":12547,"æĿĢæŃ»":12548,"æĬ¢åĬ«":12549,"è¾©æĬ¤":12550,"èĥ½æºĲæķĪçİĩ":12551,"éĻ¶çĵ·":12552,"Ġof":12553,"çļĦæĿ¥æºĲ":12554,"ä¸įç¬¦åĲĪ":12555,"éĢļè¿ĩå°Ĩ":12556,"æĳĬ":12557,"åĴĸåķ¡åºĹ":12558,"æĥĬè®¶":12559,"å£®è§Ĥ":12560,"çļĦåĮºåŁŁ":12561,"å®¡è§Ĩ":12562,"èĩªä¸»åŃ¦ä¹ł":12563,"ä¼Ĭæĸ¯åħ°":12564,"ä¹łæĢ§":12565,"äº¤è°Ī":12566,"æĪĲéĥ½":12567,"èĥ½å¤Łå¿«éĢŁ":12568,"æ¸ħæĻ¨":12569,"Ġà¤ķ":12570,"åľ¨ä»ĸçļĦ":12571,"ä»İæĿ¥":12572,"ä¸¤ä¸ªæľĭåıĭ":12573,"æīįèĥ½æĽ´å¥½åľ°":12574,"å¹¶æľĢç»Ī":12575,"è¯¥åħ¬åı¸çļĦ":12576,"èĵī":12577,"96":12578,"çļĤ":12579,"çļĦæŃ£ç¡®":12580,"ä¸ĭæ¬¡":12581,"æľĪåĪĿ":12582,"ä¼ĳæģ¯åĴĮ":12583,"è¾ĥå°ĳ":12584,"é¢ĦæµĭæľªæĿ¥":12585,"ä¹ŁæĹłæ³ķ":12586,"à¸±":12587,"AIæĬĢæľ¯åı¯ä»¥å¸®åĬ©":12588,"é¡¶éĥ¨":12589,"çļĦè¡¨æ¼Ķ":12590,"åı¯ä»¥éģ¿åħį":12591,"èĩªå·±çļĦå·¥ä½ľ":12592,"æŃ§è§ĨåĴĮ":12593,"æĢĿç»´èĥ½åĬĽ":12594,"ä»°åį§":12595,"æĿ¥å¢ŀå¼º":12596,"éķ¿æ±Ł":12597,"çĪŃ":12598,"äºĨè§£ä¸Ģä¸ĭ":12599,"è½¯ä»¶åĴĮ":12600,"Ġå®¶åºŃ":12601,"ç¥¸":12602,"éĢłæĪĲè´ŁéĿ¢å½±åĵį":12603,"åı¯ä»¥è¢«å½Ĵç±»ä¸º":12604,"æľ´ç´łè´Ŀåı¶æĸ¯":12605,"çļĦæĳĺè¦ģ":12606,"çīº":12607,"æĹ¶è£ħ":12608,"ç¤¾ä¼ļè´£ä»»":12609,"ãĢĤï¼Ī":12610,"æľīå¤ļç§į":12611,"å¼Ģæĭĵ":12612,"ä½ĵéªĮåĪ°":12613,"çļĦçķĮ":12614,"çļĦç»ĨèĬĤ":12615,"å¦Ĥæľī":12616,"æīįæĺ¯":12617,"ist":12618,"æłĩå¿ĹæĢ§":12619,"æķıæĦŁä¿¡æģ¯":12620,"æĹ¥ç¨ĭå®īæİĴ":12621,"æĹłå°½çļĦ":12622,"72":12623,"è½¦éģĵ":12624,"åı°é£İ":12625,"ä»įçĦ¶åŃĺåľ¨":12626,"Wi":12627,"åĴĮèĩªçĶ±":12628,"å®ŀçİ°åı¯æĮģç»Ńåıĳå±ķ":12629,"éļıçĿĢæĬĢæľ¯çļĦä¸įæĸŃè¿ĽæŃ¥":12630,"ä½¿çĶ¨åı¯åĨįçĶŁèĥ½æºĲ":12631,"æ°´é¾Ļå¤´":12632,"èī²ç´ł":12633,"çĥŃèĥ½":12634,"çļĦåĲįç§°":12635,"æĽ´åħ·æľī":12636,"äº¤åĵį":12637,"æľīçĿĢå¹¿æ³ĽçļĦåºĶçĶ¨":12638,"ä¸Ŀç»¸":12639,"Ġå°Ŀè¯ķ":12640,"èĢĮè¿ĻäºĽ":12641,"ç§ĳåŃ¦çļĦ":12642,"çŃĸçķ¥åĴĮ":12643,"éłĲæ¸¬":12644,"äººæĸĩ":12645,"å¯¹è¿ĻäºĽ":12646,"å¹¶è¢«":12647,"å±±é¡¶":12648,"ç¡®å®ļåĵªäºĽ":12649,"åĪĩçīĩ":12650,"éģİç¨ĭ":12651,"éĺ´å½±":12652,"åł±":12653,"æķ°çĻ¾ä¸ĩ":12654,"è¿Ľè¡Įäº¤äºĴ":12655,"å¦Ĥä½ķå½±åĵį":12656,"æ°ĳäºĭ":12657,"è®¡ç®ĹèµĦæºĲ":12658,"æ³¢éĤ£":12659,"è¿Ŀæ³ķè¡Įä¸º":12660,"çīºçī²":12661,"çĦ¯":12662,"æĽ´åĬłæ·±åħ¥":12663,"éĩįè¦ģçļĦå½±åĵį":12664,"AIæĬĢæľ¯åľ¨":12665,"åİ¿äºº":12666,"æľīè¶£åĴĮ":12667,"æĪ·å¤ĸè¿ĲåĬ¨":12668,"ä»ĸåĨ³å®ļ":12669,"èĭ¹æŀľåħ¬åı¸":12670,"èİİå£«":12671,"è®®åĳĺ":12672,"èº«ä½ĵç´łè´¨":12673,"èĢĮæĿ¥":12674,"æĿ¾å¼Ľ":12675,"æĪĳä»¬æŃ£åľ¨":12676,"æįķé£Ł":12677,"æ¿ĢçĥĪçļĦ":12678,"çĽ¸éĹľ":12679,"æľĢç»ĪçļĦ":12680,"æ°ĶåĢĻåıĺåĮĸçļĦå½±åĵį":12681,"éŁ³ç®±":12682,"åĴ¨è¯¢åĮ»çĶŁ":12683,"çĽĨæł½":12684,"äºĶèĬ±èĤī":12685,"éľĢè¦ģä¿ĿæĮģ":12686,"æĶ¾å¿ĥ":12687,"ä¸¤ä¸ªåı¥åŃĲ":12688,"å½ĹæĺŁ":12689,"æ³¢éĤ£å¥ĳ":12690,"äºĨä»ĸ":12691,"è¿ĻäºĽæĮĳæĪĺ":12692,"èĦ¾":12693,"ç¿ģ":12694,"åģļåĩºæĽ´å¥½çļĦ":12695,"æ·»åĬłåĪ°":12696,"èĸĦèį·":12697,"çĮİçī©":12698,"æĭŃ":12699,"åı²ä¸Ĭ":12700,"åĵģå°ĿåĪ°":12701,"åľ¨ä½ł":12702,"éĺ³åħīåĴĮ":12703,"é²ľå«©":12704,"æĹħæ¸¸èĥľåľ°":12705,"åĨľä½ľçī©":12706,"åŁºç¡Ģä¸Ĭ":12707,"æĿ¯ä¸Ń":12708,"å²Ľä¸Ĭ":12709,"éĢĿä¸ĸ":12710,"43":12711,"ä¸ŃæĿ¥":12712,"éĥ½å°Ĩ":12713,"éĻ·éĺ±":12714,"èİİå£«æ¯Ķäºļ":12715,"å¤įåı¤":12716,"æĸĲæ³¢éĤ£å¥ĳ":12717,"ç´łæĿĲ":12718,"ä¸ªäººåĴĮ":12719,"åĴĻ":12720,"æĪĳæĦŁåĪ°":12721,"æĤ¨è®¤ä¸º":12722,"çĥ«":12723,"àµį":12724,"æĮ£":12725,"ä¼łå¥ĩ":12726,"é¦ĸéĥ½":12727,"æĬĬè¿ĻäºĽ":12728,"åĳ¼æ°Ķ":12729,"éª¨å¤´":12730,"ä¼ļè®¡":12731,"åĪ¶åĬ¨":12732,"åĨ³å®ļçļĦ":12733,"ä¸Ģå®ļç¨ĭåº¦ä¸Ĭ":12734,"å°ıåŃ¦çĶŁ":12735,"æľĢæľī":12736,"éĹ®é¢ĺæĺ¯":12737,"èº«ä½ĵåĴĮå¿ĥçĲĨåģ¥åº·":12738,"éĢĤä¸Ń":12739,"æ¸ħæĺİ":12740,"è¿ģç§»":12741,"ĠJ":12742,"æ²ŁéĢļæĸ¹å¼ı":12743,"æĬĸ":12744,"åħīè°±":12745,"ä»¥ä¸ĭæĺ¯ä¸ĢäºĽåħ³äºİ":12746,"äº¬éĥ½":12747,"ç®ĢåįķèĢĮ":12748,"è¯´çļĦ":12749,"ç¤¼åĵģ":12750,"åĸīåĴĻ":12751,"éĺ²çģ«å¢Ļ":12752,"ä¸įäºĨ":12753,"äºĭåģļèµ·":12754,"æī¾ä¸Ģä¸ª":12755,"èĥ½åĪĨåĪ°":12756,"æį®è¯´":12757,"ä¼łæŁĵ":12758,"æ¸¸è®°":12759,"è´ŃæĪ¿":12760,"å¯¹è¯ĿçļĦä¸»è¦ģåĨħå®¹":12761,"æķıéĶĲ":12762,"å¤ļæĸ¹éĿ¢":12763,"ä»»åĬ¡æĹ¶":12764,"åħ¶ä»ĸäººçļĦ":12765,"åĪĽæĦıåĴĮ":12766,"èĪ¹åıª":12767,"éĿŀå¸¸åĸľæ¬¢":12768,"å¸Ĥåľºç«ŀäºī":12769,"å¼±åĬ¿":12770,"è¿Ŀè§Ħ":12771,"æĿŃå·ŀ":12772,"å¯¹èº«ä½ĵ":12773,"æ´»åĬ¨çŃī":12774,"åľ¨è¿Ļä¸ªä¾ĭåŃĲä¸Ń":12775,"åı¯æī©å±ķ":12776,"çļĦçĨ":12777,"è¯Ńæĸĩ":12778,"ä»¥ä¸Ĭå¯¹è¯ĿçļĦä¸»è¦ģåĨħå®¹":12779,"å±Ģéĥ¨":12780,"è¯·æĢ»ç»ĵä»¥ä¸Ĭå¯¹è¯ĿçļĦä¸»è¦ģåĨħå®¹":12781,"ap":12782,"ĠåŁºäºİ":12783,"æĺ¯ä¸Ģæ¬¡":12784,"å®ĥä»¬ä¼ļ":12785,"æª¢":12786,"åĴĮåĩıå°ĳ":12787,"å®ĥåĢĳ":12788,"è»į":12789,"ä¹ĭéĹ´çļĦè·Ŀç¦»":12790,"ç»ĵæĿŁä½įç½®":12791,"Â¥":12792,"ä¸Ģæĸ¹":12793,"å¹¶å¢ŀåĬł":12794,"åĮĹæĸ¹":12795,"å¤įæĿĤåĴĮ":12796,"éĶĢåĶ®æķ°æį®":12797,"å°įæĸ¼":12798,"ä»ĭè´¨":12799,"å¤ªç©ºä¸Ń":12800,"åĪĨæķ£æ³¨æĦıåĬĽ":12801,"æ³¡æīĵç²ī":12802,"åĴĮä¸įè¶³":12803,"çĽĸèĮ¨æ¯Ķ":12804,"äºīåĲµ":12805,"èĦļæŃ¥":12806,"çļĦçĽ®çļĦæĺ¯":12807,"è¿Ļä¸¤ç§į":12808,"å·¥ä½ľå²Ĺä½į":12809,"è·Łéŀĭ":12810,"ans":12811,"ĊĠĠĠĠĠĠĠĠ":12812,"çļĦæķĻèĤ²":12813,"ä½Ĩå¦Ĥæŀľ":12814,"ç»Ļä»ĸ":12815,"ER":12816,"åı¯ä»¥æĶ¹åĸĦ":12817,"åĲĮæŃ¥":12818,"å¹´è¢«":12819,"è¿Ļä¸ªé¡¹çĽ®":12820,"å¾®é£İ":12821,"æķ°æį®åĪĨæŀĲåĴĮ":12822,"çļĦåıįåºĶ":12823,"éļĽ":12824,"éħ¥èĦĨ":12825,"Ġæľī":12826,"çļĦå¹³åĿĩ":12827,"æ³ķå¼ı":12828,"é»ı":12829,"äºĨè§£ä½łçļĦ":12830,"ä»¥ä¸ĭæĺ¯åħ¶ä¸Ńä¸ĢäºĽ":12831,"å¾¡åı²":12832,"ne":12833,"ä¿Ŀæ¹¿":12834,"ä½Ĩå¥¹":12835,"æĪĲçļĦ":12836,"åĩĨç¡®åº¦":12837,"æĿ¥ä¼ĺåĮĸ":12838,"ä½Ĩä»ĸä»¬":12839,"çľĭä½ľ":12840,"åĵ²åŃ¦å®¶":12841,"å½Ń":12842,"åĿļå®ŀ":12843,"ä»¤äººåħ´å¥ĭ":12844,"çļĦæĻºèĥ½":12845,"ç³ĸéĨĭ":12846,"åºķèķ´":12847,"çĶµè§Ĩæľº":12848,"åı¯ä»¥å¹«åĬ©æĤ¨":12849,"ç®Ĺæ³ķåĴĮæ¨¡åŀĭ":12850,"å¸¸æķ°":12851,"èĩ³éĩĳé»Ħèī²":12852,"å¸ħ":12853,"çļĦåĲĦç§į":12854,"åıĳçİ°èĩªå·±çļĦ":12855,"çĨĶ":12856,"ç»Ļåĩºåħ·ä½ĵçļĦ":12857,"éķĩåĮº":12858,"åķ¦åķ¦":12859,"æµģéĢļ":12860,"æ·±è¹²":12861,"æĽ´æ·±åħ¥çļĦ":12862,"é«ĺç§ĳæĬĢ":12863,"éĢīæĭ©åĲĪéĢĤ":12864,"å½¢åĬ¿":12865,"ä¾µæĿĥ":12866,"èĩªæ²»åĮº":12867,"çŃīè®¾å¤ĩ":12868,"åĲĪçº¦":12869,"ä¸ºäºĨä¿ĿæĬ¤":12870,"çĶľèľľ":12871,"Ð½Ð¸":12872,"çļĦæĢ§èĥ½":12873,"çļĦæľĢå¤§":12874,"ä¸įå¼Ģ":12875,"æ¢¦å¢ĥ":12876,"çļĩå®¶":12877,"çļĦçıį":12878,"åĵģçīĮçŁ¥åĲįåº¦":12879,"å¹¶ä¿ĥè¿Ľ":12880,"ä¹ĭéĸĵ":12881,"å®ĥä»¬èĥ½å¤Ł":12882,"æĶ¶éĽĨåĪ°":12883,"åĽºä½ĵ":12884,"1995":12885,"çļĦç¬¬äºĮ":12886,"å¿ħä¸įåı¯å°ĳçļĦ":12887,"ä¸ºx":12888,"éĹ®åĢĻ":12889,"æł¹æį®ä¸įåĲĮçļĦ":12890,"åįłçĶ¨":12891,"æ½ľåľ¨çļĦé£İéĻ©":12892,"æĪĲå°±æĦŁ":12893,"æ¼Ĥäº®çļĦ":12894,"éķ¿é¢Īé¹¿":12895,"åı¯ä»¥ä½ľä¸º":12896,"å¤§å¸Ī":12897,"æķħä¹¡":12898,"æ£ĭåŃĲ":12899,"å¸¸è¯Ĩ":12900,"åº§æ¤ħ":12901,"æĢ§ä»·":12902,"åıĳçİ°äºĨä¸Ģä¸ª":12903,"å°ıçĨĬ":12904,"åħ¬å°º":12905,"å¯¹åºĶçļĦ":12906,"è¿ĩå¤§":12907,"æıĲä¾Ľæľīåħ³":12908,"åĪ¶å®ļçĽ¸åºĶçļĦ":12909,"ç»ĻåĩºçļĦ":12910,"çİ°éĩĳæµģ":12911,"åĪĽå§ĭäºº":12912,"æĪĸèĢħåħ¶ä»ĸ":12913,"é£ŀèĪ¹":12914,"æĭ¿çĿĢ":12915,"çļĦçľŁæŃ£":12916,"è¿Ľé£Ł":12917,"è´Łè´£ä»»":12918,"è¯¸å¦Ĥ":12919,"æ°´æµģ":12920,"èįīåĿª":12921,"éĴĪå¯¹æĢ§":12922,"çļĦè¯ĹæŃĮ":12923,"èĩªåĬ©":12924,"éľĢè¦ģæĶ¹è¿Ľ":12925,"å¾Īæ£Ĵ":12926,"åįģäºĶ":12927,"æµĭè¯ķåĴĮ":12928,"å¸Ĥéķ¿":12929,"å®īåħ¨æİªæĸ½":12930,"ç®¡çĲĨæĹ¶éĹ´":12931,"æķĻèĤ²é¢ĨåŁŁ":12932,"åı¯ä»¥è®ĵ":12933,"ä¸Ńä¿ĿæĮģ":12934,"å±ĳ":12935,"ä½łæľĢåĸľæ¬¢çļĦ":12936,"è¿Ļä¸ªæĸĩæľ¬":12937,"èª¿æķ´":12938,"Ġä¸Ģä¸ª":12939,"æīĢå±ŀ":12940,"æĹ¢æľī":12941,"åħ¨çĲĥæ°ĶåĢĻ":12942,"åī§éĻ¢":12943,"å¯¹çİ¯å¢ĥçļĦæ±¡æŁĵ":12944,"ht":12945,"åľ¨æľªæĿ¥çļĦåıĳå±ķ":12946,"çļĦä¸»é¢ĺæĺ¯":12947,"è¿Ļé¡¹æĬĢæľ¯":12948,"çº¿æĢ§åĽŀå½Ĵ":12949,"ç²īèī²":12950,"äººåĳĺçļĦ":12951,"æ²īé»ĺ":12952,"è¦ģæĥ³":12953,"åıĳè¨Ģ":12954,"è®Ńç»ĥåĴĮ":12955,"å¹¸è¿Ĳ":12956,"ä½¿åħ¶æĽ´åĬł":12957,"åĲİåĨį":12958,"ä½ĨæĪĳåı¯ä»¥":12959,"åīįæīĢæľª":12960,"åĩĢåĪ©æ¶¦":12961,"ç»¿èī²èĥ½æºĲ":12962,"æĺ¯æıĲé«ĺ":12963,"ä¸ºäºĨéģ¿åħį":12964,"Ġé¸¡èĽĭ":12965,"æĽ´é«ĺæķĪåľ°":12966,"åĩºèº«":12967,"æ°´æĻ¶":12968,"æıĲä¾ĽåĲĦç§į":12969,"åĲįäºº":12970,"æĬ¤å£«":12971,"éĢŁçİĩ":12972,"ç©¿æĪ´":12973,"æııç»ĺäºĨ":12974,"æĮ«æĬĺåĴĮ":12975,"à¤¨":12976,"èĢķ":12977,"ç´§åĩĳ":12978,"åŃ¤åįķ":12979,"çİ«çĳ°èĬ±":12980,"åľ¨å¤§":12981,"æĪĸçŁŃè¯Ń":12982,"è®®ç¨ĭ":12983,"åĴĮæķ°æį®å®īåħ¨":12984,"æĩĤå¾Ĺ":12985,"05":12986,"çļĦåħ³æ³¨":12987,"äº¨":12988,"çī¹æĸ¯æĭī":12989,"åĪĹä¸º":12990,"åİĨåı²ä¸ĬæľĢ":12991,"ç®Ģåįķåľ°":12992,"è¿Ľè¡Įä¼ĺåĮĸ":12993,"è¯¥ç³»ç»Ł":12994,"äºĭåıĳ":12995,"æĳĦåıĸ":12996,"éĽ·è¾¾":12997,"æľīä½ķ":12998,"è½ī":12999,"åĽłç´łä¹ĭä¸Ģ":13000,"ä¸ĵæ³¨åĬĽ":13001,"èĨĿçĽĸ":13002,"åŃ¦ä¹łæĸ°çļĦ":13003,"ç³»ç»ŁçŃī":13004,"èĲ½ä¸ĭ":13005,"æĪĳä¼ļèĢĥèĻĳ":13006,"çļĦç¿»":13007,"åİŁåĽłæĺ¯":13008,"åľ¨äºĨ":13009,"éĿŀå¸¸å¤§":13010,"äºĮæĪĺ":13011,"åįģä¸Ģ":13012,"åįİä¸½":13013,"ÑģÐº":13014,"è¡ĮæĶ¿åĮº":13015,"ä¾¦æŁ¥":13016,"éĶ¦æłĩèµĽ":13017,"åħ¶ä½Ļ":13018,"å°ıæĺİå®¶":13019,"å®Ŀè´µçļĦ":13020,"ant":13021,"Â°":13022,"åĪ®":13023,"éľĢè¦ģå®ļæľŁ":13024,"å¥¶æ³¡":13025,"æ½ľåĬĽåĴĮ":13026,"åĴĮé£İæł¼":13027,"ç¾İå¦Ļ":13028,"å·§åħĭåĬĽèĽĭç³ķ":13029,"è¿ĩæ»¤åĻ¨":13030,"ID":13031,"âĸ":13032,"è¿ĩé«ĺ":13033,"å·²ç»ıæľī":13034,"è·ŁæĪĳ":13035,"æķ°æį®è¿Ľè¡ĮåĪĨæŀĲ":13036,"ä¸Ńèį¯":13037,"æŃ£æĺ¯":13038,"è¿Ļä¸¤ä¸ªåı¥åŃĲ":13039,"ç¬Ķè®°æľ¬çĶµèĦĳ":13040,"David":13041,"ord":13042,"èĳ£äºĭ":13043,"ç»½":13044,"æĿ¥æĶ¹åĸĦ":13045,"ä¸»è¦ģçĶ±":13046,"é¢Ĺç³ĸ":13047,"éĿ¢ç§¯ä¸º":13048,"ä½¿çĶ¨ä¸įåĲĮçļĦ":13049,"çĽ¸è¿ŀ":13050,"å¹³ç¨³":13051,"çªĦ":13052,"åħ¨çĲĥæĢ§":13053,"éĢĥéģ¿":13054,"æ´ĭèĳ±åĴĮ":13055,"åı¯ä»¥æ»¡è¶³":13056,"ä¸ºäºº":13057,"æ¸ħåĩī":13058,"çĽİ":13059,"ä¸ĢäºĽå°ı":13060,"éĺ³å¸Ĥ":13061,"è®¤ä¸ºæĺ¯":13062,"éĢ¢":13063,"ä¼ļåıĳçĶŁ":13064,"è¥¿è£ħ":13065,"å¥³ä¸»è§Ĵ":13066,"é¼ĵèĪŀ":13067,"éĢĤåºĶæĸ°çļĦ":13068,"åĪĿåĪĽ":13069,"æĸĩçī©ä¿ĿæĬ¤åįķä½į":13070,"è¯·è®°ä½ı":13071,"çŁ¥åĲįçļĦ":13072,"åľ¨èĩªçĦ¶è¯Ńè¨Ģå¤ĦçĲĨ":13073,"çĶŁæ°Ķ":13074,"ç§ĳçłĶ":13075,"å»ºçŃĳé£İæł¼":13076,"ä½ıäºĨ":13077,"æľºåĻ¨äººæĬĢæľ¯":13078,"æĥ³æ³ķåĴĮæĦŁåıĹ":13079,"ä¸ºäºĨç¡®ä¿Ŀ":13080,"è¶ĬæĿ¥è¶Ĭéĩįè¦ģçļĦä½ľçĶ¨":13081,"è°Īè¯Ŀ":13082,"æĤ¨å°Ĩ":13083,"ä¹łæĥ¯åĴĮ":13084,"ç²®é£Ł":13085,"è¿·äººçļĦ":13086,"å¹¶æľª":13087,"å¹³è¡¡åĴĮ":13088,"éĺ³åħīä¸ĭ":13089,"é«Ķé©Ĺ":13090,"ĠæĿ¯":13091,"ä¹¦ä¸Ń":13092,"æ¯ıä¸ªå°ıæľĭåıĭ":13093,"ä½ľä¸ºAIè¯Ńè¨Ģæ¨¡åŀĭ":13094,"ä¸Ģä¸ªå¤§":13095,"åı²ä¸ĬçļĦ":13096,"è¡¨è¾¾å¯¹":13097,"åĿļå®ļçļĦ":13098,"è¿Ļæ®µæĸĩåŃĹ":13099,"æł¹æį®ä»¥ä¸ĭæĸĩæľ¬":13100,"æĺ¯åĲ¦ä¸º":13101,"è®¡ç®Ĺæľºç³»ç»Ł":13102,"åŀĥåľ¾å¤ĦçĲĨ":13103,"æİ¢éĻ©å®¶":13104,"çĶŁå§ľ":13105,"åĥ¹åĢ¼":13106,"ç¾İå¦ĻçļĦ":13107,"èĩªåĬ¨è°ĥæķ´":13108,"æĦıä¹īçļĦ":13109,"ä¸Ģèĩ´æĢ§":13110,"Ġæĸ°":13111,"æĻĥ":13112,"éĻĢ":13113,"åıĤä¸İåº¦":13114,"çĶµåĬ¨è½¦":13115,"éĽĩä½£":13116,"åĮł":13117,"ä½ĵçİ°åľ¨":13118,"è¯¦ç»ĨåĽŀçŃĶ":13119,"èĬĿéº»":13120,"è³ĩæºĲ":13121,"54":13122,"çĶŁæĦı":13123,"æĶ¾åħ¥éĶħä¸Ń":13124,"ç·´ç¿Ĵ":13125,"çļĦåĵģè´¨":13126,"æĢ¡":13127,"æĹ¶éĹ´ä¸º":13128,"ç¼¸":13129,"æµ·ä¸Ĭ":13130,"æŀģå¤§":13131,"éłĺåŁŁ":13132,"åľ¨ä¸Ģ":13133,"äº¤éĢļæµģéĩı":13134,"å¤«å¦ĩ":13135,"Ġæ·±åĳ¼åĲ¸":13136,"èİ·å¾ĹæĽ´å¥½çļĦ":13137,"Ð±":13138,"æ¸©æ³ī":13139,"å¾·éĩĮ":13140,"å´ĸ":13141,"å¼ķåıĳäºĨ":13142,"Ġå®ŀæĸ½":13143,"åĴĮæĸ°":13144,"ä¹ĭåĴĮ":13145,"æľįåĬ¡äºİ":13146,"åĭĺ":13147,"åŁİå¸Ĥä¸Ń":13148,"é»ĳçĻ½":13149,"æī¹ç¤º":13150,"è½¬åĮĸçİĩ":13151,"æīĵçĶµè¯Ŀ":13152,"æľĢåĲİä¸Ģ":13153,"è¡ĮåĬ¨èµ·æĿ¥":13154,"çļĦç«ŀäºīå¯¹æīĭ":13155,"ĠåĹ¯":13156,"æĺ¯ä½ł":13157,"æĭ¾":13158,"èĩªçĶ±åľ°":13159,"æĺ¨æĻļ":13160,"âĢĺ":13161,"éĥ½æľīåħ¶çĭ¬çī¹çļĦ":13162,"ĠçĦ¶åĲİ":13163,"ĠçĿ¡çľł":13164,"éľĢè¦ģåĬłå¼º":13165,"åĽŀåĪ°äºĨ":13166,"ç»ķçĿĢ":13167,"ç»³åŃĲ":13168,"çļĦéĤ£":13169,"æĪĳä»¬çŁ¥éģĵ":13170,"å¹¶è¯´æĺİ":13171,"ä¾ĽåıĤèĢĥ":13172,"äººå·¥æĻºèĥ½åºĶçĶ¨":13173,"éĢīæĭ©åĵªç§į":13174,"æıĲä¾ĽäºĨä¸ĢäºĽ":13175,"éªĳå£«":13176,"ĠåĪĽéĢł":13177,"åĴĮè¿ĲåĬ¨":13178,"çĶ¨æ³ķ":13179,"ä¸ºæ¯ıä¸ª":13180,"AIç³»ç»ŁçļĦ":13181,"çģ«çĦ°":13182,"çıįè´µ":13183,"çļĦç¥Ŀ":13184,"åĽłæŀľåħ³ç³»":13185,"éĢļè´§":13186,"è®©æĽ´å¤ļçļĦäºº":13187,"éľ²èĲ¥":13188,"Ġë":13189,"ä½Ĩæĺ¯å®ĥä»¬":13190,"éĺ²æ²»":13191,"åĴĮéĿŀ":13192,"ä¸ĸçķĮå¤§æĪĺ":13193,"å°¼è¥¿äºļ":13194,"è¿Ļæĺ¯ä¸Ģéģĵ":13195,"æķ°åįģ":13196,"éĴī":13197,"ä»¥ä¸Ĭå°±æĺ¯":13198,"ä»Ķç»Ĩéĺħè¯»":13199,"çİĭåŃĲ":13200,"é¼ĵåĬ±ä»ĸä»¬":13201,"åĴĮç²¾ç¥ŀ":13202,"è¡¨çİ°ä¸º":13203,"æŃ¦æ±ī":13204,"çļĦéĻĲåĪ¶":13205,"èĩªå®ļä¹ī":13206,"å¹¶äºİ":13207,"çĸ¾çĹħè¯ĬæĸŃ":13208,"åįłæľī":13209,"æĭ¼åĽ¾":13210,"çĻ¼çı¾":13211,"ä¾ĽåºĶéĵ¾ç®¡çĲĨ":13212,"ç³»æķ°":13213,"ä»¥ä¸ĭæĸ¹æ³ķ":13214,"ç§¯æŀģçļĦæĥħæĦŁ":13215,"èĬĤå¥ıåĴĮ":13216,"å°ıçĶ·åŃ©":13217,"äºĨä¸Ģé¡¹":13218,"å·´å·´":13219,"ä¹Ŀå¹´":13220,"æīŃæĽ²":13221,"Ġ{":13222,"æĽ´åģ¥åº·":13223,"çļĦæĹ¶éĹ´è¡¨":13224,"çļĦæŃĮæĽ²":13225,"åĩºåı°":13226,"å¤ªæŀģ":13227,"äººéĢł":13228,"å®ĥå¯¹":13229,"æĻºèĥ½åĮ»çĸĹ":13230,"åı¯èĥ½ä¼ļéĿ¢ä¸´":13231,"åĵªäºĽæĸ¹éĿ¢":13232,"åĨĴæ³¡":13233,"çľĭä¼¼":13234,"åİĨåı²æĸĩåĮĸ":13235,"éĺ²æ°´":13236,"æİ¢ç´¢æĸ°çļĦ":13237,"è¾ĸåĮº":13238,"åĢ¼å¾Ĺæ³¨æĦıçļĦæĺ¯":13239,"å®¢æĪ·åħ³ç³»":13240,"å¥¥æŀĹåĮ¹åħĭ":13241,"ä¹ĲéĺŁ":13242,"å¤±æİ§":13243,"å¸¦æĿ¥è®¸å¤ļ":13244,"çļĦä¸Ģåº§":13245,"Ġç¤¾äº¤":13246,"å¼ĢäºĨ":13247,"æıĲé«ĺæķĪçİĩåĴĮ":13248,"æİ¥åı£":13249,"çļĦåİĨåı²åĴĮ":13250,"éĿ¢åĴĮ":13251,"éªļ":13252,"AIåı¯ä»¥éĢļè¿ĩåĪĨæŀĲ":13253,"TF":13254,"èĪ±":13255,"Ø§Ø":13256,"ç£¨æįŁ":13257,"åĪĨå·¥":13258,"èĥ½å¤ŁçĲĨè§£":13259,"æ¿Ģæ´»":13260,"è¡¨æĺİäºĨ":13261,"æĮīæĹ¶å®ĮæĪĲ":13262,"æĿ¥è°ĥæķ´":13263,"è¯·ä½ł":13264,"èĲ½åľ°":13265,"æľºåĻ¨åŃ¦ä¹łåĴĮæ·±åº¦åŃ¦ä¹ł":13266,"å¼ķäººæ³¨":13267,"æĿ¥åĲ¸å¼ķ":13268,"çĶµçº¿":13269,"çłĤç³ĸ":13270,"çļĦæĥ³æ³ķ":13271,"åĪ°ä¸Ģä¸ª":13272,"æıĲèµ·":13273,"è¿ĽçĲĥ":13274,"åĪĩå®ŀ":13275,"æ¯Ľå·¾":13276,"58":13277,"æį®äºĨè§£":13278,"è¿Ļç§įçİ°è±¡":13279,"åĪĽæĸ°èĥ½åĬĽ":13280,"ä¸Ģä»£":13281,"çºº":13282,"åĲİåĬłåħ¥":13283,"åķ¸":13284,"AIæĬĢæľ¯çļĦåºĶçĶ¨":13285,"ä¹Łä¼ļå¯¹":13286,"110":13287,"åŃ¦ä¸ļ":13288,"å¤ļå±Ĥ":13289,"å¿ĥçĲĨçĬ¶æĢģ":13290,"å§Ķä¹¦è®°":13291,"ç¦»å¼ĢäºĨ":13292,"BM":13293,"ue":13294,"éĶ¤":13295,"è¿Ļå¹ħçĶ»":13296,"çļĦèģĮä¸ļ":13297,"çļĦå¤ĸè§Ĥ":13298,"åĸ§":13299,"æł·å¼ı":13300,"é£ŁçĶ¨æ²¹":13301,"åĤ³çµ±":13302,"çªģåıĳäºĭä»¶":13303,"57":13304,"æıĲåıĬ":13305,"éĥ¨éĺŁ":13306,"åĲĦç¨®":13307,"èĢĮè¢«":13308,"éĢģç»Ļ":13309,"éĿ¢å¯¹éĿ¢":13310,"DP":13311,"çļĦæĹ¶åĪ»":13312,"æĮª":13313,"æĹłçĸĳ":13314,"åľ°çĲĥèĩªè½¬":13315,"æļĤæĹ¶":13316,"æĿ¥èİ·åıĸ":13317,"æķ°æį®å®īåħ¨":13318,"åħ·æľīéĩįè¦ģ":13319,"éĻĦåĬł":13320,"çļĦè´£ä»»":13321,"å¤©åľ°":13322,"åı¯ä»¥å¹«åĬ©ä½ł":13323,"ä¸ºèĩªå·±":13324,"æľĪåħī":13325,"åĲ¬åĪ°äºĨ":13326,"å¸ĮæľĽæĤ¨":13327,"é©¬éĩĮ":13328,"åĤ¨çī©":13329,"ĠæĶ¯æĮģ":13330,"å½ĵä¸ĭ":13331,"æ·±èī²":13332,"æĺłå°Ħ":13333,"åĢŁéī´":13334,"å¦Ĥæŀľä¸į":13335,"æ·±åº¦åĴĮ":13336,"æııè¿°å¦Ĥä½ķ":13337,"åĲ¾":13338,"ä¸ŃéĢīæĭ©":13339,"ä¿±":13340,"æ°Ķè´¨":13341,"çİ¯ä¿ĿçļĦéĩįè¦ģæĢ§":13342,"æķ°åŃĹåĮĸè½¬åŀĭ":13343,"ä¸Ģè·¯":13344,"ä¸ªæķ°":13345,"æĪĳä»¬æ¯ıä¸ªäººéĥ½":13346,"èĥĮéĥ¨":13347,"å½ĵåľ°å±ħæ°ĳ":13348,"åı³ä¾§":13349,"Îµ":13350,"èĥ½å¤ŁæıĲé«ĺ":13351,"èĢģæĬ½":13352,"ä¸ŃéĿŀå¸¸éĩįè¦ģçļĦ":13353,"ä½¿äºº":13354,"æ¬ºè¯Īè¡Įä¸º":13355,"IP":13356,"Ġin":13357,"æĶ¶è´¹":13358,"ä¸Ģåı°":13359,"æĭ±":13360,"åĪĨåŃĲçļĦ":13361,"å¤©ä¸ĭ":13362,"ç±³çļĦ":13363,"è¿Ļå°Ĩä½¿":13364,"éĴ»çŁ³":13365,"æŁĵèī²":13366,"è¾¹éķ¿":13367,"æ¤įçī©çĶŁéķ¿":13368,"çļĦå·¥ä½ľçİ¯å¢ĥ":13369,"åı¯èĥ½æĺ¯çĶ±äºİ":13370,"åı¯éĩįå¤įä½¿çĶ¨çļĦ":13371,"æ³ĽåĮĸèĥ½åĬĽ":13372,"ee":13373,"åı¯ä»¥äºĨè§£":13374,"å¼Ģè®¾":13375,"ä¸įä¼ļè¢«":13376,"åĿĩåĮĢåľ°":13377,"è¿Ļç¯ĩæĸĩç«łä¸Ń":13378,"åľ°éĿ¢ä¸Ĭ":13379,"åĴĮæĦŁåıĹ":13380,"éĴ©":13381,"æĤ£çĹħ":13382,"éħįå¤ĩäºĨ":13383,"åģļåĩºæĽ´æĺİæĻº":13384,"ä½¿çĶ¨AIæĬĢæľ¯":13385,"è´¨çĸĳ":13386,"èĩªçĦ¶çİ°è±¡":13387,"åĲ¸å¼ķåĬĽçļĦ":13388,"æ°´æŀľåĴĮ":13389,"Ø§ÙĨ":13390,"å¾Ģå¾Ģä¼ļ":13391,"å½Ĵå¹¶æİĴåºı":13392,"ov":13393,"åľ¨ä»ĸ":13394,"ãĢĭ-":13395,"æııè¿°ä¸º":13396,"é£Łåĵģå®īåħ¨":13397,"Ñħ":13398,"åıĤåĬłäºĨ":13399,"è¿ĻéĩĮæľī":13400,"çŃ¾è®¢":13401,"AR":13402,"è¯·ç¡®ä¿Ŀ":13403,"Ġåģļ":13404,"Ġå¦Ĥä½ķ":13405,"èĪĪ":13406,"åĪ¤å¤Ħ":13407,"é¥±åĴĮèĦĤèĤª":13408,"Ġå®īè£ħ":13409,"æĮĩå¼ķ":13410,"æŃĮåĶ±":13411,"çļĦåľ°ä½į":13412,"å°Īæ¥Ń":13413,"éģĵçļĦ":13414,"æ¯ĶåĪĨ":13415,"éĶĢåĶ®æ¸łéģĵ":13416,"æĺ¥å¤©çļĦ":13417,"æľīå¸®åĬ©":13418,"ä½İèĦĤ":13419,"äº®çĤ¹":13420,"è¡ĮæĺŁçļĦ":13421,"çĵ¶é¢Ī":13422,"æĸĩæĺİçļĦ":13423,"Ġåħ¶ä»ĸ":13424,"ä»İèĢĮå¸®åĬ©":13425,"æ°ĶåĢĻåıĺåĮĸçļĦ":13426,"è£Ķç¾İåĽ½":13427,"]ï¼Į":13428,"Ķ×":13429,"å°Ĩäºİ":13430,"æłĳç«ĭ":13431,"çĽ¸å½ĵäºİ":13432,"èĩªçĦ¶è¯Ńè¨Ģå¤ĦçĲĨæĬĢæľ¯æĿ¥":13433,"çļĦç¨³å®ļæĢ§åĴĮ":13434,"ä»²è£ģ":13435,"å¾ħåĬŀ":13436,"æĭ¿åĩº":13437,"åĪ¶çļĦ":13438,"æ¯ıä¸Ģä¸ªäºº":13439,"äºĨä¸Ģåıª":13440,"éķ¿æľŁæĬķèµĦ":13441,"åĺ´å·´":13442,"åĴĮåĪ©çĶ¨":13443,"ä¹Łè¢«ç§°ä¸º":13444,"ç»ıéªĮä¸°å¯Į":13445,"åĴĮèº«ä½ĵ":13446,"åĪĽéĢłäºĨ":13447,"è¶ħè¿ĩäºĨ":13448,"ä¸§å¤±":13449,"æį®æĤī":13450,"å£°æĺİ":13451,"å¹¶ç»Ļåĩºè¯¦ç»ĨçļĦ":13452,"éĹ®æĪĳ":13453,"æıĲä¾Ľè¶³å¤ŁçļĦ":13454,"åĳ¨äºĶ":13455,"éĿĻéĿĻ":13456,"ç¼ĵè§£çĦ¦èĻĳ":13457,"æĦıæĢĿæĺ¯":13458,"çļĦçĹħæĥħ":13459,"äºĮæīĭ":13460,"åı¯ä»¥è¢«åĪĨç±»ä¸º":13461,"æİĴæĸ¥":13462,"æ¬¢å¿«":13463,"éĤ£ä¹Īå®ĥ":13464,"è®©å®ĥä»¬":13465,"åĬ¡å¿ħ":13466,"äººå·¥æĻºèĥ½åıĳå±ķ":13467,"äººä»¬å¯¹äºİ":13468,"èµ°åĩº":13469,"åĨ³çŃĸåĴĮ":13470,"çļĦç½ª":13471,"ĠÙĪ":13472,"çĶµåķĨå¹³åı°":13473,"å¸¦æĿ¥äºĨå¾Īå¤ļ":13474,"æľªç»ıæİĪæĿĥ":13475,"åĴĮåĬªåĬĽ":13476,"æķ°çĽ®":13477,"å¤ļä¹Ī":13478,"éĥ¨çĶµå½±":13479,"æĺ¯å»ºç«ĭ":13480,"åľŁèĢ³":13481,"èģĮä¸ļè§ĦåĪĴ":13482,"è¯¦ç»Ĩä¿¡æģ¯":13483,"å¥¥ç§ĺ":13484,"à¯į":13485,"ä¹ĭç¾İ":13486,"ä½¿çĶ¨åĴĮ":13487,"åŃ¦ä¹łä½ĵéªĮ":13488,"è¯¥æĸĩç«ł":13489,"ä¸ŃçļĦä¸Ģç§į":13490,"éĩĳé»Ħ":13491,"å½ĵåľ°ç¾İé£Ł":13492,"äººå·¥æĻºèĥ½åı¯ä»¥çĶ¨äºİ":13493,"æ²Ļæ»©ä¸Ĭ":13494,"å¤§åį«":13495,"å¾Īä¸įéĶĻ":13496,"çļĦç¾İåĽ½":13497,"è§£åĨ³éĹ®é¢ĺçļĦèĥ½åĬĽ":13498,"åı¯ä»¥å¾Ĺåĩº":13499,"å¸ĤåľºåıĺåĮĸ":13500,"èĲ¥éĶĢæ´»åĬ¨":13501,"ä¼ĺåħĪçº§æİĴåºı":13502,"æĢ§è´¨åĴĮ":13503,"å°Ĩå¯¹":13504,"å¼ĢæľĹ":13505,"å¤ĸéĿ¢":13506,"åĩıå°ı":13507,"ä»ĬæĹ¥":13508,"æ´»åĬĽçļĦ":13509,"ä¹Ĳè§ĤçļĦ":13510,"éĢĤåĲĪçļĦ":13511,"èŃ¦è§ī":13512,"çļĦçĥ¤ç®±ä¸Ń":13513,"éľĢè¦ģç¡®ä¿Ŀ":13514,"à¦°":13515,"52":13516,"éĶ®çĽĺ":13517,"èº«ä»½è¯ģ":13518,"å°±è¦ģ":13519,"åļ¼":13520,"å¤ļåĬŁèĥ½":13521,"é«ĺå±±":13522,"åĿİ":13523,"èŀºä¸Ŀ":13524,"ï¼ļ<|":13525,"æĪĳèĥ½":13526,"ä¹ŁæĪĲä¸ºäºĨ":13527,"åĪĨæŀĲçŃī":13528,"æĦŁåı¹":13529,"éľĢè¦ģèĬ±è´¹":13530,"æĤ¨æĥ³è¦ģ":13531,"é¹¤":13532,"åı¯çĶ¨æĢ§":13533,"ĠâīĪ":13534,"ĠæĶ¹åĸĦ":13535,"ä»¥ä¾¿æĤ¨åı¯ä»¥":13536,"è´Ńçī©æ¸ħåįķ":13537,"Ġç»Ļ":13538,"é«ĺåİĭ":13539,"è¿Ľè¡Įå¤ĦçĲĨ":13540,"æµģä¼ł":13541,"éĩĳèī²":13542,"åĲĮæĥħ":13543,"æıĲä¾Ľå¿ħè¦ģçļĦ":13544,"ç§ĺä¹¦":13545,"èĮĦåŃĲ":13546,"åı£åĳ³çļĦ":13547,"çĲĥåľº":13548,"æŃ¤åĲİ":13549,"ç§ĳæĬĢè¿ĽæŃ¥":13550,"çļĦç§įç±»":13551,"éªĦ":13552,"äººå·¥æĻºèĥ½æĬĢæľ¯åľ¨":13553,"éĢ®æįķ":13554,
[...]
