#version: 0.2
ï ¼
ä ¸
ç ļ
ï¼ Į
çļ Ħ
ã Ģ
ãĢ Ĥ
ä »
ä º
å ı
æ ľ
å Ĵ
å ħ
åĴ Į
è ¿
ä ½
å Ī
æ Ī
å ®
å ¤
å Ĭ
ç Ķ
å ľ
æ ĺ
å Ĳ
æ ĸ
ä¸ Ģ
è ¯
ä» ¥
ä ¹
ç »
æĺ ¯
ãĢ ģ
ï¼ ļ
å °
è ®
åı ¯
å Ń
ĥ ½
é Ģ
åľ ¨
å º
ä ¼
æ Ĺ
äº º
å ¹
å ¸
æ Ŀ
é ĩ
æ ķ
å Ľ
è ĥ½
å Į
ä¸ ª
å ·
è ¡
æľ ī
è §
æĪ ĳ
å ¯
è ¦
åı¯ ä»¥
çĶ ¨
è¦ ģ
ä¸ Ń
ä» ¬
å ĩ
æ Ģ
å ¼
ç İ
è¿ Ļ
äº Ĩ
æ Ĭ
ç Ń
ç ī
ä¸ º
å Ĩ
è Ģ
ç §
å ¾
é Ĺ
ä ¿
ä¸ į
é ¢
æ ī
æ ³
ç Ľ
è ĩ
æ ŀ
çĶ Ł
å ¥
å į
æ Ń
å ½
ç Ĳ
é Ŀ
æ ł
æĿ ¥
æĹ ¶
å ¦
æ Ħ
æ Ľ
ä ¾
æ ı
åŃ ¦
æ Ķ
å ĵ
æ °
å¦ Ĥ
è ´
åľ °
æĸ ¹
çŃ ī
è¡ Į
æ İ
ä¼ ļ
é ľ
æ ĥ
æ ĭ
æĽ ´
æĪ Ĳ
å¯ ¹
e n
t e
åĪ °
èĩ ª
åĪ Ĩ
æ Ļ
d o
x t
te xt
en do
< |
| >
f text
endo ftext
å ¿
æ Į
å ĳ
éľ Ģ
äº Ľ
æ µ
è µ
ä½ ľ
å ±
äº İ
ä» ĸ
æ į
å İ
å· ¥
æķ °
æı Ĳ
ä¸ ĭ
åĬ ¨
çĲ Ĩ
å¤ §
åĮ ĸ
æ ¯
ãĢĤ <|
æĪĳ ä»¬
ä¿ Ŀ
å¤ ļ
ä¸ Ĭ
è¿ ĩ
æ Ĥ
çī ©
é Ļ
åı ĳ
æĸ ĩ
éĢ ļ
æ³ ķ
å¹ ¶
æĢ §
è¿ Ľ
åĬ Ľ
åĩ º
ç ®
æ ´
éľĢ è¦ģ
ç º
å¥ ½
é «
â Ģ
ä½ ł
ä¸Ģ ä¸ª
åĲ Į
åĬ ł
é« ĺ
æį ®
åº Ķ
å® ļ
é £
è ¾
å Ł
æĬ Ģ
ç ±
ç§ į
éĿ ¢
é¢ ĺ
ä½ ĵ
é ģ
æ ²
è§ £
çİ °
æ ¸
æ ±
ä½ ¿
æĤ ¨
å° ı
å° Ĩ
åħ ¶
æĪ ĸ
è ī
çļĦ ç
è ½
åŃ Ĳ
å ģ
éĩ į
é ĺ
å¸ ¸
ä¹ Ł
æŀ ľ
åĽ ł
åº ¦
éĩ ı
æľ º
ç «
éĹ ´
å® ¶
éĹ ®
å¹ ´
ä¹ ĭ
åĬ ©
æĦ Ł
åĵ ģ
æĥ ħ
ç ¡
åħ ³
æľ ¯
æľ Ģ
ç ³
å® ĥ
å »
èĢ Į
ç± »
è ¶
æ ¬
å ¢
åĲ Ī
ä¸ ļ
è Ĥ
æĻ º
ç ¨
ç Ĥ
ç Ħ
ä¹ ł
è °
å» º
å¾ Ĺ
ç¡ ®
æĸ °
åĪ ¶
ç ¤
ç» ı
æĻº èĥ½
æĦ ı
å ī
è¡ ¨
éĹ® é¢ĺ
åħ ¬
ç ľ
å Ģ
å® ŀ
æľ ¬
çĦ ¶
ç Ŀ
è® ¡
æŃ ¤
ä½¿ çĶ¨
æĺ İ
åĬ ¡
åĽ ½
åĲ İ
å¸ ®
æĮ ģ
æĬĢ æľ¯
å¼ ı
ä¸ İ
è Ĭ
èĢ ħ
æ Ł
é ļ
å½ ±
äº §
ä¸Ģ äºĽ
å¸® åĬ©
æ´ »
ç ½
æ° ´
ç³ »
ç ´
é Ķ
å¿ ĥ
å± ķ
è¿Ľ è¡Į
çİ ¯
ä¸ »
ç Ł
æ ģ
æķ° æį®
ç¨ ĭ
æī Ģ
åħ ¨
åħ ¥
åı¯ èĥ½
èī ²
åŃ¦ ä¹ł
ä¿ ¡
çĽ ¸
è¯ Ń
ä¾ Ľ
ç ¾
é ķ
ä¾ ĭ
ç ĸ
ä» »
å¤ ©
çĶ µ
éĢļ è¿ĩ
å· ±
ç ©
èĩª å·±
åħ ·
è ·
è ¢
çĿ Ģ
é ĥ½
çĤ ¹
é ĥ
çĽ ®
é ¡
ä»¥ ä¸ĭ
äº ¤
ç ķ
å¸ Ĥ
çī ¹
ä½ Ĩ
éĢ Ĥ
è¯ ¥
æ ·
åĮ ħ
å Ļ
é ¦
é£ Ł
æıĲ ä¾Ľ
å¼ Ģ
äº ĭ
å Ŀ
æķ Ī
æĪ ·
è ģ
é ª
é ħ
ä» İ
æ° Ķ
ï¼ Ł
åĨ ħ
å½ ĵ
å ŀ
åľ º
åĻ ¨
è¿ ĺ
è® ©
æĹ ¥
åı ĺ
é Ľ
ç® Ĺ
è¿Ļ äºĽ
è´ ¨
éĢ ī
è® ¾
äºº å·¥
âĢ ľ
è¢ «
å¤ ĸ
âĢ Ŀ
å¹ ³
çĲ ĥ
éķ ¿
éĿ ŀ
æ¯ ı
éĥ ¨
è º
å¾ Ī
å® ī
éģ ĵ
äººå·¥ æĻºèĥ½
ç ĥ
åı Ĭ
æ¯ Ķ
è Ļ
åĪ ©
æĹ¶ éĹ´
åı Ĺ
ä¾ĭ å¦Ĥ
èº «
åĲ į
ä»ĸ ä»¬
æ± Ĥ
åĨ ³
æ³ ¨
å° ĳ
å ĸ
ç¾ İ
ç» Ł
æıĲ é«ĺ
æĢ »
å¤ Ħ
æ ¡
æ º
æ ¶
ï¼ ī
éĩį è¦ģ
æĺ¯ ä¸Ģ
èµ Ħ
åī į
æł ĩ
ç ¬
èµ ·
ï¼ Ī
å¢ ĥ
é Ł
ä» £
æŃ £
åĵ į
å §
ä½ į
æľ Ł
è¿Ļ ä¸ª
åĳ ĺ
å¤ Ł
æł ¹
ç¤ ¾
ä¸į åĲĮ
è¯ ´
è Ĳ
åıĳ å±ķ
æī ĭ
åģ ¥
åı ĸ
é Ĥ
éĩ Į
è® ®
æĥ ³
åŀ ĭ
æģ ¯
ç» Ļ
ç» ĵ
é£ İ
è¯ Ĩ
å½± åĵį
å® ¢
éĿŀ å¸¸
æĭ ¬
åĮ »
ä¹ Ī
é ¥
æĶ ¾
å¦Ĥ æŀľ
å·¥ ä½ľ
æ ¨
æľ į
å ķ
åĪ «
å¼ º
éŁ ³
åĮħ æĭ¬
é¢ Ĩ
æº Ĳ
æµ ģ
æķ Ļ
æĭ ©
ç ¥
éĢī æĭ©
æŃ ¥
ç ¼
çİ¯ å¢ĥ
æ ®
å¯ ¼
è° ĥ
æł¹ æį®
ç ģ
æ »
æĬ ¤
æĽ´ å¥½
åĩ ı
è½ ¦
è į
ç Ī
åĮ º
åĪ Ľ
ä½ ķ
0 0
ç® ¡
è ¨
è Ī
åºĶ çĶ¨
åı ¸
æĹ ł
ç§ ĳ
å° ±
ä» ¶
å £
å® ¹
åŁ Ł
èĩªå·± çļĦ
è ĥ
èĥ½ å¤Ł
ä¹ Ĳ
ä¼ ł
ç ĭ
ç ł
æ¬ ¡
æĸ Ń
åĽł æŃ¤
æĸ¹ å¼ı
ç Ĺ
ä¸Ń çļĦ
æľ Ī
åº ·
çŁ ¥
æĸ Ļ
æ¨ ¡
èĢ ĥ
åĽ ŀ
èĬ Ĥ
å½ ¢
æ· ±
è§ Ĥ
é ©
çİ ĩ
çĶŁ æ´»
è ĭ
æĽ´ åĬł
æŀ Ĳ
ä¼ ĺ
åŁ º
çĶ ±
ç» Ħ
éĢ ł
ç´ ł
ç ²
æĶ ¯
åĪĨ æŀĲ
è¿ Ĳ
æĮ ĩ
åģ¥ åº·
è ±
æµ ĭ
äºº ç±»
çľ ĭ
æľ ª
æĸ¹ æ³ķ
é »
å¢ ŀ
çĸ Ĺ
ç« ĭ
A I
åĩ Ĩ
åİ »
åĲ ĳ
æł ¼
åħ¬ åı¸
æł ·
å»º è®®
åħ Ī
è¨ Ģ
åħ ĥ
å¤ ĩ
æĶ ¹
åĲĮ æĹ¶
æ¸ ¸
éĩ ĳ
åı¯ä»¥ å¸®åĬ©
é Ĵ
ç Ļ
éª Į
æ¡ Ī
è¾ ¾
æİ ¨
æµ ·
è¿ °
ä¿¡ æģ¯
åĲ Ħ
å®ĥ ä»¬
è¯ į
æĸ¹ éĿ¢
åºĶ è¯¥
ä» ·
åŃ Ĺ
æ ¼
äºĨ è§£
æĸĩ åĮĸ
è ı
åĪ Ĵ
æķ ´
è® ¤
åĨ µ
åħ¶ ä»ĸ
è§ Ĩ
è İ
é¢ Ħ
æľº åĻ¨
åİ Ĩ
é¢Ĩ åŁŁ
å¸ ¦
è Ħ
ç Ĭ
åį ķ
éĤ £
æ® µ
ä¸ ¤
æŀ ģ
å® Į
åı ª
è £
åı £
æĻ ¯
å¤Ħ çĲĨ
å®ī åħ¨
å· ²
æĢ ģ
åŃ ĺ
å¹ ¿
æĽ´å¥½ åľ°
æ¸ ħ
ä¸ ī
åı į
è§ Ħ
è¯ ķ
èĩª çĦ¶
ç¡® ä¿Ŀ
åİ Ł
è¯ ·
æī ¾
è® º
åħ ±
äºº ä»¬
ä»» åĬ¡
ç ¦
ç³» ç»Ł
éĺ Ł
åĢ ¼
éĻ ©
ä¸ ĸ
èĩ ´
æİ ¥
çŃ ĸ
åģ ļ
å¤ ª
æĶ ¶
ä¿Ŀ æĬ¤
ç½ ĳ
çº ¿
è¯ Ŀ
åħ ī
ç¤ º
å¤ į
åĳ ³
ä¿Ŀ æĮģ
æĪ ĺ
æĸĩ æľ¬
æĶ ¿
åĩı å°ĳ
é ĵ
2 0
åĬ Ł
ä» Ģ
ç« ł
è¶ Ĭ
éĩ ĩ
æ² ¡
åŁ İ
è® ¸
å¼ ķ
èĻ ĳ
å¿ «
æ £
æľį åĬ¡
æİ Ĵ
ç© º
éĢ Ł
è¯ Ħ
æĬ ķ
æĺ Ł
äº§ åĵģ
ä¸ª äºº
åħ į
æĢ Ŀ
åĪ Ļ
ä»¥ä¸ĭ æĺ¯
æľª æĿ¥
æĸ ½
è· ¯
é¡ ¹
ç» ĥ
ä»Ģ ä¹Ī
è§£ åĨ³
åĽł ä¸º
åĨ Ļ
æĥħ åĨµ
ç®¡ çĲĨ
éħ į
è Į
ä¸ Ķ
è¶ ³
ç Į
æĸĩ ç«ł
çķ Į
æĤ¨ çļĦ
ä¾ ¿
å§ ĭ
çĶ¨ æĪ·
ç¤¾ ä¼ļ
èĬ ±
åķ Ĩ
ç§ ¯
åı Ĥ
æ ¤
ç ħ
è¯Ń è¨Ģ
éļ ı
ç¬ ¬
é¦ ĸ
æ² »
èĥ½ åĬĽ
éĽ Ĩ
èı ľ
åĩ ł
çĹ ħ
å¦Ĥ ä½ķ
å®¢ æĪ·
ä¸Ń åĽ½
è¾ ĥ
ä¹ ī
ç» Ń
æ° ĳ
çŃ Ķ
åı ĭ
è®¡ ç®Ĺ
åĽ ¢
æ´» åĬ¨
çĪ ±
çĽ® æłĩ
ãĢ ĭ
ãĢ Ĭ
æĽ´ å¤ļ
èĤ ²
åĸ ľ
èĩ ³
æ¬ ¢
ç© ¶
å Ķ
æİ §
æĺ¯ ä¸Ģä¸ª
é ¸
æ¸ ©
æĿ Ĳ
æĪĳä»¬ çļĦ
è®¡ åĪĴ
æŀ Ħ
åĪ Ĺ
åº ı
æ» ¡
è± ¡
è ¥
æ ĳ
æ²¡ æľī
ä»¥ åıĬ
åı ¥
å¸Ĥ åľº
ç ¯
åı ²
çł Ķ
æ³¨ æĦı
è§ ģ
èº« ä½ĵ
è® °
çĽ ´
å°ı æĺİ
è¥ ¿
æľ Ľ
ç» ´
ä¸į æĸŃ
ç¥ ŀ
åı¯èĥ½ ä¼ļ
äº Ĵ
åĽ ¾
æĺ¯ä¸Ģ ç§į
è½ »
æŁ ¥
ä½Ĩ æĺ¯
è®¸ å¤ļ
ä¸ ĵ
åħ ĭ
æĥħ æĦŁ
ä¸įåĲĮ çļĦ
æŁ Ĳ
èģ Ķ
éģ ¿
ç» Ĩ
çĬ ¶
è¿ĩ ç¨ĭ
çĲĨ è§£
éĺ ³
ä½ł çļĦ
éľĢ æ±Ĥ
ç®Ĺ æ³ķ
éĢļ å¸¸
1 0
ç® Ģ
æ¶ Ī
è ĳ
åĨħ å®¹
è´ ¹
ä¹ĭ ä¸Ģ
ä½ İ
çº ¢
å¥ ¹
ä»İ èĢĮ
æĹ ħ
å®ŀ çİ°
å¥½ çļĦ
æĺ ĵ
èĲ ¥
å± ±
å ²
è§ Ĵ
èĢĥ èĻĳ
æĶ¯ æĮģ
è®¾ è®¡
ä¹ĭ éĹ´
è¯ ģ
åĲ ¸
ç ¢
æĪĲ ä¸º
å¸ Ī
èİ ·
è® Ń
å ĥ
ä¹ ¦
éĩįè¦ģ çļĦ
1 9
Ġ Ġ
æ ħ
æı ı
è´¨ éĩı
å¯¼ èĩ´
ä» ½
å·² ç»ı
è¿ ĳ
å¥ ³
éģ¿ åħį
èĤ ī
éĶ Ģ
æĸ ¯
è¿Ĳ åĬ¨
æķ ħ
åĮ» çĸĹ
é¥ ®
æĬ ¥
éļ ¾
æ¼ Ķ
åĳ Ĭ
ï¼ Ľ
åĢ Ļ
çº ¦
çİ¯ ä¿Ŀ
åı¯ä»¥ éĢļè¿ĩ
äº Į
è§ ī
æĬķ èµĦ
å ĭ
ç½ ®
æ ļ
æĿ ¡
ç± ³
æ Ĳ
è£ ħ
å¼Ģ å§ĭ
çĶµ å½±
éŁ³ ä¹Ĳ
åĬ ¿
ç² ¾
çĥ Ń
è¿Ļ ç§į
æ¨¡ åŀĭ
çĻ ½
çľ Ł
å¤ ±
æķĻ èĤ²
ä¸» è¦ģ
èĢ ģ
åıĺ åĮĸ
åĪĨ ç±»
åĪ° äºĨ
è¯ »
å¾ ĭ
ä¸ĸ çķĮ
åĲ ¦
åĥ ı
åį ³
å¤ ´
é ¤
åħ »
æŃ¤ å¤ĸ
å¯¹ äºİ
å¯ »
åħ· æľī
åį Ĺ
æķĪ çİĩ
åĪ¶ å®ļ
åŁİ å¸Ĥ
éĻ ¤
ç ¿
è½ ¬
çļĦ äºº
åħ ħ
èĩª åĬ¨
åŃ¦ çĶŁ
å»º ç«ĭ
æĸ° çļĦ
å¤§ çļĦ
å¼ ł
èģ Į
ä¼ ģ
æĢ» ä¹ĭ
èī º
åĨ į
å¿ ħ
åİ ĭ
é¤ Ĳ
å° ½
æİ ¢
å ¡
å¸¦ æĿ¥
ç¯ ĩ
çłĶ ç©¶
åĳ ½
è´ Ń
äº «
å¢ŀ åĬł
éĻ ħ
åĲ ¬
ä¸Ģ ç§į
æī ĵ
é£İ éĻ©
è¡Į ä¸º
äºº çļĦ
åİĨ åı²
çī ĩ
å¸ Į
åĽ¢ éĺŁ
åĪ© çĶ¨
æ ¢
æī į
åħ ´
è¶ £
æ ĵ
å®ļ çļĦ
è Ľ
å¸ ĥ
éĹ ¨
åı °
åį ĩ
æıı è¿°
ç´ ¢
åıĳ çİ°
åĲĦ ç§į
åħ³ ç³»
äº§ çĶŁ
çĶŁ æĪĲ
åº Ń
è ħ
éĶ ®
Ġ =
ä¼ģ ä¸ļ
ç ª
åĳ ¨
æĪĸ èĢħ
ä» ħ
ç³ ĸ
èµĦ æºĲ
æİ§ åĪ¶
æİ ª
éĺ ²
é ²
åĽ ´
ç§ °
åĬ¨ çī©
éĢĤ åĲĪ
ä»ĸä»¬ çļĦ
åĸľ æ¬¢
çĶ¨ äºİ
çĽ ĳ
çĭ ¬
å®Į æĪĲ
åĲ «
ç¡® å®ļ
è Ń
æľ ĭ
é¦ĸ åħĪ
æ¯ı ä¸ª
å ¨
æĿ ¾
æĮ ĳ
æĪĳä»¬ åı¯ä»¥
åŃ ©
çļĦ å½±åĵį
å¾ ·
å¯ Ĩ
è®¤ ä¸º
æ Ĵ
æ² ¹
æİª æĸ½
çļĦ åıĳå±ķ
æĪ ¿
ä¸ ľ
æľĭ åıĭ
ç§¯ æŀģ
ç ı
Ġ 1
è¯Ĩ åĪ«
äº¤ éĢļ
ä¹ °
æľºåĻ¨ åŃ¦ä¹ł
é¦ Ļ
æĪ ı
æĺ¯ åĲ¦
æĸ¹ æ¡Ī
æĢ§ åĴĮ
æ¬ ¾
çĽ¸ åħ³
éĻ į
Â ·
æ¤ į
åľ° çĲĥ
åı ¤
åŃĺ åľ¨
å®¶ åºŃ
ç« Ļ
åħ³ éĶ®
å¯ Į
ï¼ ģ
ä¼ Ĺ
ç¦ »
è ŀ
åį ģ
æĽ´å¤ļ çļĦ
å· §
é» ĳ
éĻ Ĳ
çĽ Ĭ
äº ī
åĮ Ĺ
è° ¢
éĩĩ åıĸ
åĽł ç´ł
å° Ķ
æŁ ĵ
åħ¶ ä¸Ń
æĮĳ æĪĺ
ä¸» é¢ĺ
å¹ ²
ä¼ °
å° Ŀ
å£ «
åħ¨ çĲĥ
åĸ Ħ
èµ Ľ
æĭ ī
ç§ĳ æĬĢ
èĽ ĭ
è¡¨ è¾¾
çķ ¥
åħ· ä½ĵ
ä»¥ä¸ĭæĺ¯ ä¸ĢäºĽ
çħ §
çº §
æµ İ
Ġ -
æľī æķĪ
å¹¶ ä¸Ķ
è®Ń ç»ĥ
ä¸ ½
ä» Ĭ
åº ľ
å¸Į æľĽ
å¾Ĺ åĪ°
æľĢ åĲİ
æŃ Į
çģ «
åħ³ äºİ
å¾Ī å¤ļ
å± ħ
èĭ ±
åı ·
åĩĨ ç¡®
ç» Ī
æĿ ĥ
æīĢ æľī
åĽ Ľ
èĲ ½
åĽŀ çŃĶ
æ³ Ľ
èŀ į
ä¼ł ç»Ł
èī ¯
æ¸¸ æĪı
éĥ¨ åĪĨ
éļı çĿĢ
æĿ Ĥ
æ ¹
åĬł åħ¥
å·¥ åħ·
æŀ Ĺ
é© ¬
å¾ ģ
è´ Ł
æ ¦
çİ ĭ
æĮģ ç»Ń
ä»¥ ä¸Ĭ
æ ¿
å® ³
é¢Ħ æµĭ
ç»ı æµİ
æĿ İ
çī Į
æķ° åŃĹ
æĿĲ æĸĻ
ç» ľ
åĪ¶ ä½ľ
åĶ ®
åĿ ĩ
è¾ ĵ
ç§ĳ åŃ¦
éĶ Ļ
ä»· åĢ¼
é ¼
åĪ ĩ
ä¸Ģ èµ·
è¿Ļ æł·
å ł
åį İ
çĭ Ĺ
è¿ ľ
æĿ¥ è¯´
å¤ª éĺ³
çĶ »
çŁ Ń
èİ· å¾Ĺ
æ²» çĸĹ
è¡¨ çİ°
æĬ Ĭ
å£ °
ç¤¾ äº¤
å Ħ
æĪĳä»¬ éľĢè¦ģ
æ£ Ģ
ä¿ ®
æĪĲ åĬŁ
ä½ľ ä¸º
æķħ äºĭ
åĮ» çĶŁ
æĬĢ èĥ½
äº ļ
èīº æľ¯
éĩ Ĭ
ç Ĩ
éª ¤
éĩı çļĦ
åį ı
ä½ľ çĶ¨
æĤ¨ åı¯ä»¥
èĥ½ æºĲ
æŃ¥ éª¤
åĵ ª
å® ¤
å¹¿ æ³Ľ
å¾ Ģ
å¿ µ
åħ³ æ³¨
çĶŁ äº§
ä» ĭ
ä¹ĭéĹ´ çļĦ
åı ¦
è¯Ħ ä¼°
çļĦ éĹ®é¢ĺ
ç»ĵ æŀľ
åĬĽ åĴĮ
ä¸¤ ä¸ª
åı¥ åŃĲ
åĬ ±
å ª
æ² Ł
èŃ ¦
åĬŁ èĥ½
é ±
æ¿ Ģ
åıĹ åĪ°
åĩº çİ°
ä½ĵ éªĮ
æ ½
éħ Ĵ
æ± ¡
åĽ Ń
é± ¼
ä¸Ĭ çļĦ
è®¾ å¤ĩ
è´ £
ç½ĳ ç»ľ
é ¾
æĦŁ åĪ°
ä»¥ ä¾¿
çŃī çŃī
éĻ ¢
çĦ¶ åĲİ
åŃ £
è¾ ¹
å± Ĥ
æĭ ¥
æī¾ åĪ°
èµ °
æľº ä¼ļ
çļĦ éĩįè¦ģ
æĪĳ çļĦ
è¡ ¡
é¥® é£Ł
æĮ ī
é¸ ¡
å°Ŀ è¯ķ
åĪĽ éĢł
åĲĪ ä½ľ
åª Ĵ
åıĳ çĶŁ
å± ŀ
ä¸ĵ ä¸ļ
çŃ ĳ
èĳ Ĺ
åŃ© åŃĲ
æĶ¿ åºľ
æ²Ł éĢļ
é» Ħ
èį ¯
éĤ£ ä¹Ī
ä»ĸ çļĦ
çļĦ æĺ¯
é£Ł çī©
äººå·¥æĻºèĥ½ æĬĢæľ¯
é¢ ľ
åĲ Ĺ
ç» ĩ
ç¼ ĸ
å»º çŃĳ
æ±¡ æŁĵ
ä¸į ä»ħ
çŁ¥ è¯Ĩ
åĿ Ĺ
åĦ ¿
å¤į æĿĤ
Ġ 2
èĮ ĥ
å¯¹ è¯Ŀ
åĲ ĥ
i n
è´ ¢
è Ĵ
è°ĥ æķ´
æ¤į çī©
ä¸į æĺ¯
éĴ Ł
ä¹Ł æĺ¯
æĬĢ å·§
çļĦ åºĶçĶ¨
å Ĥ
çİ ©
åĨ³ çŃĸ
çĥ ¤
æĹł æ³ķ
æ¯Ķ å¦Ĥ
çĶ ·
ä¼ĺ åĮĸ
ä¿ ĥ
ä»» ä½ķ
äºĨ ä¸Ģ
åĨ Ľ
ç¬ ¦
çļĦ ä¸Ģ
æł ĳ
åĽ °
è¡Į ä¸ļ
åĬ ª
ç§ ģ
åªĴ ä½ĵ
æķĪ æŀľ
è¯ ¯
ç¼ º
æĤ £
çª ģ
éļ Ĳ
çŁ ³
éģ ĩ
æīĢ ä»¥
çİ° ä»£
è¡¨ ç¤º
äº Ķ
ä¸ ¥
å¼ Ĥ
å· ®
ä½ ı
æĻ ®
åĩ »
çĮ «
é¡¹ çĽ®
é£ ŀ
æ°Ķ åĢĻ
åľ Ł
ä¸º äºĨ
åĩł ä¸ª
è¶ ħ
æĽ ²
çĶŁ çī©
çļĦ åľ°
è¿ĩç¨ĭ ä¸Ń
ç» į
çĶ± äºİ
é¢ľ èī²
å¾ ħ
åĳĺ å·¥
åĵģ çīĮ
å¿ĥ çĲĨ
çī Ľ
è®¡ç®Ĺ æľº
ç»ĵ æŀĦ
åĮĸ çļĦ
æį ¢
ç»ı éªĮ
åŁ ¹
éĥ½ æĺ¯
è´Ń ä¹°
ç ĳ
ç¦ ı
æ¯Ķ è¾ĥ
æ³ ¢
äº¤ æµģ
æĺ ¾
èį ī
æľºåĻ¨ äºº
åħ± åĲĮ
é² ľ
ç ĵ
æ ¥
æ ©
ç»Ħ ç»ĩ
å· ŀ
æľī åĬ©
èĥ Į
¾ çĹħ
åĬł å¼º
å° Ĭ
ç®Ģ åįķ
ä»ĭ ç»į
è® ¨
ä»· æł¼
æ± ½
ç´ §
æŃ ¢
æĢ§ çļĦ
çī¹ å¾ģ
æīį èĥ½
å½ ķ
è¦ģ æ±Ĥ
æĿ¥ è¶Ĭ
1 5
å® Ŀ
ä½ľ åĵģ
ä¼ ¼
ä¸ ĩ
è¿ ½
è¶Ĭ æĿ¥è¶Ĭ
æŃ£ åľ¨
èµ· æĿ¥
ä¸į è¦ģ
éĺ ħ
1 2
ç¾ ¤
é£İ æł¼
çŃĸ çķ¥
æľīåĬ© äºİ
åĪ »
è¿ ŀ
è§£ éĩĬ
åº¦ åĴĮ
å· ´
äº ²
æĪĲ åĳĺ
åĿ ļ
æ¦ Ĥ
è Ķ
åĳ ¼
æ´ ĭ
é© ¶
åĩĨ å¤ĩ
ç±» åŀĭ
æĻ ļ
åį ¡
ä¸ °
çŁ¥ éģĵ
æĹ ı
è½ ¯
çĶŁ æĢģ
éĶĢ åĶ®
ä»¥ ç¡®ä¿Ŀ
ä¹Ł åı¯ä»¥
å¾ ®
å¥ ¶
æł ¡
å ©
é Ĩ
ç» ¿
ç» ª
å¯» æī¾
èĩªçĦ¶ è¯Ńè¨Ģ
æĭ Ł
åº Ĺ
åĪ ¤
ä¸Ģ ç¯ĩ
è ĵ
æĳ Ħ
é º
åī §
ä¼ ¤
æ¯ į
æĭ¥ æľī
éĢ Ĳ
æİ¢ ç´¢
æĹ ©
åĬª åĬĽ
çĸ ¾çĹħ
ç»ĥ ä¹ł
å½ĵ åľ°
æ² ³
åĪĽ æĸ°
ç² ī
é¼ ĵ
è¿ĺ æľī
çļĦ æĸ¹æ³ķ
èį Ĳ
èĪ Ĵ
éĿ Ļ
è¡Į åĬ¨
è§Ĵ èī²
çĶŁ åĳ½
æ² Ļ
ä¸ ´
à ¸
æ´ ģ
æİ¨ èįĲ
å¿« éĢŁ
å½ Ĵ
è¶ ĭ
çķ Ļ
éĩĩ çĶ¨
ç» ¼
æŃ£ ç¡®
åĪĨ éĴŁ
å¥ ĩ
è¯ ī
æĶ¹ åıĺ
å± Ģ
ç¨ĭ åºı
æħ ¢
çľ ģ
AI æĬĢæľ¯
åı Ī
èģĮ ä¸ļ
éĺħ è¯»
çĶµ åŃĲ
å¦Ĥæŀľ æĤ¨
èĪ ŀ
æķ £
ï¼ī ï¼Į
æĿ ¿
åħ´ è¶£
è® ²
æ° §
ä¿ĥ è¿Ľ
æĥħ ç»ª
2 00
ç½ Ĺ
éĹ »
æķ° éĩı
åıĺ å¾Ĺ
é¢ ĳ
è¯Ń éŁ³
éĻį ä½İ
éĩĳ èŀį
åģļ åĩº
å®ŀ éĻħ
å°Ĩ ä¼ļ
éĢł æĪĲ
è¶ĭ åĬ¿
æµ ª
åİ ¿
çī© è´¨
ç§ »
æĭ ħ
æĹħ æ¸¸
è¯ Ĭ
åħĥ ç´ł
à ¤
æ³ķ å¾ĭ
åİĭ åĬĽ
åı¯ä»¥ åľ¨
é£Ł åĵģ
åľ° åĮº
åİ ħ
æ¸ Ĳ
æĽ´å¥½ çļĦ
æ±½ è½¦
ç ĩ
é© ¾
äºº åĳĺ
æĶ¾ æĿ¾
æĹħ è¡Į
æľĢ ç»Ī
ä¸Ģ æŃ¥
æĪĲ æľ¬
åĨ ľ
åıĤ ä¸İ
æ°´ å¹³
åİŁ åĽł
å¢ŀ å¼º
èĻ ½
åĴ ĸ
ä»£ è¡¨
æī ¿
è ª
å®ĥ çļĦ
å¼Ģ åıĳ
çī¹ çĤ¹
Ġ 3
ç¥ ¨
ä» ¤
é¢ Ŀ
åı¯ æĮģç»Ń
æ½ ľ
äº ¬
åħ ¸
é Ń
èĤ ¡
ç¨ ³
åĲ¸ å¼ķ
çİ° åľ¨
çļ ®
èģĶ ç³»
æľ ¨
å¹³ è¡¡
å¤ ı
ç¾İ åĽ½
ç¼ ĵ
ä¸Ģ ä¸ĭ
ä¸ ¾
è¡ Ģ
é¡ »
æ·± åº¦
è ľ
åº §
» çĤ
å½ ©
ä½į ç½®
å¯ Ł
é¦ Ī
å®ļ æľŁ
åģ ĩ
åħ¬åı¸ çļĦ
æļ ĸ
èĻ½ çĦ¶
ä¸° å¯Į
æĦı è¯Ĩ
è¿Ļ æĺ¯
æĤ£ èĢħ
æĥ ¯
ŀ äºī
åı Į
åŁº æľ¬
åŁº äºİ
æ¯ı ä¸ªäºº
éĢĤ åºĶ
å°± æĺ¯
ä¸ª æĢ§
çģ µ
å° Ħ
èĶ ¬
çº ª
ĥ åľ
åĪ Ŀ
åŀ ĥåľ
åŀĥåľ ¾
åºĶ å¯¹
åıį é¦Ī
éļĲ ç§ģ
ä¸Ģ ä»½
çļĦ æĹ¶éĹ´
åķ ¡
è¯ ¢
è¡ £
ä¾ Ŀ
å¿ Ĺ
è± Ĩ
æĶ¹ è¿Ľ
åį °
äºĭ ä»¶
æİ Į
å¤ļ ç§į
éļ ľ
åģ ı
èĩªçĦ¶è¯Ńè¨Ģ å¤ĦçĲĨ
åĴĸ åķ¡
æľĢ è¿ĳ
èĭ ¹
åıĤ åĬł
èĭ¹ æŀľ
åıĬ æĹ¶
æ´ Ĺ
çļĦç ¾
å¸¸ è§ģ
å®¹ æĺĵ
å¨ ģ
ç» §
é¦ Ĩ
çĦ¶ èĢĮ
æĵ į
æł ¸
ä» į
æ´ ²
æ°´ æŀľ
åı¯ä»¥ è®©
éĺ ¿
æĿ ĳ
çŃī æĸ¹éĿ¢
ä¸į èĥ½
è Ĺ
èĶ¬ èıľ
ä¸Ģ æ®µ
åĨ °
ä½¿ å¾Ĺ
é¼ĵ åĬ±
çŃĶ æ¡Ī
æĢĿ èĢĥ
ç¤¾äº¤ åªĴä½ĵ
å¿ħ é¡»
ä¸į ä¼ļ
éĿ Ĵ
æĺ¯ æĮĩ
ä¹ł æĥ¯
å°ı è¯´
å½¢ æĪĲ
è¯ Ĺ
åŁº ç¡
åŁºç¡ Ģ
åĬ ŀ
å® ĺ
éĥ½ æľī
âĢĿ ï¼Į
åį «
æ¯Ķ èµĽ
æ¶ ī
çł ´
1 8
æī §
èĪĴ éĢĤ
èĦ ĳ
æĶ¹ åĸĦ
ä¸Ģ ä½į
ä» ĺ
å° ¼
é©¾ é©¶
in g
çľ ł
ä¼ ĳ
æĦ ¿
éĢŁ åº¦
èī² çļĦ
3 0
åľº æĻ¯
ç© ¿
å¯» æ±Ĥ
éĿ ł
åı ¶
èĩªåĬ¨ åĮĸ
æĦı ä¹ī
Ġ +
èĲ¥ éĶĢ
äººç±» çļĦ
ä¸Ģ æ¬¡
è¯ ¦
è¿ĺ åı¯ä»¥
åĽ½ å®¶
æķ´ ä¸ª
è¯Ĭ æĸŃ
ä¸Ń å¿ĥ
ä½ ³
éĽ ¨
æ»¡ è¶³
å¤ ľ
åı¯ä»¥å¸®åĬ© æĤ¨
åħ¶ æ¬¡
èĩª æĪĳ
é¡ ¾
æĹ¶ åĢĻ
æĽ ¾
æķ° åŃ¦
è´£ ä»»
åĨ ·
é¥ °
çĭ¬ çī¹
è¯ ¾
âĢ Ķ
çĮ ®
æį Ł
æĿ ¯
æľ Ŀ
æ°ĶåĢĻ åıĺåĮĸ
æĥħåĨµ ä¸ĭ
çĽ Ĳ
æ¶Ī è´¹
æĺİ ç¡®
æĶ¿ çŃĸ
éĵ ģ
æ£Ģ æŁ¥
æĲ Ń
çļĦç¾ İ
ç¤ ¼
èĻ ļ
åĤ ¨
ç¬ Ķ
åĲĮæĹ¶ ä¹Ł
æ¢ ¦
è· Ł
æīĭ æľº
å¤ļ ä¸ª
ä¸Ģ çĽ´
å· ¨
çĦ ¦
å½¢ å¼ı
éĢ ı
ç»Ļ åĩº
çļĦ å·¥ä½ľ
æı ¡
æ· ·
éĴ Ī
äº ĳ
çļĦç ¤
åıª æľī
æ´ ŀ
çļĦ æĸĩç«ł
è¿ĺ æĺ¯
é«ĺ æķĪ
å®ĥä»¬ çļĦ
åĳ¼ åĲ¸
æĦŁ è§ī
å°Ĭ éĩį
è¿ İ
åĨ ²
äº ®
æĶ¶ éĽĨ
åı¯ä»¥ ä½¿çĶ¨
åº ķ
éĢĤ å½ĵ
èī¯ å¥½çļĦ
äºĨ ä¸Ģä¸ª
èĵ Ŀ
è§£åĨ³ æĸ¹æ¡Ī
è¶³ å¤Ł
Ġ åľ¨
åĮħ åĲ«
æ± Ł
æĸ¹ åĲĳ
ç»Ħ æĪĲ
éħ ±
çĨ Ł
æ¯ı å¤©
å¤§ éĩıçļĦ
é«ĺ çļĦ
è¾ Ĩ
çľ ¼
æĪĳ ä¼ļ
æĸ° éĹ»
èĩª çĶ±
æľªæĿ¥ çļĦ
é¾ Ļ
å¥ ĸ
éĵ ¾
èĲ¥ åħ»
éĩ İ
é¸ Ł
è ĸ
åħ °
è¯¦ ç»Ĩ
æĦŁ åıĹ
åį ļ
å ³
åĲĪ éĢĤ
æľī åħ³
åıį åºĶ
ç« ŀäºī
_ _
åĪĨ äº«
çļĦ çĶŁæ´»
èĮĥ åĽ´
çĹ ĩ
å® £
æĮī çħ§
æĵį ä½ľ
åħħ æ»¡
åģ ľ
æµģ ç¨ĭ
è· ĳ
çĿ ¡
æĢ ¥
æ¨¡ å¼ı
åĿ ı
çĽ® åīį
å° ļ
çº ³
éĶ »çĤ
éĶ»çĤ ¼
æŁĲ äºĽ
æŃ §
ç»§ ç»Ń
åŃ¦ä¹ł åĴĮ
èĥĮ æĻ¯
åĲĪ çĲĨ
çľĭ åĪ°
å² ģ
æĺ ¥
ä½ł åı¯ä»¥
ç§ ĺ
æıĲ åıĸ
æĺ¯ åľ¨
è¿Ļ éĩĮ
å¹ ¸
å¤ļ å°ĳ
å¡ ĳ
çļĦ æķ°æį®
èĢĮ ä¸Ķ
è®° å½ķ
å¹³ åı°
è§Ĥ çĤ¹
åĽ¾ åĥı
åĪĨ éħį
æľº æŀĦ
åĳ ¢
åľ¨ è¿Ļä¸ª
ä¸Ģ å®ļ
æİĴ åºı
å¤© æ°Ķ
a n
åı¯ä»¥å¸®åĬ© ä½ł
è¾ ĳ
ä½į äºİ
å® Ī
å¿ħ è¦ģ
çħ ®
å² Ľ
æĥ³ æ³ķ
èĳĹ åĲį
ç©º æ°Ķ
çļĦç Ł
æ¤ Ĵ
æĸĩ åŃ¦
åį ±
çĸ ĳ
æĿ¡ ä»¶
çļĦ ä¿¡æģ¯
éĶĻ è¯¯
æłĩ åĩĨ
åĵª äºĽ
åĽ° éļ¾
ä¼ ¦
ä½ Ļ
æµĭ è¯ķ
è Ĩ
å® ĩ
Ġ "
èĮ ¶
00 0
è· Ŀ
ä¸º æĤ¨
ç ¹
åĨ³ å®ļ
åı£ æĦŁ
çļĦç ł
çļĦ å»ºè®®
çĽ ĸ
1 1
ç¿ »
éĿ¢ çļĦ
æĶ »
çĸ «
é¤Ĳ åİħ
ç»ı åİĨ
åĪĽ ä½ľ
å¦Ĥæŀľ ä½ł
åĵ Ī
Ġ 5
è¿Ľ ä¸ĢæŃ¥
ä¸Ģ åĲį
éĴ ±
æ· »
ç³ĸ æŀľ
éĢĲ æ¸Ĳ
éĢ ģ
æķĪçİĩ åĴĮ
æĴ Ń
åĬĽ éĩı
å¹´ è½»
æķ ĳ
æ¯ Ĵ
ä¹ĭ åīį
è§Ħ åĪĴ
è¾ĵ åħ¥
è´ §
å¤ļ æł·
éľĢè¦ģ æ³¨æĦı
äº« åıĹ
å®¶ å±ħ
1 6
åį Ĭ
æİĴ æĶ¾
âĢĿ ãĢĤ
ç©º éĹ´
ç¥ŀ ç»ı
éĵ ¶
æľī è¶£
çī¹ åĪ«
äºĭ æĥħ
B a
æ¸© åº¦
å· ¦
ç« ¯
ãĢĤ âĢĿ
æĮ ¥
æ¯ Ľ
ä¸į åı¯
éħ ¸
éķ ĩ
æĢ» çļĦ
å¤ «
æ ĩ
åı ³
ç¬¬ äºĮ
æĹ¥ å¸¸
è ¸
æ·± åħ¥
ç¾İ ä¸½
æ¶ī åıĬ
æ³¨ éĩį
å°Ĩ åħ¶
æĺ¯ çļĦ
åį ´
çģ ¯
çļĦç¤ ¾
è¿Ľ æŃ¥
ä¸¥ éĩį
Ġ (
åħ³éĶ® è¯į
èĪ ª
èĢħ çļĦ
æĢ»çļĦ æĿ¥è¯´
ç¢ ³
éĿ¢ ä¸´
æıĲ åĩº
æ± ¤
éĤ ®
åķĨ ä¸ļ
çĬ¶ æĢģ
æİĮ æı¡
é¡ º
éģ Ĺ
çĬ ¯
ä»Ĭ å¤©
å¤§ åŃ¦
å¯¹è¯Ŀ åĨħå®¹
å© ļ
ä¸ī ä¸ª
çº ¸
ĠĠ ĠĠ
æ£ ®
æĹ¥ æľ¬
åĴĮ åħ¶ä»ĸ
éĶ ħ
èĪ ¬
ç»Ļ å®ļçļĦ
æľī äºĽ
é¢ Ĺ
å®ŀ éªĮ
å® ¡
æĢ» ç»ĵ
è¿Ļ æ®µ
çģ ¾
æĬ ĺ
èĥ ľ
ç¬¦ åĲĪ
æĹ¶éĹ´ åĴĮ
éĿ ©
éĹ®é¢ĺ çļĦ
è½¯ ä»¶
æĢ İ
z ing
èģ ļ
Ba zing
Bazing a
åĳĬ è¯ī
åĭ ĩ
èĦ Ĥ
åŁ¹ è®Ń
çļĦç ľ
æĢ§ èĥ½
åĢ Ĵ
å® ł
ç½ ª
èģĶ ç½ĳ
çī© åĵģ
éĢ Ķ
çĽ¸ äºĴ
è´Ł éĿ¢
æĽ´å¥½åľ° çĲĨè§£
æľī çĿĢ
éĻĲ åĪ¶
è´ ¡
æŃ§ è§Ĩ
åŃ¦ æł¡
ä¼ ´
ï¼ļ âĢľ
è®¨ è®º
æİ¨ åĬ¨
ä¼ ½
çĬ¶ åĨµ
éģ µ
åį ĥ
æıĲä¾Ľ äºĨ
èį¯ çī©
éģĵ å¾·
å°ı çº¢
å ĺ
çĻ ¾
è¯´ æĺİ
æĲ ľ
ç® ±
æĲŃ éħį
åĪ¶ éĢł
æŃ »
X X
ä¹Ł ä¼ļ
ä¹ ħ
æķ°æį® çļĦ
èĤ Į
çİ° å®ŀ
ä¿Ŀ è¯ģ
çĦ¦ èĻĳ
å¥ ı
åĮĸ åŃ¦
é¢ĺ çĽ®
5 0
æĬĢæľ¯ çļĦ
å¤§ åĪ©
å¼º è°ĥ
éĢ Ļ
æ¥ ¼
ç¹ ģ
çı Ń
çļĦç ĥ
æĹ¥ æľŁ
å¼ķ èµ·
è´ µ
Ġ å°Ĩ
è°ĥ æŁ¥
ç¾İ é£Ł
å§ Ķ
æ·±åº¦ åŃ¦ä¹ł
æ± ī
ç¨³ å®ļ
åį Ī
çļĦ æĸ¹å¼ı
å½ĵ çĦ¶
æİ¥ åıĹ
æµ· æ´ĭ
åĮ» åŃ¦
éľĢæ±Ĥ åĴĮ
è´¢ åĬ¡
èĹ ı
åĽ º
å®ł çī©
å¹³ åĿĩ
Ġ Ð
å°ı æĹ¶
æĪĳä»¬ åºĶè¯¥
ç»´ æĬ¤
æ¸ħ æ´ģ
æĥ³ è¦ģ
çĥ Ī
åķĨ åĵģ
è® ¿
æ¼ «
æıĲ åįĩ
ľ ä¼½
å¤§ éĩı
æĢĿ æĥ³
å® Ĺ
åĢ ĭ
æİ¨ å¹¿
æľī æīĢ
ä¸º ä»Ģä¹Ī
å «
æĺ¯ ä»Ģä¹Ī
å±ķ ç¤º
åĴĮ æĸĩåĮĸ
è´¡ çĮ®
æī ©
è¡¨ æĺİ
çĶ¨ çļĦ
çĽ¸ ä¿¡
æ¬¢ è¿İ
è¾¾ åĪ°
è¯ ļ
äºĴ åĬ¨
ä¸ĭ æĿ¥
èĢģ å¸Ī
æ¹ ĸ
èĥ ¡
æĮĩ å¯¼
åĬĽ çļĦ
äºº æ°ĳ
ç» Ŀ
çĽ ĺ
åĿ Ĳ
é¥ Ń
æī§ è¡Į
å¹¶ åľ¨
çĶ¨æĪ· çļĦ
è¡Į æĺŁ
ç £
åº ĵ
åĬ ³
æĽ ¿
å® Ļ
åĲĪéĢĤ çļĦ
æĪĲ éķ¿
çī© ä½ĵ
åħ¬ åħ±
åĽ¢éĺŁ æĪĲåĳĺ
çļĦ ä¸»è¦ģ
ä»į çĦ¶
èĽĭ çĻ½
è¯ ĳ
åıĸ å¾Ĺ
è· ³
éĿŀå¸¸ éĩįè¦ģçļĦ
æĢĿ ç»´
è¿Ļ ä¸Ģ
ä¹ ĺ
æľĢ ä½³
æ¶ ²
å¾ ª
Ġ Ã
a r
æ®µ èĲ½
éĤ® ä»¶
æ± ĩ
ä¸ļ åĬ¡
ä¸ĭ éĿ¢
äºº çī©
æ·· åĲĪ
æ»¡ æĦı
èĢ Ĳ
éľ ²
ç³» åĪĹ
å¤§ å°ı
åı¦ å¤ĸ
åĮ Ģ
éĻ¤ äºĨ
è· µ
å®ĩ å®Ļ
Ġ 4
ç¤¾ åĮº
çĭ¬çī¹ çļĦ
å¥ ¥
åĴ ¨
æ¦Ĥ å¿µ
åĩı è½»
éĴĪ å¯¹
çĽ¸ å¯¹
çĽĳ æµĭ
å¯¹ æĸ¹
èµ ı
çļĦ æĥħæĦŁ
åįķ è¯į
å®ī æİĴ
çĶµ è§Ĩ
çī© çĲĨ
J o
æĹł è®º
æĳ ĺ
èģ Ĭ
å¥³ æĢ§
éķ¿ æľŁ
æ´ ¾
åĩ Ģ
è´Ń çī©
åĴ¨ è¯¢
å±ŀ äºİ
éĿ¢ å¯¹
åºĶçĶ¨ ç¨ĭåºı
åı «
æ± ģ
éĢĤ éĩı
æ¸ħ æĻ
å®ŀ è·µ
åģ¥ èº«
èĤ ¥
æĳĦ åħ¥
å¿ Ĩ
1 4
ç¨ĭ åº¦
å®Į åħ¨
æ·» åĬł
é ¹
è·Ŀ ç¦»
è¡ Ĺ
èĳ ±
çļĦç Ī
çļĦçł Ķ
åŃ¦ ä¼ļ
éĩį æĸ°
çł ģ
ç§° ä¸º
çİ° è±¡
åŃ ¸
èĲ ¨
çĽ¸åħ³ çļĦ
æĬ Ĺ
å¾ Ħ
å¸¸è§ģ çļĦ
æľīæķĪ çļĦ
éĻ Ī
æĬ¥ åĳĬ
åıĳ æĮ¥
çĿ £
åĽ½ éĻħ
éĢĤå½ĵ çļĦ
çĽ¸ åºĶ
ç»ı å¸¸
æĿ Ł
éľĢè¦ģ èĢĥèĻĳ
è§Ħ åĪĻ
çĶ ľ
e r
çĳ ľä¼½
å·¥ ç¨ĭ
çĩ ĥ
æĺ¯ çĶ±
è¿½ æ±Ĥ
ç» ©
è ¹
çļĦåľ° æĸ¹
ä¼ļ è®®
åĪ¤ æĸŃ
çĹ Ľ
æŃ ¦
ç»¼ ä¸Ĭ
çĥ §
æĶ¾ åľ¨
ä»¥ä¸ĭ åĩłä¸ª
æīĢ è¿°
æľ «
è§ī å¾Ĺ
æĹ¶ æľŁ
èĥ½ éĩı
h n
æŁ Ķ
çĪ ¶
èĭ ı
æĸĩåĮĸ åĴĮ
æ° ¸
åĳ Ī
å¡ Ķ
æľī ä¸Ģ
åı¯ä»¥ æł¹æį®
Jo hn
æµ ĵ
ç»Ĩ èĬĤ
éĨ Ĵ
èĤ¡ ç¥¨
è®© æĪĳä»¬
ä¾ĭ åŃĲ
ä¼ĳ æģ¯
å¢ŀ éķ¿
æľī å¾Īå¤ļ
Ð °
å¦Ĥ ä¸ĭ
ç§ Ģ
æļ ´
è¡¨ éĿ¢
çĶŁæ´» ä¸Ń
åı¯ éĿł
çĤ Ĵ
åī ©
æĲľ ç´¢
è§Ĩ è§ī
± ä¹Ĳ
çĶŁ éķ¿
å» ¶
ä¿Ŀ åģ¥
ä¼ĺ åĬ¿
çī Ī
çĶŁæĢģ ç³»ç»Ł
è¯¾ ç¨ĭ
1 7
æĥ Ĭ
è¿Ľ åħ¥
æĦı åĳ³
æĹ¶ å°ļ
å¸¦æĿ¥ äºĨ
æ± ł
åķ Ĭ
ç½ĳ ç«Ļ
æľĢ å¤§
æ°Ķ ä½ĵ
å¹¿ åĳĬ
åľ¨ åĮ»çĸĹ
é¢Ħ ç®Ĺ
ï¼ī ãĢĤ
è¯Ħ è®º
è¿Ļä¸ª éĹ®é¢ĺ
ä¸ĸ çºª
æ¬ §
ç§¯æŀģ çļĦ
åģ¥åº· çļĦ
è¾ £
æĶ¶ åħ¥
åĲ ¯
ç¨ İ
éĽĨ ä¸Ń
æ¸ħæĻ °
æĦı å¤§åĪ©
è®¾ ç½®
ä¼ĺ åħĪ
äº¤ æĺĵ
å¸ ģ
ä¿¡ ä»»
ç»¼ä¸Ĭ æīĢè¿°
ç»¿ èī²
ä¸ Ŀ
æķ°æį® åĪĨæŀĲ
è½ ®
åħ Ń
åº Ł
æĭ Į
è¿ĩ åº¦
åľ Ĩ
åħ¬ åĽŃ
ç¼ĵ è§£
åĲ §
å¹¸ ç¦ı
è½¦ è¾Ĩ
çļĦ é£İéĻ©
ä¸Ģ èĪ¬
çĽ´ æİ¥
2 5
åħħ åĪĨ
çİ Ľ
æĭ ¿
æĦıåĳ³ çĿĢ
æŃ£ç¡® çļĦ
æ² ī
1 00
åĢ ¾
å¡ĳ æĸĻ
o n
åľ¨ çº¿
èĤ ¤
çļĦç ¬
è¢ ĭ
ç»ĵ åĲĪ
å® «
æĪĲä¸º äºĨ
åĲį ç§°
è° Ī
çļĦ å®īåħ¨
å§ Ĩ
çŃ ¾
é¾ Ħ
å·® å¼Ĥ
èĢ Ĺ
è§£åĨ³ éĹ®é¢ĺ
çĶ¨ æĿ¥
ç¾İ åĳ³
ä¹ ¡
æ£® æŀĹ
çļĦçłĶ ç©¶
é£Ł æĿĲ
1 3
æ³ ¡
ç»ı è¿ĩ
æĽ´å¥½åľ° äºĨè§£
åĿļ æĮģ
è¿ ·
è®© æĪĳ
åį³ åı¯
è§Ĥ ä¼Ĺ
çľŁ æŃ£
æķ ı
ä¸» ä¹ī
åı¤ ä»£
æĬ¥ éģĵ
åĨĻ ä½ľ
è¿Ļ å°Ĩ
æ¹ ¿
æĶ¾ åħ¥
æĤ¨ éľĢè¦ģ
åı¥ è¯Ŀ
åĢ ĳ
çİ¯å¢ĥ ä¿ĿæĬ¤
åī ¯
å³ °
æĻ Ĥ
éĢ Ĵ
åį ł
ï¼ģ <|
åĪĨ ä¸º
éĩį å¤į
o m
æĻºèĥ½ å®¶å±ħ
æĬ ½
é¢Ĩ å¯¼
æĦı è§ģ
ç¿» è¯ĳ
ä½ľ èĢħ
åºĶçĶ¨ äºİ
ä½ Ľ
åŃĲ çļĦ
ç±» åĪ«
çĽ´ åĪ°
ä»¥ä¸ĭ æĺ¯ä¸Ģ
æĶ¿ æ²»
åĨĻ ä¸Ģç¯ĩ
å· Ŀ
é ĸ
çļĦ ä¸Ģä¸ª
æīĢ éľĢ
æĿ¥ æºĲ
çī Ļ
è ķ
è¯Ħ ä»·
ç³ ķ
å®ŀ æĸ½
èĻļ æĭŁ
å®£ ä¼ł
æ° Ľ
æĢİ ä¹Ī
æĦŁ è°¢
ç± į
ã ģ
çĻ »
é ŀ
ä»ĸ äºº
æľĢ éĩįè¦ģçļĦ
ãĢ Į
è ³
ãĢ į
éĻ Ħ
å¿ħè¦ģ çļĦ
åı¯æĮģç»Ń åıĳå±ķ
æĥħ èĬĤ
æ·± åĪ»
æĪĳ è®¤ä¸º
è¶³å¤Ł çļĦ
åĴĮ æĶ¯æĮģ
è°¢ è°¢
çŃī é¢ĨåŁŁ
é«ĺ åº¦
è¿ĩ åİ»
è ²
æĳĺ è¦ģ
çİ ī
æī ¹
æĹ ĭ
å° ģ
å¹¶ ä¸į
å®¢æĪ· çļĦ
åº Ĭ
åŃ¦çĶŁ çļĦ
åĳ³ éģĵ
ç»Ļ å®ļ
æİ Ī
2 1
äºĴ èģĶç½ĳ
å¦ Ī
åĳ¨ åĽ´
èĮ Ħ
ç®Ģåįķ çļĦ
ä¸ĵ æ³¨
åĮº åŁŁ
å® ½
æ¶ ¦
åĴĮ ç¤¾ä¼ļ
æĦ ī
æ½ľ åľ¨
åı¯ä»¥ æıĲé«ĺ
ä¹ ³
è®¤ è¯Ĩ
å°½ åı¯èĥ½
æ» ©
åĬ¨ ä½ľ
ä½ł å¥½
éĺ³ åħī
ç¬¬ ä¸Ģ
åĪĽ å»º
è®© äºº
æŀ ¶
éŃ Ķ
å·¥ ä¸ļ
èĦ ļ
å¤§ å®¶
å°½ ç®¡
åĩº æĿ¥
åĨħ éĥ¨
åī Ĥ
çİ© å®¶
åħ «
ç»Ħ åĲĪ
æļ Ĺ
å¼ ĥ
ç²¾ ç¥ŀ
èĽĭçĻ½ è´¨
è§Ĥ å¯Ł
è´ ¥
æĿ¥ èĩª
å£° éŁ³
å®¶ äºº
Ġ '
åĨ Ĵ
åĿĩ åĮĢ
è§Ĩ é¢ĳ
èĭ± è¯Ń
å¹´ çļĦ
ç»¼ åĲĪ
è¡ ¥
çŃī æĸ¹å¼ı
çļĦ å°ı
ç» ĺ
åĮĹ äº¬
å Ĺ
èĤ ª
èĦĤ èĤª
ä»¤ äºº
è¸ ª
è ©
ç¼ ©
è¿ŀ æİ¥
åį ·
æµª è´¹
æĸ¹ ä¾¿
çĶŁ åŃĺ
çļĦ æĬĢæľ¯
å¿ ĺ
åĪ ļ
çĽ¸ åĲĮ
æ¸ ¯
è¡Į çļĦ
ç¥ Ŀ
å½¢ è±¡
æĶ» åĩ»
è§ ¦
éĤ£ äºĽ
è¾ ħ
æĪĳ åı¯ä»¥
æľŁ éĹ´
ä¸ªæĢ§ åĮĸ
å¤ļ çļĦ
åı£ åĳ³
l e
å¹¶ æıĲä¾Ľ
åľ° æĸ¹
ä»·åĢ¼ è§Ĥ
æľī ä¸Ģä¸ª
çĲĨ è®º
æĭ Ľ
å¥¹ çļĦ
éģĩ åĪ°
å¹³ çŃī
èĳĹåĲį çļĦ
éĢ Ģ
éĺ ¶
æĪĳ æĥ³
èĩª ä¿¡
è¯» èĢħ
åĢ¼ å¾Ĺ
èĴ ľ
åŃ ¤
ä¹ ı
æĻ¯ çĤ¹
æ³¨æĦı åĬĽ
æĺ ł
æĶ¯ ä»ĺ
åĨ ¥
åł Ĥ
éĽ ª
å¨ ±ä¹Ĳ
æĺ¯ ä¸ŃåĽ½
èĥ ģ
ç»ı åħ¸
ç§ ĭ
æķ ¬
æ» ĳ
åĲĦ ä¸ª
äº Ī
æģ ¶
åı¯èĥ½ æĺ¯
çĽ® çļĦ
æ¬ £
éģ į
éĿ¢ ç§¯
åĬ© æīĭ
åĩº äºĨ
ä¸Ģ æł·
è¯ŃéŁ³ è¯ĨåĪ«
çļĦ çĽ®æłĩ
è§Ħ å®ļ
æĢģ åº¦
åı¯ä»¥ çĶ¨äºİ
åĴĮ åıĳå±ķ
ä½ł éľĢè¦ģ
ä¿Ŀ éļľ
å°± ä¸ļ
æ³ ³
æĻºèĥ½ åĮĸ
å ´
ä¾ Ĩ
çĶ ³
çĶ ļ
ä¹ĭ åĲİ
è¿Ļ æĺ¯ä¸Ģä¸ª
æ¨¡ æĭŁ
å¨ģ èĥģ
çĿ¡ çľł
æ¡ ¥
æ¶Īè´¹ èĢħ
å¸ Ŀ
çĶ ²
Ø §
éº ¦
ç¬ ĳ
æ© Ļ
å½ ¼
èĤĮ èĤī
ç¥ŀç»ı ç½ĳç»ľ
æľī ä»Ģä¹Ī
éĽ ¶
19 9
çķ ª
åĪ º
éľ ĩ
çļĦ çİ¯å¢ĥ
å»º è®¾
ç§» åĬ¨
å¢ Ļ
é¸¡ èĽĭ
èª ī
æĸ Ĺ
çļĦ åħ³éĶ®
èĢĮ ä¸įæĺ¯
è£ħ é¥°
ç¥ŀ ç§ĺ
åŁ¹ åħ»
ä½ł ä»¬
å° ¤
å¹´ é¾Ħ
åıª æĺ¯
é¢Ħ éĺ²
é»ĳ æ´ŀ
åĪĨ åĪ«
èµ ŀ
æķĻ åŃ¦
åº Ĩ
äº§åĵģ çļĦ
å± ĭ
æĭ į
å¯¹ çİ¯å¢ĥ
é¥ ¼
è´¹ çĶ¨
æĶ¯æĮģ åĴĮ
åħ¬ éĩĮ
éŀ ĭ
è° ±
é¡ ¶
åľ¨ ä¸Ģèµ·
éª ¨
è° ·
çĽ¸åºĶ çļĦ
æĢ§ åĪ«
å¤§ æ°Ķ
éĻ Ĩ
è® ¢
æĹ¶ ä»£
å½¢ çĬ¶
æľīæķĪ åľ°
æī °
ç« ¥
å° ¾
ç¾İä¸½ çļĦ
å¿« ä¹Ĳ
ä¾ §
åĨ¥ æĥ³
æ£Ģ æµĭ
èİ· åıĸ
å®¶ åħ·
åĵģ è´¨
è½ ½
çļĦéĩįè¦ģ æĢ§
åĸ Ŀ
æ°§ åĮĸ
éĥ¨ éĹ¨
ç§ĳåŃ¦ å®¶
æĥ ł
çĨ Ĭ
èī ¾
è®¾ æĸ½
åĴĮ å®īåħ¨
æİ¢ è®¨
æŃĮ æĽ²
æĸ° é²ľ
ä¸°å¯Į çļĦ
åıĺå¾Ĺ æĽ´åĬł
ä¹Ł æľī
å° º
åĽłä¸º å®ĥ
éļı æĹ¶
æ® Ĭ
æľºåĻ¨åŃ¦ä¹ł ç®Ĺæ³ķ
éĺ² æŃ¢
æĦŁ åıĹåĪ°
ä¹ İ
æģ Ĵ
åĨ² çªģ
6 0
2 2
åĪĹ è¡¨
ä¸Ĭ æľĢ
è¿Ļ ç¯ĩ
é¡ ¿
åħ·ä½ĵ çļĦ
éĩı åŃĲ
å½ĵ åīį
è®¿ éĹ®
åĸľæ¬¢ çļĦ
èĥ½åĬĽ åĴĮ
éĹ Ń
çı į
èĪ ¹
æİªæĸ½ æĿ¥
çļĦç ģ
æĲ ħ
é ½
æł¸ å¿ĥ
çĶļ èĩ³
çĥ ¹
æģ Ĳ
æ¯ıä¸ªäºº éĥ½
å® ģ
çĶ °
å¥ Ĺ
åĨľ ä¸ļ
æĸ¹éĿ¢ çļĦ
å·¨ å¤§çļĦ
æħ §
äºĭ å®ŀ
äººä»¬ çļĦ
åįı ä½ľ
è° ģ
åľ¨ æľªæĿ¥
èģĬ å¤©
ç µ
åľ £
ï¼Į âĢľ
åŃ£ èĬĤ
æī ĺ
çļĦç ©
æĸĩæľ¬ ä¸Ń
èĩ³ å°ĳ
åĲ ī
åĪĨæŀĲ åĴĮ
çĽĳ çĿ£
å® ľ
åıĺ æļĸ
ç¬¬ ä¸ī
åı¯èĥ½ä¼ļ å¯¼èĩ´
æį ·
æľº åĪ¶
çĤ º
åŁº éĩĳ
åĩ ½
èĭ ¦
æ³ķ è§Ħ
éĿŀå¸¸ éĩįè¦ģ
çī¹ æ®Ĭ
é¥ ª
å¼ ¹
èĩªåĬ¨ é©¾é©¶
çļĦçŁ ¥
åŃĺ åĤ¨
ä¸į éĶĻ
Ð ¾
éª ĳ
è½» æĿ¾
åĴĮ åĪĨæŀĲ
åĨį çĶŁ
åı¯ä»¥å¸®åĬ© æĪĳä»¬
çº¢ èī²
åı¯ä»¥ ä¸º
æĽ´ å®¹æĺĵ
åĶ ±
åıĳ å¸ĥ
èĦ ±
ä¼ĺ ç§Ģ
å¹ »
æĲħ æĭĮ
è§Ħ æ¨¡
äºĨ ä¸ĢäºĽ
æĿ °
çĽ¸ ä¼¼
çīĽ å¥¶
èį £
çĪ± æĥħ
äººå·¥æĻºèĥ½ çļĦ
èĩª è¡Į
æĽ´ æĸ°
è¹ Ī
ä»ĸä»¬çļĦ å¯¹è¯ĿåĨħå®¹
æİ ī
o r
è®² è¿°
æ¸¸ æ³³
è ļ
èµ ĸ
éĵ¶ è¡Į
åĵ ²
æľ Ĺ
å®¤ åĨħ
T om
åĭ ķ
è Ŀ
ä» ª
è¡¨ æ¼Ķ
Ġ åĪ¶å®ļ
ä¸ ĥ
è¿ Ŀ
éĥ ģ
äº ¡
ä¼ Ĭ
å¤ªéĺ³ èĥ½
åħ µ
åĶ Ĳ
çļ ĩ
ä¸įæĸŃ åľ°
èĪŀ è¹Ī
å¼Ģ æĶ¾
åĽŀçŃĶ éĹ®é¢ĺ
æĢ Ģ
ä¸Ĭ åįĩ
éĥ½ ä¼ļ
åħ ļ
çĶŁæ´» æĸ¹å¼ı
ä» °
çĭ¬ ç«ĭ
åĪ© çĽĬ
åıĹ æ¬¢è¿İ
åĬ¨ åĬĽ
å¤ª ç©º
ç¡ ¬
é£ŀ è¡Į
å®ļ ä¹ī
å¯¹ æīĭ
æ ¾
å¿ ł
ç¼º ä¹ı
è¿Ľ å±ķ
å¹ ħ
å¼ ±
åĪĨ åŃĲ
è¯Ń æ³ķ
çļĦ æĹ¶åĢĻ
è½¬ æį¢
ç±» ä¼¼
å¯ ¿
æ³ °
ł éģĵ
çķª èĮĦ
à ¦
. .
èĽĭ ç³ķ
äºº çĶŁ
çļĦç ²
æłĩ é¢ĺ
åĴĮ æľįåĬ¡
åĳĪ çİ°
å¸®åĬ© æĤ¨
Ġ æĪĳ
ä¼ĺ çĤ¹
å° į
çĶŁæĪĲ ä¸Ģæ®µ
è´ Ŀ
è¯Ŀ é¢ĺ
é¥® æĸĻ
Ġ ä½¿çĶ¨
åº¦ çļĦ
âĢĶ âĢĶ
åĪĨ å¸ĥ
åı¯ä»¥ éĢīæĭ©
èĥ ŀ
åį± éĻ©
ç»ĵ æĿŁ
åı¯èĥ½ çļĦ
ä¿Ŀ éĻ©
äºº åı£
è¯ģ æį®
åĢ º
çļĦ æķħäºĭ
æĻº æħ§
è¯į æ±ĩ
å°½ éĩı
é£Ł çĶ¨
åŁº åĽł
å·¦ åı³
çī¹ å®ļ
çİ° åľº
æķ°æį® éĽĨ
åĴĮ ä¸į
è¿Ļ éĥ¨
ä¸Ģ å®ļçļĦ
èĻ «
æĢ» æĺ¯
åĵ ¥
ä¼ł æĴŃ
èħ ¿
èī² å½©
èº«ä½ĵ åģ¥åº·
è§Ħ å¾ĭ
åĢ Ł
ä»İèĢĮ æıĲé«ĺ
èľ ľ
å¤įæĿĤ çļĦ
çļĦ ä½¿çĶ¨
ä¸įæĸŃ åıĳå±ķ
è¿ ¹
å±ħ æ°ĳ
å¾Ĺ åĪ°äºĨ
çļĦç ¨
æĿ Ģ
æĪ¿ éĹ´
è¿ĺ éľĢè¦ģ
åİ ļ
ä¸İ åħ¶ä»ĸ
æ°Ľ åĽ´
è§ Ī
çļĦçĪ ±
éĽ ħ
ç Ĵ
ä¸ªæĢ§ åĮĸçļĦ
ä¸į è¿ĩ
åĴĮ æĮĳæĪĺ
èĤ ´
çļĦçĥ Ń
å¸ĮæľĽ è¿ĻäºĽ
åĩ½ æķ°
éº »
åı¯ä»¥ è¢«
æķ°æį® åĴĮ
ç¿ Ĵ
æĪĲ åĪĨ
æĬĢèĥ½ åĴĮ
å§ ¿
ç´§ æĢ¥
å±ķ çİ°
è¶ħ è¿ĩ
èµĦ éĩĳ
æıĲ éĨĴ
èĩª ä¸»
çļĦç ĭ
çļĦç ³
Ġ 8
æĪĸ åħ¶ä»ĸ
çĥ Ł
åľ¨ å®¶
åį« çĶŁ
ä¸ ģ
äº¤ äºĴ
äº§çĶŁ äºĨ
éĿ¢ åĮħ
è®° å¿Ĩ
ä» Ķ
è¿Ļ æĺ¯ä¸Ģ
åĪĩ æĪĲ
çļĦç¤¾ ä¼ļ
åİŁ çĲĨ
å·§ åħĭ
ä¾Ľ åºĶ
i s
å½¼ æŃ¤
æİ¨ çĲĨ
çĵ ¶
éĢ »
ä¸Ģä¸ª äºº
çķ ħ
æŃ£ å¸¸
å£ ¤
2 4
çī© çļĦ
æ¶īåıĬ åĪ°
è°ĥ åĳ³
æĹ ¨
æĮĩ æłĩ
åĩĨç¡® æĢ§
åħ¬ æŃ£
åĲĮ äºĭ
æ¸© æļĸ
çļĦ ä¸»é¢ĺ
ä¸Ģ åıª
è¯ º
è´ŁéĿ¢ å½±åĵį
å¿ĥ åĴĮ
ä¾ µ
å¹³ æĸ¹
çļĦç© º
åĩº çļĦ
çĽĳ æİ§
æģ ¢
å« Į
éĢ ²
ç¾İ å¥½çļĦ
è´¨éĩı åĴĮ
è¿ ħ
æ° ı
åı¯ä»¥ å°Ĩ
' ,
åħ· å¤ĩ
ç¢ İ
çĶµ èĦĳ
éĢı æĺİ
æį ķ
æľ ĥ
é¡¾ å®¢
æ¬£ èµı
Ċ ĠĠ
æ¢¦ æĥ³
è´ ¦
ä»¥ä¸Ĭ æĺ¯
åľ° çĤ¹
ç¾İ çļĦ
éķ ľ
éªĮ è¯ģ
èĢ ³
ç§į ç±»
æĬĢæľ¯ åĴĮ
éĢ ĥ
åħ¨çĲĥ åıĺæļĸ
ä¹ Ŀ
æ¹ ¾
è¿Ľè¡Į åĪĨç±»
è¶³ çĲĥ
éģĵ è·¯
çļĦ åİĨåı²
éľĢè¦ģæ³¨æĦı çļĦæĺ¯
èĴ ¸
éļ¾ ä»¥
éĽ ·
æ¡ Į
å°¤ åħ¶
ç»Ĩ èĥŀ
çļĦç¬ ¬
åĿ ¦
Ð µ
çĪ± å¥½
å¤ı åŃ£
çļĦç ½
åįļ çī©
äºĭ æķħ
æĪĳä»¬ å°Ĩ
åĨ ¬
çł´ åĿı
éĩį è§Ĩ
éģµ å®Ī
ä¾¿ åĪ©
èħ Ĳ
ä¹Ł éľĢè¦ģ
çļĦçŁ¥ è¯Ĩ
æ¨¡åŀĭ çļĦ
å¥ ĭ
å¿ Ļ
åĮ»çĸĹ ä¿Ŀåģ¥
åĽŀ æĶ¶
ä¸ĭ çļĦ
åı¯ åĨįçĶŁ
åĪĹ åĩº
ç¾İ åħĥ
åħĭ æľį
åĴĮ æ²»çĸĹ
ä¸ľ è¥¿
çĽĳ ç®¡
åı¯ä»¥ æıĲä¾Ľ
Ġ x
æ¶Ī èĢĹ
çģ¾ å®³
çª Ĺ
åī ª
æľ µ
åľŁ å£¤
å¾Ī å¥½
è§Ĵ åº¦
åľ¨ ä¸Ģä¸ª
åĪ ĺ
æĪĺ äºī
äºº å£«
è¾ĵ åĩº
çļĦç «
ä¼łç»Ł çļĦ
ä¹¦ ç±į
çļĦ åİŁåĽł
çļĦ æĥħåĨµ
ç±»åŀĭ çļĦ
è¯ģ æĺİ
ç³»ç»Ł çļĦ
è® ¯
åıĮ æĸ¹
çĬ¯ ç½ª
æĸ¹ ç¨ĭ
çĲĨè§£ åĴĮ
æģ¢ å¤į
çļĦç Ŀ
ä½¿ åħ¶
æŁĲ ä¸ª
çļĦç ¥
å®ī è£ħ
æľĢ å¤§çļĦ
è· ¨
åĵ² åŃ¦
ç¢ į
æĺ¾ ç¤º
ç§ Ł
æ¸ łéģĵ
åį ĸ
ç² Ĵ
æĳ ©
çı ł
å½ĵ æĹ¶
çļĦç Ĺ
Ġ 6
Ġ å»ºç«ĭ
æĦı æĢĿ
çī¹ èī²
èıľ èĤ´
å®ĮæĪĲ ä»»åĬ¡
åħħ è¶³
ãĢĤ \
å°ı çļĦ
èĩª èº«
ä½ĵ çļĦ
æĪĲ å°±
æľī çļĦ
èº« å¿ĥ
é» İ
æĽ´ å¿«
åħī çº¿
åı¯èĥ½ å¯¼èĩ´
Ġ 0
å¡ ŀ
åĴĮ å»ºè®®
èĦ ¸
ç ¶
åįķ ä½į
çĤ ¸
åĴĮ è°
éħĴ åºĹ
è¯Ĺ æŃĮ
èģ ĺ
å¤± åİ»
æ£ Ĵ
éķ¿ åº¦
å¹ ķ
æĸĩ åŃĹ
èº« ä»½
ç¼ĸ åĨĻ
æľī è®¸å¤ļ
ä¸Ĭ æµ·
å·§åħĭ åĬĽ
æĬĢæľ¯ æĿ¥
åı¦ ä¸Ģä¸ª
äºĨ è®¸å¤ļ
åı¦ ä¸Ģ
åĪ ¸
åĮº åĿĹ
æ·± è¿ľ
åīį å¾Ģ
çŃī éĹ®é¢ĺ
é«ĺ åħ´
çĪ Ĩ
è´Ł è´£
é² ģ
åĲİ çļĦ
å¹ «
æ¸© å®¤
çľŁ å®ŀ
ä» ¿
Ġ æķ°æį®
åīį æĻ¯
åº Ħ
èĬĤ å¥ı
Ġ 20
4 0
èĭ± åĽ½
èĦ ı
åĨį æ¬¡
éĢ» è¾ĳ
çĥ¹ é¥ª
èĢĮ æĺ¯
çľĭ èµ·æĿ¥
æĭ ¼
çļĦçĿ ¡
åĴĮ åºĶçĶ¨
åĨħ å¿ĥ
ä¹ĭ å¤ĸ
èĩªè¡Į è½¦
é ³
é» ĺ
çī© ç§į
è¯· éĹ®
åıĹ ä¼Ĺ
çĶµ æ±ł
æīĭ æ®µ
ä¼¦ çĲĨ
ç½ ļ
à ¥
å§ ľ
è½¬ åĮĸ
å¹« åĬ©
åģĩ è®¾
åħ¬ ä¼Ĺ
ç´§ å¼ł
åŁ ĥ
çļĦ é£Łçī©
ç»ĵ è®º
çĸ ²
å£ ®
åģı å¥½
åĪĽ æĦı
åĩ ī
Ġ 7
åįģ åĪĨ
èī¯ å¥½
ç¤¾ä¼ļ çļĦ
åĲį åŃĹ
æķĻ å¸Ī
å®Į æķ´
çĵ ľ
åĪĨ æĪĲ
æģ ©
æĤ ¦
åı¯èĥ½ éľĢè¦ģ
å¿ĥ æĢģ
äºĴ çĽ¸
èĵĿ èī²
ä»¥ä¸ĭåĩłä¸ª æĸ¹éĿ¢
è¡£ æľį
çģµ æ´»
çľŁ çļĦ
åĨ ł
é»Ħ èī²
è¢« è®¤ä¸º
æĦŁ åĴĮ
å¯ º
åĮĸ åĴĮ
çļĦçĿ¡ çľł
æı Ĵ
ä¼ĺåħĪ çº§
è¿ ª
èĭ Ĺ
æ´ Ľ
æĶ¶ çĽĬ
åĴĮ ç®¡çĲĨ
åĦ¿ ç«¥
ä¸» äºº
ä»¥ æıĲé«ĺ
__ __
åľ°çĲĥ çļĦ
Ð ¸
ç»Ļ æĪĳ
ç²¾ åĬĽ
ä½ĵ èĤ²
Ð ½
Ġ 10
å®Ĺ æķĻ
æĻ® åıĬ
æ· ¡
åįļçī© é¦Ĩ
åıĤ èĢĥ
éĢīæĭ© éĢĤåĲĪ
åĨħ çļĦ
éĺ¶ æ®µ
è½ ¨
æľīè¶£ çļĦ
æķ°æį® è¿Ľè¡Į
æĻļ ä¸Ĭ
ä¸ ¦
ç¼ĸ è¾ĳ
æķ ¢
ä¾Ŀ èµĸ
è®¤ çŁ¥
ä¿¡ åı·
èıľ åĵģ
åıĸ åĨ³
çļĦ åŁºç¡Ģ
ç»´ æĮģ
åıĸåĨ³ äºİ
æ² ¿
å² ©
æī ®
çļĦ è¡Įä¸º
ä¿ĿæĬ¤ çİ¯å¢ĥ
åĢĴ åħ¥
æĹ ¢
åł ¡
å½ĵåľ° çļĦ
çļĦ åıĺåĮĸ
ç¯ ®
æ¸ħ åįķ
çļĦ ä»»åĬ¡
åį³ ä½¿
ä¸Ģ å®¶
çļĦ è¿ĩç¨ĭ
å¼º çĥĪ
e s
æİ¥ ä¸ĭæĿ¥
çļĦ å¤§
åİĭ åĬĽåĴĮ
æİ ĺ
éĴ ¢
ä½¿çĶ¨ çļĦ
å¡ «
éĺ »
æµģ è¡Į
æĺİ æĺ¾
ä¸į è¶³
æ¸¸ å®¢
åĮºåĿĹ éĵ¾
å® ¾
æ¼Ķ åĳĺ
æ¯ ķ
æ¶ µ
åĲ« æľī
çļĦ å¥½
æ ª
æ³ķ åĽ½
å®¢ æľį
¸ æĵ
æıĲä¾Ľ çļĦ
ĠÃ Ĺ
åħĪ çĶŁ
äº ¿
åĮ» éĻ¢
æ°´ åĪĨ
æĥ³ è±¡
èµĦ äº§
åľ¨ äºİ
åİ ¨
19 8
éļ Ķ
åı¯åĨįçĶŁ èĥ½æºĲ
å¾Ī å¤§çļĦ
ä¼ Ļ
ä¹ĭ å¤Ħ
è¿ħ éĢŁ
æįŁ å¤±
æ¸©å®¤ æ°Ķä½ĵ
ä¸Ģ å¤©
æı ´
è¿Ļç¯ĩ æĸĩç«ł
æĺ¯ éĿŀå¸¸éĩįè¦ģçļĦ
çļĦ åģ¥åº·
åĬł å¯Ĩ
æµ ®
å¾ª çİ¯
æ¯Ķ ä¾ĭ
åįı è°ĥ
çĿ Ľ
åĲĪ åĲĮ
ä¸¤ ç§į
çļĦç² ¾
Ñ Ģ
åĲį è¯į
å¿ ½
åŃ¤ çĭ¬
åĲ¬ èµ·æĿ¥
çĽ Ľ
æĿ¥ å®ŀçİ°
åĮ Ļ
çİĽ ä¸½
Ġ ç¡®å®ļ
åıĸ ä»£
ç§į æĹı
çŁŃ è¯Ń
ä¿¡ ä»°
çĶŁæĪĲä¸Ģæ®µ ä»ĸä»¬çļĦå¯¹è¯ĿåĨħå®¹
åĪ ĳ
å¦ Ļ
æ¡Ī ä»¶
ç¿ °
çĶ· åŃĲ
éĵ ħ
t h
çĹĩ çĬ¶
æĪ· å¤ĸ
é ł
ç» ķ
è¿Ļæ®µ æĸĩæľ¬
æĬ ±
èĳ ¡
è¿Ļéĥ¨ çĶµå½±
åŃ¸ ç¿Ĵ
ç¦» å¼Ģ
å¤ªéĺ³ ç³»
èľ Ĥ
éĽ Ħ
æ» ¤
éĩĮ çļĦ
ä¼ ¸
åĵ º
è¯¦ç»Ĩ çļĦ
è¡ ĵ
æĪĳ æĺ¯
Ù Ħ
æľ¬ ä¹¦
é¢ĨåŁŁ ä¸Ń
åħ¬ å¼ı
èĩ³ åħ³
çŃī åĽłç´ł
æĪĲ ç»©
å¹¶ ä¸º
i l
çŁ ¿
åħ¬ å¹³
å¥ĸ åĬ±
æĸ ¼
éŃĶ æ³ķ
åĩĨç¡® åľ°
æł· çļĦ
å¾Ģ å¾Ģ
ä¸ĵ å®¶
æĽ¾ ç»ı
çļĦç Ĭ
å¹¶ ç¡®ä¿Ŀ
éģ Ń
ç»Ł è®¡
ä¸Ģ ç»Ħ
æłĩ å¿Ĺ
æ°Ķ æ¸©
ä¼ļ å¯¼èĩ´
è¢« ç§°ä¸º
æµĭ éĩı
åĪ Ģ
è¿Ļ æĦıåĳ³çĿĢ
ä¸ĭ éĻį
è¦ Ĩ
å¤© ç©º
ç»Ļ äºĪ
æĪĲ æŀľ
è®¤ çľŁ
çļĦ æķ°éĩı
åİ ĺ
èĲ Ħ
èĳ¡ èĲĦ
æĢ ķ
æĬ «
åĭĩ æ°Ķ
çļĦä¸Ģ éĥ¨åĪĨ
èĢĮ è¨Ģ
çĽ® çļĦåľ°
éĩĬ æĶ¾
èį ·
ç¦ ģ
è®¾ å®ļ
æľĢ å¥½
é¢ĨåŁŁ çļĦ
æľĢ å¥½çļĦ
çģ °
é¸¡ èĤī
å¾Ĺ åĩº
åĸľ å¥½
å¼ķ åĬĽ
éĻ ·
ç§į æ¤į
æľī éĻĲ
è§Ĩ ä¸º
åĮ ¹
æ® ĸ
åıĺ æĪĲ
æľī ä¸ĢäºĽ
è¾ħ åĬ©
âĢ ¦
åĪ° çļĦ
çĹħ æ¯Ĵ
è¿Ļ åı¥è¯Ŀ
çļ® èĤ¤
å¼ł ä¸ī
éĻĦ è¿ĳ
éģ İ
å®ŀ ä½ĵ
ãĢģ ãĢĬ
æµ· æ»©
æĸ° åŀĭ
ĠÃ ·
åĴĮè° Ĳ
ä¼ ¯
æĪĳ å¾Ī
çĬ ¬
æ¡ £
åĪ° è¾¾
çģ Ń
ä¸ª èĭ¹æŀľ
çº ½
é¡ µ
æł¹æį® ç»Ļå®ļçļĦ
ç¼º çĤ¹
ä¸Ĭ éĿ¢
åħ¶ ä¸ŃçļĦ
å®ĥ åı¯ä»¥
èº«ä½ĵ åĴĮ
è¡¨çİ° åĩº
å®ŀ æĹ¶
ä¸Ń åįİ
æī ¬
æīĢæľī çļĦ
èı Į
è§Ħ èĮĥ
ç ĺ
å¤ ®
å¹´ ä»£
æĹ §
æĭ ĵ
åį° åº¦
å¼Ĥ å¸¸
å¯Ĩ çłģ
æĹ¶éĹ´ çļĦ
æ¶ Ĥ
è·ĳ æŃ¥
åĵº ä¹³
çº ł
éĩį éĩı
ä¸į çŁ¥éģĵ
äºĭ çī©
éĩį çĤ¹
è·Ł è¸ª
æĽ´å¥½åľ° ç®¡çĲĨ
æĽ¿ ä»£
çļĦ éŁ³ä¹Ĳ
Ġ âĢľ
åľ Ī
æ¬§ æ´²
æĬķ åħ¥
åĴĮ éľĢæ±Ĥ
ç´ «
çļĦ åŁºæľ¬
åĵģ ç§į
å°± ä¼ļ
è¦ģ æ³¨æĦı
å¸®åĬ© ä½ł
æ¼ ı
çļĦ è¿ĩç¨ĭä¸Ń
çĲ ´
âĢĿ ãĢģ
Ġ à¤
å¤įæĿĤ åº¦
åİ Ĥ
ä¸Ģ æ¬¾
è¿Ĳ çĶ¨
åħ± äº«
éģµ å¾ª
å¤ı å¤©
çĪ± çļĦ
ä¸Ń æľĢ
äºº éĻħ
èİ ĵ
èĤ º
æ¿Ģ åĬ±
çĶµ è¯Ŀ
çĶµåŃĲ éĤ®ä»¶
äºĭ é¡¹
åĴĮ æĥħæĦŁ
çº ¤
æ¯ı æ¬¡
ä»¥ä¸ĭ åĩł
çı ¾
è´ ´
çļĦç½ ĳ
çļĦ åĨħå®¹
ä»ĸ åľ¨
æģ ĭ
åĬŀ åħ¬
èķ ī
è° Ĭ
ç´ ¯
æ½ ®
éĢī é¡¹
èĸ Ħ
æ°ĳ èŃ¦
åĲ¸ æĶ¶
æī® æ¼Ķ
çİ¯å¢ĥ æ±¡æŁĵ
ä¹ ±
çĽ Ĺ
æŃĮ è¯į
ä¸¥ æł¼
æĺŁ çĲĥ
åħį çĸ«
åľº æīĢ
å¤ļæł· æĢ§
åģļ å¥½
éĵħ ç¬Ķ
ä½ĵ éĩį
å² ¸
çļĦ ä¸ĢäºĽ
æĺ¯ä¸Ģ ä½į
æ»¡æĦı åº¦
çĤ İ
æĤ ī
æ³ Ħ
èĬĤ çº¦
éĢļå¸¸ æĺ¯
çļĦ äº§åĵģ
åľº åĲĪ
å®ĥ æĺ¯
çĶŁ ç´ł
çłĶ åıĳ
éĩİ çĶŁ
çŃī å¾ħ
çī¹ å®ļçļĦ
é¼ ł
æħ¢ æħ¢
æ°§ æ°Ķ
æķ´ ä½ĵ
è°ĥ èĬĤ
æĹ¨ åľ¨
éľĢè¦ģ è¿Ľè¡Į
å¥³ åŃ©
åħ¨ éĿ¢
çļĦ é¢ľèī²
åĲ¬ è¯´
æ¯ «
a l
å¸¸ å¸¸
å¹´ æĿ¥
æĢ§ è´¨
éļľ ç¢į
å¹¶ å°Ĩ
æľį è£ħ
èĬ Ŀ
å®īåħ¨ åĴĮ
åĭ Ĵ
é¦Ļ èķī
ç¾¤ ä½ĵ
å°± åı¯ä»¥
å·¥ èīº
éĢīæĭ© åĲĪéĢĤçļĦ
åĳĬè¯ī æĪĳ
èĦ ī
æĮĳæĪĺ åĴĮ
çĶ³ è¯·
âĢĿãĢģ âĢľ
é ī
ä¸Ĭ ä¸ĭ
è¿Ļæł· åı¯ä»¥
çļĦ èĥ½åĬĽ
åıį æĺł
ä¸ĸçķĮ ä¸ĬæľĢ
ç¡® è®¤
ç¾İ å¥½
å¯ ¸
è®º æĸĩ
çī©çĲĨ åŃ¦
æ´ĭ èĳ±
æĪĳ ä¹Ł
åĴĮ çĲĨè§£
æĪ ´
ä¸ºæĤ¨ æıĲä¾Ľ
å¯¹ äººç±»
è®© ä½ł
å®¶ çļĦ
çº ¹
è½¦ ç«Ļ
Ñ Ĥ
ä¼ĺ æĥł
åĪº æ¿Ģ
2 3
ä¼ł è¾¾
æĬķèµĦ èĢħ
çķ ¶
æ¸ħ æ´Ĺ
çļĦ äºĭæĥħ
çº¦ ç¿°
å®Į åĸĦ
èĴ Ļ
å·´ é»İ
èĲ¥éĶĢ çŃĸçķ¥
æŃ£ éĿ¢
å¦ »
å¤§ åŀĭ
èĥ¡ æ¤Ĵ
ä¼¤ å®³
èĬĤ çĤ¹
æĽ´ æľī
æĩ ī
åĬł éĢŁ
åĪ© æ¶¦
åĪĨ ç»Ļ
åĪĨ è§£
åģ¥åº· é¥®é£Ł
åĲ« ä¹ī
ç¡® å®ŀ
çĶŁæĪĲ ä¸Ģä¸ª
çªģ çĦ¶
åģ ¶
åıĭ è°Ĭ
éķ¿ çļĦ
æĴ °
æľŁ å¾ħ
éī ´
ç¥ ĸ
é« Ķ
è¿Ĳ è¾ĵ
èĭ ¥
æĪĳä»¬çļĦ çĶŁæ´»
Ġ ä¿ĿæĮģ
éĺ µ
å®īåħ¨ æĢ§
è² Į
æŁ¥ çľĭ
å¿ĥçĲĨ åģ¥åº·
å¹¶ æ²¡æľī
éĢĤ éĩıçļĦ
åĵģ å°Ŀ
æ½ľ åĬĽ
çĽ®æłĩ åĴĮ
äºĭ ä¸ļ
æĦŁ åħ´è¶£
ç ŀ
æĦ¿ æĦı
æĺĵ äºİ
æĤ ²
åıĬ åħ¶
æķ° ä¸º
è¿ĻäºĽ éĹ®é¢ĺ
çĹħ äºº
é¡º åºı
åĨĴ éĻ©
ä¸Ń æĸĩ
æī© å¤§
æĸĩ ä»¶
æ´ ª
å¿ł è¯ļ
åŃĲ åĴĮ
çļĦ ä¸Ģç§į
a m
èİ ī
Ġ æıĲä¾Ľ
åĴĮ å·¥ä½ľ
æĸĩ æĺİ
æĬ ĵ
æĽ´ ä¸º
æ¬ º
èĢĥ è¯ķ
æł¹æį® ä»¥ä¸ĭ
éĢļå¸¸ ä¼ļ
éĢĤ çĶ¨äºİ
å«Į çĸĳ
2 8
èĥ ¸
è·¯ çº¿
å± ı
å¼ Ł
ç»ı çĲĨ
äº§ ä¸ļ
Ġ S
ç®Ģ æ´ģ
è¿ĩ äºİ
åŃ Ļ
5 00
Ġ Ø
åĴĮ æĬĢæľ¯
ä»Ģä¹Ī æĺ¯
ãĢĭ ãĢģãĢĬ
çº ·
æ© Ħ
çĮ ª
éĶħ ä¸Ń
å¤§ èĦĳ
å¹² æī°
åĴĮ è¡Įä¸º
åĿ Ģ
çĻ Į
èĲ Ŀ
åĪĻ æĺ¯
åĪĨç±» ä¸º
ä¸ĵä¸ļ çļĦ
çļĦ ç»ĵæŀľ
ä¸ ²
åıª èĥ½
è´ «
æıĲ ç¤º
é¦Ļ æ¸¯
æĶ¯ åĩº
æľŁ æľĽ
ä¸Ģ ç³»åĪĹ
åĴĮ æĬĢèĥ½
ç«ĭ åį³
æĳ Ĩ
å¤ļ åħĥ
æĽ ¼
æĪĲ ç«ĭ
åĲį ä¸º
å¤§ èĩªçĦ¶
å§ ĵ
çº¤ ç»´
èĤ ¯
æĪĲåĬŁ çļĦ
éĺ ´
åı¯ä»¥ èĢĥèĻĳ
ä¹ĭéĹ´çļĦ åħ³ç³»
Ñ ģ
æ°´ ä¸Ń
Ġ 9
ä¿¡ çĶ¨
ä» ģ
åģı è§ģ
æ·± åĳ¼åĲ¸
ä¸ĵæ³¨ äºİ
åĪ¶ åº¦
äºº ä½ĵ
ç¢ º
æīĭ æľ¯
æ¦ Ħ
åĪ¶å®ļ ä¸Ģä¸ª
æĮ ĸ
æĴ ŀ
æĹ¶éĹ´ è¡¨
æľīæīĢ å¸®åĬ©
å¦Ĥ æŃ¤
çļĦç¤¾ äº¤
åŁİå¸Ĥ çļĦ
è®© ä»ĸä»¬
ï¼ī ï¼ļ
åľ¨ è¿Ļ
æ© Ł
ä¼ł æĦŁ
æĽ´ é«ĺçļĦ
ç ·
å£ ģ
ä»¥ å¸®åĬ©
æ¯ıä¸ª æľĭåıĭ
ä¸ª ç³ĸæŀľ
çļĦ éľĢæ±Ĥ
æĹ¶ åĪ»
åĵºä¹³ åĬ¨çī©
æĭħ ä»»
æĿĥ åĪ©
ã Ĥ
æĦıè¯Ĩ åĪ°
æ©Ħ æ¦Ħ
è¿Ļ æľīåĬ©äºİ
å®¢æĪ· æľįåĬ¡
ä¼ł éĢĴ
å°ı åŃ¦
ä¸Ń å¤®
åľ° ä½į
è£ ģ
æĦī å¿«
æķ° çļĦ
æİ¥ è§¦
æĭĽ èģĺ
éĩĳ å±ŀ
çķĻ ä¸ĭ
çļĦçĶŁæ´» æĸ¹å¼ı
å¼º å¤§çļĦ
è®© äººä»¬
éĺ Ķ
åĪ ·
æĥħæĦŁ åĪĨæŀĲ
ä¼łæĦŁ åĻ¨
äºº åľ¨
éĶĢåĶ® é¢Ŀ
ä¸ĭ åįĪ
éĹ ²
çĽ Ĵ
é¢ĨåŁŁ çļĦåºĶçĶ¨
çĽ Ł
åł µ
åħħæ»¡ äºĨ
èµ ¢
éľĢè¦ģ æł¹æį®
å° ¿
æ¥ ļ
ç«ŀäºī å¯¹æīĭ
å¾ Ĵ
èģ ª
åŃĹ ç¬¦
çļĦ éĢīæĭ©
è¡Į é©¶
å¤ĸ è§Ĥ
çļĦçľ Ł
çĮ İ
éĸ ĵ
ç¾ Ĭ
é»ĳ èī²
äººå·¥æĻºèĥ½ åľ¨
çĶµ åĻ¨
å¯ Ĵ
ç¢ Ĺ
è¾£ æ¤Ĵ
å¤± è´¥
æĺ ¨
åħ Ķ
éĹ ª
çļĦç³ ĸ
åĮĸ åĲĪ
å¹³ éĿ¢
èİ «
æ²Ļ æĭī
e l
æĪ¿ å±ĭ
æĦıå¤§åĪ© éĿ¢
åĴĮ ä¼ĺåĮĸ
æīĵ å¼Ģ
æĪ ª
åĩº çĶŁ
å¹¶ ä¸įæĺ¯
èĬĤ æĹ¥
è¿Ļæł· çļĦ
è¢« å¹¿æ³Ľ
æīĢéľĢ çļĦ
æµª æ¼«
åŃ©åŃĲ ä»¬
åĴĮ æķ°æį®
çĳ ŀ
èģĮ ä½į
æŃ£ å¼ı
èº«ä½ĵ çļĦ
å¹¿æ³Ľ çļĦåºĶçĶ¨
å¤§ å¤ļ
è¡¨è¾¾ äºĨ
æĭ ĸ
æĿ¥ æıĲé«ĺ
åĽŀ æĬ¥
çĻ½ èī²
æĬ ĳ
çīĽ èĤī
æĸĩåĮĸ çļĦ
åľ¨ å·¥ä½ľ
åľŁ åľ°
ç£ ģ
ä¸įä»ħ ä»ħ
åĴĮ çĽ®æłĩ
çĽ ¾
èĩªçĦ¶ çģ¾å®³
ã ĥ
åĴĮ æ°´
æŀģ ç«¯
åıĳ æĺİ
çľĭ çľĭ
è¢« åĳĬ
ç§ Ĵ
ä¹ Į
çļĦ è®¾è®¡
åŃ Ķ
è¯į è¯Ń
åĩº è¡Į
æīĢ åľ¨
ä¸» è§Ĵ
è¿Ĳ è¡Į
åĩĨç¡® æĢ§åĴĮ
éļı æľº
çĻ ¼
æĢ§ æł¼
æĬ µ
ç¨ ®
æŃ» äº¡
åį §
æłĩ çŃ¾
åħ± æľī
ä¿ Ĺ
é½ Ĳ
æĺ¯ æĪĳä»¬
è´ ·
éĿ¢ è¯ķ
çŁ¥ åĲį
åį° è±¡
èĬ± è´¹
çĪ ¬
åĪĨ æķ£
æĴ Ĵ
éĤ£ éĩĮ
åĶ ¯
åľ°åĮº çļĦ
è±¡ å¾ģ
çªģ åĩº
ä¾¿ æį·
å·²ç»ı æĪĲä¸º
è³ ĩ
æĻ® éĢļ
æī¾ åĩº
ä»¥ä¸ĭ æŃ¥éª¤
è¡Ģ åİĭ
ç»ĦæĪĲ éĥ¨åĪĨ
åĩĨç¡® çļĦ
å½¢ å®¹
æ·±è¿ľ çļĦå½±åĵį
æľĢ æĸ°
åĴĮ åŃ¦ä¹ł
åĪĨ åĪ°
å½ĵ ä»Ĭ
æĦŁ æŁĵ
Ġ A
èģĮ åľº
çļĦ æĥħåĨµä¸ĭ
å®ŀ çĶ¨
å¦ ĩ
è´ ¸
åİŁ åĪĻ
åī© ä¸ĭ
çĶ· æĢ§
åķ ı
åıĤ è§Ĥ
çŃī äºİ
æĬ« èĲ¨
æ°ĳ æĹı
å¤§ çº¦
åĢ į
ç»´ çĶŁç´ł
çļĦ æĢ»
çļĦ æľºä¼ļ
æĸĩæľ¬ åĨħå®¹
è¯ķ åĽ¾
åºı åĪĹ
ç¾İåĳ³ çļĦ
è±Ĩ èħĲ
æħ İ
èĻļæĭŁ çİ°å®ŀ
è¯ Ī
å©ļ ç¤¼
æ¢ °
ä¼ļ å¯¹
æľī æľº
å¿Ĺ æĦ¿
ä¸Ģ èĩ´
æĺ¯åĲ¦ æľī
æ· ĭ
åľ¨ è¿ĻéĩĮ
ä¿® æĶ¹
å® ¿
è¿ «
äººå·¥æĻºèĥ½ çļĦåıĳå±ķ
ä¼ Ł
èĬ± åĽŃ
çļĦç ¼
æĦŁ æĥħ
åŀĥåľ¾ åĪĨç±»
å¹¶ æł¹æį®
éģĩ åĪ°äºĨ
è¿Ľè¡Į äºĨ
çº ¯
æĶ¾ å¼ĥ
è¿Ļ æ¬¾
æľĢ é«ĺ
åľ° éľĩ
çī© æµģ
åģ¥åº· åĴĮ
çĶŁæ´» çļĦ
äºĮ æ°§åĮĸ
æ©Ļ åŃĲ
ä¸ŃåĽ½ çļĦ
ħ åĬĽ
ä¸ŃçļĦ åºĶçĶ¨
é¡ Į
8 0
æĮĩ åĩº
à ¹
è¿Ļ ä¸¤ä¸ª
åıª è¦ģ
åºĶè¯¥ æĺ¯
æŀĦ æĪĲ
åĪĽ ä¸ļ
æİ¢ éĻ©
å¸¦æĿ¥ çļĦ
æ³ķ éĻ¢
ä»»åĬ¡ çļĦ
l o
éĿŀå¸¸ æľī
ç£ ¨
èµ ¶
åĲĪçĲĨ çļĦ
çļĦç¥ ŀ
ä¼Ļ ä¼´
åĲĮ æł·
æ¼ Ĥ
åı° æ¹¾
åıĤ æķ°
æ°¸ è¿ľ
æī¿ åıĹ
çĲĨ å¿µ
åı¤ èĢģ
èı ²
çļĦç ´
ä»ĸ äººçļĦ
æĦī æĤ¦
å¹¶ æıĲé«ĺ
éĻ ª
æķ°åŃĹ åĮĸ
á Ģ
é«ĺ è´¨éĩı
æĮĩ åįĹ
ä¸Ģ å¹´
æŀĦ å»º
ä¸į éľĢè¦ģ
åł Ĩ
ä¹Ł åľ¨
å§¿ åĬ¿
åħ¬åħ± äº¤éĢļ
åħ³ éĹŃ
åľ ĭ
éĩı åĴĮ
åĨ· éĿĻ
æĩ Ĥ
ä¸į åĨį
Ġ æĻºèĥ½
éķ¿ æĹ¶éĹ´
æ±¤ å§Ĩ
æĭħ å¿ĥ
æĪĳ å°Ĩ
é£ŀ æľº
æ°´ åĴĮ
ä¸Ģ é¡¹
æıĲä¾Ľ æĽ´å¥½çļĦ
åĲĮ åŃ¦
åıĹæ¬¢è¿İ çļĦ
è± ª
å®¶åºŃ æĪĲåĳĺ
å¦ Ĩ
å¦Ī å¦Ī
åį ľ
å¿ĥ æĥħ
çļĦç¾İ é£Ł
å®ļ ä½į
è· ĥ
çļĦ æķĪæŀľ
å¾ĭ å¸Ī
åĬ¨ è¯į
åĻ ª
åı£ è¯Ń
ä»Ķ ç»Ĩ
åı ī
æĭ Ķ
å§ĭ ç»Ī
çļĦ ä»·æł¼
èģª æĺİ
æĿ ¨
ä¹Ł å¾Ī
æĹł äºº
ä¿ Ħ
ç²¾ åĩĨ
ç¬¬ ä¸Ģä¸ª
æ¼Ķ è®²
è¦Ĩ çĽĸ
ä¼ĺ è´¨
åĢ¾ åĲ¬
åĭĩ æķ¢
èŃ¦ æĸ¹
åĽŀ å½Ĵ
åı¯ä»¥ åĩıå°ĳ
åº Ļ
çħ İ
åı¯éĿł æĢ§
çļĦçĬ ¶
å© ´
è¢«è®¤ä¸º æĺ¯
ç¼ ĺ
Ġ ãĢĬ
è´§ å¸ģ
åľ° çļĦ
Ġ *
è£ ¤
æ©Ħæ¦Ħ æ²¹
éģĹ äº§
æĺ¯ æĪĳ
Ġ åĬłåħ¥
a t
æ¯ı åĳ¨
å¾ ¡
æĺ¯ä¸Ģ é¡¹
åĽłä¸º å®ĥä»¬
çļĦ æľįåĬ¡
æŁ ł
æģĴ æĺŁ
å¿ §
ç©¿ çĿĢ
æĪĸ æľįåĬ¡
å¢ ¨
èĮĥåĽ´ åĨħ
ç© Ĩ
æ¶Ī æģ¯
æĹ© ä¸Ĭ
éĤ »
çĪ¶ æ¯į
åħĪ è¿Ľ
ä¸Ĭ è¿°
æ¿Ģ åıĳ
å¼º åº¦
è® ĵ
æĸ°éĹ» æĬ¥éģĵ
å¼Ģ å±ķ
åİĺ ç±³
2 9
è¿ Ķ
æĽ´ æį¢
å¯¹æĸ¹ çļĦ
æª ¬
4 5
å¼ķ åıĳ
çĵ ¦
ä»¥ æĿ¥
å»ºè®® æĤ¨
èĬĤ èĥ½
çļĦ çī¹çĤ¹
çĥ¤ ç®±
å·¥ä½ľ æķĪçİĩ
éŁ ©
è£ Ĥ
æľ¬ æĸĩ
æĵ İ
çĽ Ĩ
æĬĢ è¡ĵ
çļĦ ä½įç½®
é£İ æĻ¯
è ĺ
Ľ çĽ¾
çĸ« èĭĹ
å®ļ åĪ¶
æī £
èŀį åĲĪ
æĥħæĦŁ åĴĮ
èİ ±
çļĦçľ ĭ
çĶ ĺ
äºĮæ°§åĮĸ ç¢³
ä¸į èī¯
æĺ¯ éĢļè¿ĩ
é«ĺ éĢŁ
çİ »
å¹´è½» çļĦ
å¤Ħ äºİ
çº½ çº¦
æĮ Ĥ
èĥ½å¤Ł åľ¨
ç§ĳæĬĢ çļĦ
åķĨ åĬ¡
æľª çŁ¥
åıĺ éĿ©
åĴĮ èµĦæºĲ
ä»¥ éģ¿åħį
å¼ķ æĵİ
å½Ĵ ç±»
æ³ ¥
æıĲä¾Ľ æĽ´åĬł
å§Ķ åĳĺ
ä¸º ä¸»
åŃ©åŃĲ çļĦ
é¸ Ń
çĩĥ æĸĻ
è½¬åĮĸ ä¸º
æĻ ĭ
æķ£ æŃ¥
èĩªçĦ¶ çİ¯å¢ĥ
é¢ĳ çİĩ
çĽ¸ åıį
æĺ¯ä¸Ģ åĲį
æŁł æª¬
åĴĮ ä½¿çĶ¨
åĮĸåĲĪ çī©
æ£ ĭ
çļĦ æĦŁè§ī
å¿ĥ èĦı
æ® ĭ
è¯¢ éĹ®
åĳ¨ æľŁ
åĽ¢éĺŁ åĲĪä½ľ
éĿ© åĳ½
æķ° ç»Ħ
æ¦Ĥ çİĩ
åĸ ·
äººå·¥æĻºèĥ½æĬĢæľ¯ çļĦ
åī ²
åĲİ æĿ¥
é© ±
éĺ Ĳ
ç¼ĸ ç¨ĭ
æĮĸ æİĺ
æī¿ æĭħ
æľī æ°§
Ġ $
åĴĮ å¹³
å¼ķ å¯¼
ä¸Ģ æĿ¡
çĽ¸ æ¯Ķ
è®° èĢħ
åı¥åŃĲ ä¸Ń
ç®¡çĲĨ åĴĮ
æĽ´ é«ĺ
åĪ¶ æĪĲ
7 0
çĸ² åĬ³
éĩį å¤§
èħ ¹
æĹ¥å¸¸ çĶŁæ´»ä¸Ń
çľŁæŃ£ çļĦ
è° ¨
å«Įçĸĳ äºº
åĬł çĥŃ
ï¼Ł <|
æĴ ĳ
è¿ ģ
Ġ çļĦ
çĶµ åĬ¨
éĽ ķ
çĶ ¢
äººéĻħ åħ³ç³»
æ¬ ²
èµĦ æĸĻ
åľ¨ æŁĲäºĽ
å¹² åĩĢ
æĺŁ æľŁ
æĪĳ åĢĳ
æĢ ª
è¿ĳ å¹´æĿ¥
çĴ ĥ
èŃ¦ å¯Ł
æĻ® éģį
åıĸå¾Ĺ äºĨ
æ¢ ħ
ä½ĵ ç³»
å¥½ å¤Ħ
äºİ æĺ¯
åı¯èĥ½ æĢ§
é¸Ł ç±»
æĦŁ çŁ¥
æĬĢæľ¯ çļĦåıĳå±ķ
çļĦ åħ³ç³»
å¹¶ å°Ĩåħ¶
éĻ¤ ä»¥
æĹ ¦
åĪĽéĢł åĩº
å°ı æĿİ
å² Ĺ
è¯ ¸
æľĪ çĲĥ
çļĦç ĸ
æĪĳä»¬ åı¯ä»¥éĢļè¿ĩ
æ¥ Ń
çİ© åħ·
è´ ¾
ä¸į å¤ª
åĵª ä¸ª
ä¼ĺç§Ģ çļĦ
æł ĸ
å¸ Ń
æľī ä»»ä½ķ
ä½ł åľ¨
è´¸ æĺĵ
à ´
åľ° éĿ¢
ç»ı èĲ¥
åħ±åĲĮ åĬªåĬĽ
åı¯ä»¥ çĶ¨
å°Ĭ æķ¬
éľĢè¦ģ åľ¨
æĤ¨ å¥½
æ°´ çļĦ
è½¨ éģĵ
èĬĤ çĽ®
çŃī ä¿¡æģ¯
ä» Ļ
è¾ĥ ä½İ
çľ¼ çĿĽ
åĩ Ŀ
ç¯ĩ åħ³äºİ
å¹´è½» äºº
çĪ ¸
æ¯ķ ä¸ļ
æ¢ ģ
çĸ« æĥħ
æķ Į
æľĢ éĢĤåĲĪ
åĺ ī
éħ ª
åĬł ä¸Ĭ
æĺİ çĻ½
éĩĩåıĸ è¡ĮåĬ¨
åŃ¦ èĢħ
åŃĹ æ¯į
è¯ĬæĸŃ åĴĮæ²»çĸĹ
ä¸ ¹
åŃ¦çĶŁçļĦ åŃ¦ä¹ł
çļĦ è¯Ńè¨Ģ
éª Ĺ
æ¤ ħ
ä»ĸä»¬ åľ¨
çĭĹ çĭĹ
æĵ ¦
åĴĮ å¤ĦçĲĨ
åı ¹
çļĦçľĭ æ³ķ
åĭ ¤
åº¦ è¿ĩ
æķı æĦŁ
éĩİçĶŁ åĬ¨çī©
ç»Ļ ä½ł
çĪ ½
è¿Ļæĺ¯ åĽłä¸º
è¾ĥ é«ĺ
åį« æĺŁ
æĢ» ä½ĵ
æ²ŁéĢļ åĴĮ
æ³ ī
åħ± åĴĮ
Ġ Ù
ä¼¼ ä¹İ
ç¥ŀç§ĺ çļĦ
20 21
æľ¬ èº«
åŃ¦ ç§ĳ
å¾Ī å¥½çļĦ
èģĬå¤© æľºåĻ¨äºº
è½¬æį¢ ä¸º
çļĦç Ļ
Ġ å¯»æ±Ĥ
ç½ ²
æĺ¾ èĳĹ
åıĸ åĩº
çİ» çĴĥ
ä¸Ģ éģĵ
å¯¹ åħ¶
åĲĮæĹ¶ ä¹Łåı¯ä»¥
åįģ å¹´
çĥŃ æĥħ
çĶ¨ åĵģ
»çĤ Ĵ
è£ħ ä¿®
åĴĮ æĶ¹è¿Ľ
äººå·¥æĻºèĥ½ åı¯ä»¥
ä»¥ä¾¿ æĽ´å¥½åľ°
ç¿ »çĤĴ
æĹ ģ
çļĦ è´¨éĩı
é¸ £
å¤© çĦ¶
éĢļ çŁ¥
åı¯ä»¥ æĺ¯
éĶ ģ
a s
æĪĳä»¬ ä¼ļ
ä½¿çĶ¨ äºĨ
å® ĭ
æĶ¾ ç½®
æĤ ł
ç®Ĺæ³ķ çļĦ
è¡Į æĶ¿
N A
åľ¨ ä¸ŃåĽ½
æĺ¯ä¸Ģ éĥ¨
æī© å±ķ
èįī èİĵ
Ġ AI
ä¸Ĭä¸ĭ æĸĩ
å± Ĭ
çĽĲ åĴĮ
è¿Ľ åº¦
å°ı åŀĭ
æĸĩæľ¬ ä¸ŃçļĦ
å¤§å¤ļ æķ°
æĪĳ åľ¨
æıĲ åīį
æĹ¶ åħī
Ġ å¦Ĥæŀľ
ä½ľä¸º ä¸Ģä¸ª
Ġ å®ļæľŁ
å¤ĩ çĶ¨
éĹ ľ
æĿ¥ çľĭ
è¾ Ĳ
æ²»çĸĹ æĸ¹æ¡Ī
æĪĳä»¬åı¯ä»¥ ä½¿çĶ¨
ĠĠĠĠ ĠĠĠĠ
éļ Ĩ
é¢Ĺ ç³ĸæŀľ
åıĹ ä¼¤
åĮ¹ éħį
ç»ıéªĮ åĴĮ
çĶŁåĳ½ çļĦ
éĢ² è¡Į
ç³ Ĭ
æİ¨ åĩº
æµģ çķħ
æ³Ħ éľ²
åĬĽ äºİ
çļĦçŁ Ń
æķĻèĤ² åĴĮ
åľ¨ ä½¿çĶ¨
Ð¾ Ð
åĪĽéĢł åĬĽ
ä¸ĭéĿ¢ æĺ¯
åĽ¾åĥı è¯ĨåĪ«
èı ĩ
çļĦ æĸ°
éĥ½ åı¯ä»¥
çĽ Ī
è ¼
å¼º åĮĸ
å¯¿ åĳ½
ä¼ģä¸ļ çļĦ
å½¢ æĢģ
åĪ¶ åĵģ
åĴ ª
å¹¿æ³Ľ çļĦ
å¤© çļĦ
ãĢĤ "
èĤī ç±»
å®¶ æĹı
éĵ º
ä¸į ç¡®å®ļ
åĨ Į
æĻ¯ è§Ĥ
å®ī éĿĻ
ä¸ªäºº ä¿¡æģ¯
æİĴ åĪĹ
æµ ¸
çİ¯ä¿Ŀ æĦıè¯Ĩ
åŃ¦ éĻ¢
ç« ¹
å¹¶ è¿Ľè¡Į
ä¿ĿæĬ¤ æĪĳä»¬çļĦ
åĮº åĪ«
å®ŀéĻħ ä¸Ĭ
æĹ¥å¸¸ çĶŁæ´»
èīºæľ¯ å®¶
çĶ¨æĪ· ä½ĵéªĮ
çĩ ¥
è½» è½»
å±ķ å¼Ģ
èĸ ª
æĤ ¬
è¯Ńè¨Ģ æ¨¡åŀĭ
èıľ åįķ
çĶŁæĪĲ ä¸Ģç¯ĩ
éĻĪ è¿°
æŁ¥ æī¾
å·¥ç¨ĭ å¸Ī
æħ Ī
æ° ¢
éĤ Ģ
å°ıæĺİ æľī
æıĲä¾Ľ ä¸ĢäºĽ
èħ Ĭ
å¯¹ æĤ¨
åŃĲ éĩĮ
æĭ ľ
å¤ĸ çļĦ
åı¯ä»¥ ä½¿
æĿ¥ è§£åĨ³
æľī æĹ¶
ï¼ī ãĢģ
çĽ¸äºĴ ä½ľçĶ¨
åİŁ åŃĲ
èĲĿ åįľ
å¾Ī æľī
åĿĩ è¡¡
æļ Ĥ
æ¶Ī éĻ¤
è¾¾ æĪĲ
åĬĽ åŃ¦
èĩªçĦ¶è¯Ńè¨Ģå¤ĦçĲĨ æĬĢæľ¯
èŃ °
è¿Ļ æ¬¡
éĨ ĭ
æĥ ľ
å½¢ çļĦ
è¿Ļ é¡¹
æĭ Ĵ
æł¹æį® èĩªå·±çļĦ
å·¨ å¤§
å±Ĥ æ¬¡
å§ »
èģĶ åĲĪ
åįı è®®
å£ ³
å»º éĢł
ç¢ ĳ
æ¡ ĥ
èĢģ æĿ¿
ä¼łç»Ł æĸĩåĮĸ
ä½Ĩ æĪĳ
å¥³ åŃĲ
åºĨ ç¥Ŀ
æ¸ħ çĲĨ
é«ĺæķĪ çļĦ
æĽ´ å¤§çļĦ
åĽŀ å¿Ĩ
æ¶Ī æŀģ
è´¦ æĪ·
é¦ ¨
æľº éģĩ
è¿Ļ ä¹Ł
å¯Ĩ åº¦
åı¯ä»¥ ä»İ
æł¼ å¼ı
Ù Ĭ
ä¿® å¤į
çĲĥ éĺŁ
ä¸Ģ åĪĩ
ä¹ Ļ
èĦ Ĩ
çĩ ķ
è° ĵ
èĢĲ å¿ĥ
çļĦ æĬķèµĦ
åĴĮ äººç±»
åĩº èī²
èĻ ¾
çļĦ åıĳçĶŁ
åĽŀ å¤į
é£Ł è°±
å¤ļ æ¬¡
çĭ ®
ä½ĵ çİ°
åħ¨ åĽ½
æĻ ¨
æĹł éĻĲ
æ» ´
å¹ ¼
æŀ Ŀ
éĢĻ äºĽ
i t
åĴĮ åģ¥åº·
æµ ħ
åİŁ å§ĭ
æĺ¯ åĽłä¸º
éĢļè¿ĩ å¯¹
åĽŀ åĪ°
çļĦ æĸĩåĮĸ
æĮĩ ç¤º
çļĦçĬ¶ æĢģ
åħ¬ å®ī
æľĢ æĸ°çļĦ
æľĢ åĸľæ¬¢çļĦ
è¾ĥ ä¸º
æ¯ı ä¸Ģä¸ª
åı¯èĥ½ä¼ļ å¯¹
å®¶ éķ¿
çļĦ å¸®åĬ©
èĨ ľ
å±ħ ä½ı
çª ĥ
ç»ĺ çĶ»
æĹ¶éĹ´ ç®¡çĲĨ
2 7
åħ´ å¥ĭ
æĹĭ è½¬
èİ·å¾Ĺ äºĨ
çļĦ è¿ĲåĬ¨
äº ¦
æĹ© é¤Ĳ
19 5
åĲĪ æ³ķ
åħ ģ
åľ¨ è¿Ļç§į
èĻ İ
å®ļ å¾ĭ
èĬĤ çľģ
3 5
å©ļ å§»
åĴĮ çİ¯å¢ĥ
éĿ¢ä¸´ çĿĢ
æ³ Ĭ
æķ´ çĲĨ
å¸¦æĿ¥ æĽ´å¤ļçļĦ
åħ ¼
å¼ Ĺ
çļĦ æ°´
ç®Ģ çŁŃ
o u
åĪ« äºº
ä»¥ä¸ĭæĺ¯ æĪĳ
è¯· æ±Ĥ
æł· æľ¬
åı¯ä»¥å¸®åĬ© äººä»¬
è¿Ĳ èĲ¥
ç¬¦ åı·
æı Ń
æİ¨ è¿Ľ
èĴ Ĥ
åĴĮ ä¸ªäºº
çĶµå½± çļĦ
å¹´ äºº
ä½Ĩ åľ¨
åıĳå±ķ çļĦ
å¾· åĽ½
å½ĵ æĪĳä»¬
å¤© ä½ĵ
çļĦçľ ¼
éĤ£ ä¸ª
æĹĭ å¾ĭ
ä¸Ģ åĢĭ
åĶ¯ ä¸Ģ
è «
çļĦç« ŀäºī
æĹ¶éĹ´ åĨħ
Ġ éģ¿åħį
æĿ¥ åĪ°
æĽ´å¿« åľ°
æĮ «
å¸¸ çĶ¨çļĦ
æĺ Ĩ
ä¹Ł å°±æĺ¯
èĩ Ĥ
çŃī æĬĢæľ¯
æłĩ è®°
æĭ¥ åłµ
æľīæ°§ è¿ĲåĬ¨
æ¢ ¯
å°ı åĿĹ
ç´ł è´¨
ä¸į å¤Ł
åķı é¡Į
å¯Į åĲ«
å»ºç«ĭ ä¸Ģä¸ª
èī¾ ç±³
å¼ ¯
ç»ĵæŀĦ åĴĮ
æĻºèĥ½ æīĭæľº
èµĦæºĲ çļĦ
æıĲ åĪ°äºĨ
æıĲ åĪ°
æĺ¯ éĿŀå¸¸
çİ¯ä¿Ŀ çļĦ
çĶ· åŃ©
ç¯® çĲĥ
çļĦçĭ ¬
å¤§ æķ°æį®
ä¸Ģ ä»¶
çĲĥ åĳĺ
æıı ç»ĺ
à ®
2 6
æ³¢ åĬ¨
é¢ Ī
åħ±åĴĮ åĽ½
éľĢè¦ģ æĪĳä»¬
æĦŁ æ¿Ģ
åĪĽå»º ä¸Ģä¸ª
ä¸Ń æľī
ä¸Ģ åľº
éĻ¤ æŃ¤
19 7
æ¡Ī ä¾ĭ
èĵ Ħ
ä»¥ä¸ĭæĺ¯ä¸ĢäºĽ å»ºè®®
æľīæīĢ ä¸įåĲĮ
ä½ł æĺ¯
äººå·¥æĻºèĥ½ åľ¨åĮ»çĸĹ
åĴĮ åĪĽæĸ°
Ø ±
è¿Ļ å®¶
å¼º çļĦ
å° ĩ
éĢļ ä¿¡
èµ¢ å¾Ĺ
åĴĮ ç»ıæµİ
å° ĺ
ç» ³
éĿ¢ ç²ī
å¯¹ è±¡
è¾Ĳ å°Ħ
èĩ´ åĬĽäºİ
æĿİ æĺİ
çī¹ æĢ§
åı¯ä»¥å¸®åĬ© åĮ»çĶŁ
æ¶µ çĽĸ
æµģ éĩı
éĢīæĭ© ä¸Ģä¸ª
èĬ ³
XX X
åĴĮ é«ĺ
éĥ½ èĥ½
æĪĺ çķ¥
æķĻ æİĪ
åĵį åºĶ
åľ° çĲĨ
çļĦ ä¸»
Ġ1 2
çĶ» éĿ¢
èĬĿ å£«
è¿ĩ æ»¤
åŃ¦ æľ¯
åĵª éĩĮ
èĪ ĩ
è£ Ļ
åĴĮ çĶŁæ´»
æº ª
æĪĺ æĸĹ
è¾ ĸ
å°¤åħ¶ æĺ¯
äºº æķ°
çħ§ é¡¾
æķĳ æı´
éĻ¤æŃ¤ ä¹ĭå¤ĸ
æľī æĹ¶åĢĻ
ä»¥ä¸ĭ éĹ®é¢ĺ
èīºæľ¯ åĵģ
åĲ ´
éĥ½ åľ¨
æ²³ æµģ
çľĭ åĪ°äºĨ
åĮĸ çŁ³
ç§ĳ å¹»
åıį æĢĿ
ä¹Ł ä¸į
è´¢ äº§
è¨ Ī
äº§çĶŁ çļĦ
ä¹Ł å°Ĩ
ä½Ĩ å®ĥ
è¶ĬæĿ¥è¶Ĭ å¤ļ
å¿ĥçĲĨ åŃ¦
æ¼Ķ å¥ı
èĥľ åĪ©
Ġ O
å©´ åĦ¿
åįı åĬ©
ä¸ §
æĿĥ çĽĬ
åĭ Ļ
Ġ åŃ¦ä¹ł
æ¯į äº²
æıĲé«ĺ èĩªå·±çļĦ
çļĦç©º éĹ´
æłĸ æģ¯
éĢĲ æŃ¥
æĹłè®º æĺ¯
å®ŀéĻħ æĥħåĨµ
çļĦ åŁİå¸Ĥ
åĩĨå¤ĩ å¥½
æĿ¥ è¿Ľè¡Į
éĩĩåıĸ æİªæĸ½
å¿ĥ çģµ
æĹ¥ çĽĬ
å½ĵ ä½ł
ãĢĭ ï¼Į
é¼ »
Ġ |
çĶŁæĢģ çİ¯å¢ĥ
ä»¥ åħį
ï¼Ł âĢĿ
æµĵ éĥģ
åı¤ åħ¸
æĳ ĩ
æĤ£èĢħ çļĦ
æĮĩ ä»¤
äºĨ å¾Īå¤ļ
æµ ĩ
è´· æ¬¾
è®¤ åı¯
éļ¾ åº¦
æķ ¦
èĥ ĥ
æĮ ¯
åĬ¨ æĢģ
é±¼ ç±»
æĮĩ çļĦæĺ¯
åĽº å®ļ
æĲ º
çĶ¨ éĢĶ
è®¡ç®Ĺæľº è§Ĩè§ī
ä»İ ä¸Ń
æľī å®³
æľºåĻ¨ äººçļĦ
åİ¨ æĪ¿
å¤ĸ éĥ¨
èĢĥèĻĳ åĪ°
ä½ľ å®¶
Ġ /
ä¼ļ å½±åĵį
æĬķèµĦ ç»ĦåĲĪ
è®° ä½ı
åĲ ¹
20 16
çİ°ä»£ ç¤¾ä¼ļ
æĿİ åĽĽ
å°Ĭæķ¬ çļĦ
å¼ºè°ĥ äºĨ
. ãĢĬ
æ¸© é¦¨
å½± åĥı
éľĢè¦ģ æĽ´å¤ļçļĦ
Ù Ĩ
æµ· å¹³éĿ¢
éĢĶ å¾Ħ
èİ İ
å¦Ĥæŀľ æĪĳä»¬
æĺ¯ æľĢ
æ³ ½
æŃ¥ è¡Į
å¤§ è§Ħæ¨¡
éħį åĲĪ
çī¹åĪ« æĺ¯
èĩªåĬ¨é©¾é©¶ æ±½è½¦
é¢ ¨
ä»£ è°¢
å°½ å¿«
é¥®é£Ł ä¹łæĥ¯
è®¡åĪĴ åĴĮ
æľī çĶ¨
ä¸į å¿ħè¦ģçļĦ
æ¸ħ æ¥ļ
æ¼ ł
3 6
åħ¶ å®ŀ
éĥ İ
è¿ľ ç¨ĭ
åĬ³ åĬ¨
æ¯ı å¹´
ç»Ī äºİ
æĬĢå·§ åĴĮ
äºĶ ä¸ª
èĬ ¬
æĪĲ çĨŁ
å½Ĵç±» ä¸º
å¸Į èħĬ
äººå·¥æĻºèĥ½ å°Ĩ
æ¯ ģ
è¢« è§Ĩä¸º
æĲħæĭĮ åĿĩåĮĢ
r e
ä¸ĢçĽ´ åľ¨
ä½ ©
èĨ Ģ
å¯ ¦
åĲĳ éĩı
åĢº åĪ¸
åģ ¿
æľºåĻ¨ ç¿»è¯ĳ
Ġ P
è¿ĻäºĽ æķ°æį®
åŁºæľ¬ çļĦ
äºº æĢ§
åĽ¾ æ¡Ī
ä¸Ń éĹ´
å·² çŁ¥
æĻ ¶
è¾ Ľ
çĶŁ æĹ¥
èµ· æºĲ
9 0
å¾Ī å¤§
é ¬
æī «
) ï¼Į
ä¹ Ķ
æĭį æĳĦ
æĪ ¶
èª ŀ
åı¯ä»¥ çĶ¨æĿ¥
ä¹Ł åı¯èĥ½
ä¸¾ è¡Į
æ¯ĶèµĽ ä¸Ń
æĺİ äº®
æıĲä¾Ľ ä¸Ģä¸ª
ä¹Ĳ è¶£
åħ¶ä»ĸ çļĦ
éĩįè¦ģçļĦ ä½ľçĶ¨
åŃĺåľ¨ ä¸ĢäºĽ
çŃī å¤ļç§į
å¯¼èĩ´ äºĨ
æķħ éļľ
å®Ŀ å®Ŀ
åĬ¨ çĶ»
åĳĺå·¥ çļĦ
çĶŁ åĬ¨
è·¯ ä¸Ĭ
å¼ ¦
æ¯ıä¸ªäºº çļĦ
å¦Ĥä½ķ åľ¨
çŁ ĽçĽ¾
èº« è¾¹
ä¹Ĳ åĻ¨
ä¼ Ĳ
ä¹ī è¯į
å¼º å¤§
å±ı å¹ķ
èĬ Ĵ
éĢ Ĭ
æ¡ Ĩ
äº« çĶ¨
åĽĽ ä¸ª
çĽĳçĿ£ åŃ¦ä¹ł
ä¸º ä½ł
è§Ĥ çļĦ
ç¨³ å®ļçļĦ
åľ° ä¸Ĭ
è¿Ļ åº§
æķ ¸æĵ
æķ¸æĵ ļ
éĤ ¦
åģ ·
æŁĶ è½¯
k e
æĶ¿åºľ åĴĮ
çĮ« åĴª
æıĲä¾Ľ æĽ´
åĨĽ äºĭ
å¤§ å¤§
19 6
A P
æĿ¥ å¸®åĬ©
å®Į ç¾İ
æĥ §
äºº åĴĮ
å¤§æ°Ķ å±Ĥ
æľ¬ è´¨
äº§åĵģ æĪĸæľįåĬ¡
æ¾ ³
Ġ ä½ł
å¨ ľ
æ¤įçī© çļĦ
éĤĢ è¯·
åħģ è®¸
ä¼ł è¾ĵ
çļĦç³ĸ æŀľ
æĢ» ç»Ł
èĥ İ
åıĺ éĩı
è¿ĲåĬ¨ åĳĺ
çĨĬ çĮ«
ä¹Ł åºĶè¯¥
åĬł å·¥
æº ¯
å¸ĮæľĽè¿ĻäºĽ å»ºè®®
Ð »
æķĻ ç»ĥ
çº¦ ä¸º
ç½ ©
éº ¼
åĩº çīĪ
ä¹Ł éĿŀå¸¸
åĵĪ åĪ©
èĥ¡ èĲĿåįľ
èĪĴéĢĤ çļĦ
äº¤æµģ åĴĮ
æĺ¯ äººç±»
è®¸å¤ļ äºº
æīĭ è¡¨
åħ³æ³¨ åĴĮ
æķ°åŃ¦ é¢ĺ
å½ ¹
å¹¿æ³Ľ åºĶçĶ¨
åĬ¨ æľº
åĽ¾ çīĩ
Ġ åĪ©çĶ¨
ä¸Ģ æĹ¦
åº¦ åģĩ
ä¼ļ åľ¨
è®¡ç®Ĺæľº ç§ĳåŃ¦
é½ ¿
æĪĸ ç¼º
â Ħ
ç¦ı åĪ©
å»º èŃ°
çļĦ æĸĩæľ¬
çļĦ çĶµå½±
è¡¨è¾¾ èĩªå·±çļĦ
æĪĳä»¬ å¿ħé¡»
çİĩ åĴĮ
çļĦ æ´»åĬ¨
è¢ ĸ
å¾Ī éļ¾
æĪĳ è§īå¾Ĺ
å°ı ç»Ħ
åı¯ä»¥éĢļè¿ĩ åĪĨæŀĲ
å¹² çĩ¥
å»ºçŃĳ çī©
å¤ľ æĻļ
éĩĳ é¢Ŀ
ä¸»äºº åħ¬
æĸ ľ
ä¸Ģ å¼ł
çļĦçĹ ħ
ä¸º äººç±»
æľī æ²¡æľī
ä¸º æĪĳä»¬
æī¾ åĪ°äºĨ
è¿Ļå°Ĩ æľīåĬ©äºİ
è§Ĥ çľĭ
æİ¥ è¿ĳ
åı¯ä»¥ å¹«åĬ©
ä¸ľ äº¬
Ġ ä¸İ
åĳĪçİ° åĩº
æĢĿèĢĥ åĴĮ
åī§ æĥħ
åĢ¾ åĲĳ
æ¶Ī éĺ²
æľº æ¢°
åĿ ¡
å¯Į æľī
Ġ s
å¤± ä¸ļ
ä¸ĵä¸ļ äººå£«
ç« ŀ
éĢłæĪĲ äºĨ
AI ç³»ç»Ł
è´¢ å¯Į
æĬ ¢
èħ °
çħ® çĨŁ
çŃ Ľ
æĻ Ĵ
è´Ł æĭħ
åı ł
çĵ £
æľĢ å°ı
æµģ åĬ¨
åĽŀ å®¶
èĤ ł
è¿ĺ èĥ½
ä¸ªäºº çļĦ
çļĦ æĳĦåħ¥
æ¡ ¶
èĲ¥ éĢł
ç«ŀäºī åĬĽ
æĹ¶ çļĦ
Ġ ×
æķ°æį® ä¸Ń
éĸ ĭ
çİ° éĩĳ
çļĦ åĲĮæĹ¶
äºº åĬĽ
æĿ¥ çļĦ
å°ĳ å¹´
éħį æĸĻ
Ġ B
è¯Ħ åĪĨ
ãĢĭ ãĢĤ
éĵģ è·¯
æ» ļ
å®¶ åĽŃ
å°º å¯¸
åıĳ åĩº
æĶ¾æĿ¾ èº«å¿ĥ
çļĦ é«ĺ
ç¾ ½
ç»Ń åĨĻ
åĴĮ æĹ¶éĹ´
ç±³ é¥Ń
æŁĲ ç§į
åİĭåĬĽåĴĮ çĦ¦èĻĳ
åĬ £
åĮħ è£ħ
é»ĳ æļĹ
æĽ´ æ·±åħ¥
ä½ł èĥ½
âĦ ĥ
çµ ±
åĲİ æŀľ
ä¸ī è§Ĵ
è¡Įä¸º åĴĮ
å¯¼ æ¼Ķ
i d
ä»¥ åĩıå°ĳ
è¯· éļıæĹ¶
Ġ b
åĵª ç§į
çī© èģĶç½ĳ
äººä»¬ å¯¹
äºļ æ´²
åı Ļ
å°¼ äºļ
æ¶ ¯
ä¿Ŀ çķĻ
åºŁ å¼ĥ
é»ĳ èĥ¡æ¤Ĵ
æľī äºº
å®ŀéĻħ åºĶçĶ¨
çĽ¸åĲĮ çļĦ
åĩ ¡
çĲĨ è´¢
æĵ ħ
æĹ© æľŁ
çĨŁ æĤī
ä¸Ģ çĤ¹
èģĮ è´£
æ¦Ĥ æĭ¬
è¿Ļ é¦ĸ
æľī çĽĬ
æĦı å¤ĸ
åı« åģļ
èĩ³åħ³ éĩįè¦ģ
è¿Ļ éģĵ
éĻ ¶
å¤ º
åľ° äº§
æŁ ľ
èĢ į
æıĲé«ĺ çĶŁäº§
è¡Ģ ç®¡
åħ´è¶£ çĪ±å¥½
è¿Ļä¸ª åı¥åŃĲ
çĲĨ æĥ³
éĽ ĩ
åĴĮ å°ı
è¿Ľè¡Į è°ĥæķ´
éŃ ħåĬĽ
éĿŀå¸¸ éĢĤåĲĪ
é¡º åĪ©
æĤ¨ åľ¨
å°±ä¸ļ æľºä¼ļ
è¶ĬæĿ¥è¶Ĭ å¤ļçļĦ
æĭĴ ç»Ŀ
æµ ´
æķĪçİĩåĴĮ è´¨éĩı
ä¸ī ç§į
è¾ ŀ
åĿļ æŀľ
çļĦ ä¸ĸçķĮ
åĩº èī²çļĦ
o o
åĪ¶éĢł ä¸ļ
åģļ æ³ķ
äº§åĵģ åĴĮæľįåĬ¡
åħĶ åŃĲ
Ġ M
å« ©
å¯¹ æ¯Ķ
æ·±åĪ» çļĦ
ä¸» åĬ¨
æīĵ éĢł
ä¸ĭ åĪĹ
ä»¥ä¸Ĭæĺ¯ ä¸ĢäºĽ
åł ´
ä¼ĳ éĹ²
éģĹ ä¼ł
æľī çĤ¹
åĸ »
å®¢ äºº
ç¬¬äºĮ ä¸ª
çĸ ¼
éĿŀå¸¸ æĦŁè°¢
å°± åĥı
Ġ éĢīæĭ©
ä¸¤ äºº
3 1
çļĦç Į
åŃĺåľ¨ çļĦ
æµ· é²ľ
æĺ¯ å¤ļå°ĳ
æĮ« æĬĺ
çļĦ æŃ¥éª¤
å¹¿ éĺĶ
åĮħ å®¹
Ġ m
å¹ ½
ç¨ į
ç²¾ ç¡®
å¿ĹæĦ¿ èĢħ
ç¿ ħ
åĩ ¯
åį ¢
ä¸įåı¯ æĪĸç¼º
éĥ ¡
ä¸Ģ éĥ¨
åıĳ éĢģ
é¥ ±
æ¬º è¯Ī
èĥ½å¤Ł å¸®åĬ©
èĢģ äºº
æĸ¹æ³ķ æĿ¥
åħ·ä½ĵ æĥħåĨµ
å¼Ģ å¤´
çļĦ ä½ľçĶ¨
éĽĨä¸Ń æ³¨æĦıåĬĽ
éľĢè¦ģ çļĦ
çļĦç¨ ³
è°¨ æħİ
èĤ Ŀ
åĨĻä¸Ģç¯ĩ åħ³äºİ
æº ¶
æľ ±
ä»ĭç»į äºĨ
æķĪ çĽĬ
æĥ³æ³ķ åĴĮ
åĽ¾ ä¹¦
æ²Ļ æ»©
è¨ Ń
äºī è®®
å¦ ¹
é² ¸
è®¾è®¡ åĴĮ
åĲĪ æĪĲ
èĮ ¨
æĭĸ å»¶
èµ ĭ
æ® ¿
ç¨³å®ļ æĢ§
èĥ ¶
å²Ĺ ä½į
å¹¶ ä¸İ
åħ¨ éĥ¨
è¿ĺ ä¼ļ
æľī åĵªäºĽ
åħ¶ä¸Ń åĮħæĭ¬
äºº ç¾¤
åįĩ çº§
il y
ä½ľä¸º ä¸ĢåĲį
ä»İèĢĮ æĽ´å¥½åľ°
è°ĥ æĸĻ
åıĭ å¥½
å¸Ĥåľº è¶ĭåĬ¿
è£ Ķ
ĊĠĠ Ġ
Ġ åĬłå¼º
å±± èĦī
çİ¯å¢ĥ éĹ®é¢ĺ
çļĦéĩįè¦ģ ç»ĦæĪĲéĥ¨åĪĨ
è§Ĥ å¿µ
åĪ ł
ç¬Ķ è®°
å¹¶ ç»Ļåĩº
æĪĳ çĽ¸ä¿¡
çº¿ æĢ§
åį± å®³
åıĹ åĪ°äºĨ
è®¤è¯Ĩ åĪ°
åľ¨ æŃ¤
åĹ ¯
æĸĩ æ¡£
çŃīæĸ¹éĿ¢ çļĦ
Ġ ä¸ª
çļĦç¾İ å¥½
ä¿ĿæĮģ åģ¥åº·
æŀ ļ
æĪĲåĬŁ åľ°
æī İ
åĩł ç§į
åıĳ çĶµ
æ°Ķ æģ¯
èĺ ĳ
è¿Ļ æĺ¯ä¸Ģç§į
æĽ´å¥½åľ°çĲĨè§£ åĴĮ
å¾Ī å¿«
èĪª ç©º
3 3
æĸĩ çī©
èĶ¬èıľ åĴĮ
å½ĵçĦ¶ åı¯ä»¥
ä½Ĩ å®ĥä»¬
å¾Ī é«ĺåħ´
åħ·ä½ĵ æĿ¥è¯´
æĹ Ĺ
æĭĵ å±ķ
åİ» äºĨ
åħ³ å¿ĥ
éļıçĿĢ æĬĢæľ¯çļĦ
åĲ Ľ
å¯ ĵ
20 22
æ¶Ī å¤±
ä¹Ł è¦ģ
æ³ ª
çİ¯å¢ĥ ä¸Ń
çŁ ©
çİ© èĢį
éĿ¢ æĿ¡
èĺĳ èıĩ
éĩį åĬĽ
ä»¥ä¸ĭåĩł çĤ¹
æĸ°é²ľ çļĦ
p p
åı¯æĮģç»Ń æĢ§
çĥŃ éĩı
å¸¦ æľī
çĩĥ çĥ§
ãĢĭ ï¼Ī
åģľ æŃ¢
è¿Ļ ä½¿å¾Ĺ
éļĲç§ģ ä¿ĿæĬ¤
ä¸ĢäºĽ äºº
åĪĽæĸ° åĴĮ
æĬĳ éĥģ
éĿŀ æ´²
æ³ķå¾ĭ æ³ķè§Ħ
ç½Ĺ æĸ¯
çĽ®æłĩ åıĹä¼Ĺ
æ¸ħ æĸ°
åĮĹ æŀģ
å§ Ĳ
ç§¯æŀģ åıĤä¸İ
èĭ± éĽĦ
Ø§ ÙĦ
åĲ¬ åĪ°
åĺ ´
çļĦ æł¸å¿ĥ
æĿ ľ
åĮºåĿĹéĵ¾ æĬĢæľ¯
åľ¨ è¿ĩåİ»
æĹ ±
ä¸ŃåĽ½ åı¤ä»£
Ù Ī
æŃ ī
åħ ½
å° ĸ
èĢĮ åľ¨
éĿŀ æ³ķ
æ°Ķ è±¡
è¿½ æº¯
ç½Ĺ é©¬
æĿĲ è´¨
æĺ¯ ä¸į
Ġ åĩıå°ĳ
ä¼ł æī¿
éĺĲ è¿°
è¡Ĺ éģĵ
è¿ĻäºĽ æĬĢæľ¯
çĤ ī
Ġ Ċ
æŁ ±
ä»ĸ åĢĳ
æĺİç¡® çļĦ
çī¹æ®Ĭ çļĦ
çļĦçĪ± æĥħ
å®³ æĢķ
æµ Ĩ
éĵ ĥ
Ġ æľĢåĲİ
çļĦçł ´
ç¶ ĵ
å½± çīĩ
ä»İèĢĮ åĩıå°ĳ
æİ¨ æĸŃ
åľ¨è¿Ļç§į æĥħåĨµä¸ĭ
çĽ® çļĦæĺ¯
åİĨåı² ä¸Ĭ
åĴĮ æıĲé«ĺ
çĥ ¦
å¤ ł
9 9
Ġ1 5
1 000
èĥ½å¤Ł æĽ´å¥½åľ°
çļĦ åĬĽéĩı
èµ µ
éľ į
è ¤
æĥ ĳ
ç»¼åĲĪ èĢĥèĻĳ
Ġ n
åı¯ è§Ĩ
åľ¨ è®¸å¤ļ
æłĳ æľ¨
çļĦç¨³ å®ļ
å¼ķèµ· çļĦ
Ġ æĺ¯
Ġ æıĲé«ĺ
æ²Ļ åıĳ
å¸Ĥåľº ä¸Ĭ
èī ³
åĨł åĨĽ
å°½åı¯èĥ½ åľ°
å¥ Ķ
ä¿¡æģ¯ åĴĮ
çļĦ éĢŁåº¦
æĸ ĳ
e t
ä¸įåĲĮ ç±»åŀĭçļĦ
èĿ ¶
çĶ¨ æ°´
èĤ ©
ä»¥ä¸ĭæĺ¯ä¸Ģ éģĵ
èĥ Ĩ
r o
èµ Ķ
åĲĮ æĦı
åĴĮ é¢Ħæµĭ
æķ´ æķ°
éľĢè¦ģ ä½¿çĶ¨
åįĩ é«ĺ
ä¸¾ åĬŀ
å°ı çİĭ
19 4
å¯¹æĤ¨ æľīæīĢå¸®åĬ©
åĨ¬ åŃ£
åĤ¨ èĵĦ
å¯¹ å¾ħ
åĬª åĬĽåĴĮ
çıį æĥľ
ä¸ª æľĪ
å°Ĩ å®ĥä»¬
ï¼ļ ãĢĬ
ä»¥ åĲİ
æ² ¸
ä»¿ ä½Ľ
ä»¥ åħ¶
å¯Ĩ åĪĩ
å°¿ çĹħ
èĪ į
éļĲç§ģ åĴĮå®īåħ¨
æ §
æ´ ¥
æ¿Ģ çĥĪ
éħ± æ²¹
E m
äº¤ å¾Ģ
Ð º
åĬł åī§
ç®Ģ è¦ģ
è¿Ļ æľ¬ä¹¦
çĽ¸ çŃī
äºĮ åįģ
ç»ĦæĪĲ çļĦ
Ñ ĥ
ä¼ ı
ä¸Ģ æĿ¯
åĴĮ æĶ¾æĿ¾
å¾ Į
åıĺå¾Ĺ è¶ĬæĿ¥è¶Ĭ
Ġ å¤ļ
æİĪ æĿĥ
éĹ®é¢ĺ åĴĮ
åħ¬ è·¯
ç´§ å¯Ĩ
åľĨ å½¢
é£İæł¼ åĴĮ
æŁ¥ è¯¢
è¿ĻäºĽ ä¿¡æģ¯
ä¸ª ä½ĵ
å¥¶ éħª
æĪĳ å¯¹
ä¼ł è¯´
éªĳ èĩªè¡Įè½¦
åķĨ åºĹ
å¥³ çĶŁ
è®¾è®¡ ä¸Ģä¸ª
çŃī å¤ļä¸ª
å· ¡
æĶ¹ éĿ©
è¿ Ł
è¿Ļç§į æĸ¹æ³ķ
è¯´ è¯Ŀ
æ¨ ª
åį ĵ
ä¸į éĢĤ
æ¨ Ļ
åı¯ä»¥å¸®åĬ© ä¼ģä¸ļ
éĥ½ éľĢè¦ģ
ä½ľ ä¸ļ
è®¢ åįķ
èĸ ¯
åĪĽéĢł ä¸Ģä¸ª
æĻĤ éĸĵ
æİ¥ çĿĢ
æ± Ĺ
å¸ĥ å±Ģ
çŁ¿ çī©è´¨
è¢ Ń
a y
éŁ §
ä»Ģ éº¼
æĸ¹å¼ı åĴĮ
åı¯ä»¥ å¢ŀåĬł
è½ ´
èĢĮ ä¸į
èµ ł
ç»´ ä¿®
åľ° äºĨè§£
æĪ¿ åľ°äº§
å´ ĩ
æľī ä¸įåĲĮçļĦ
3 00
æĥ ©
è¿ĩ å¤ļ
æĬ ¹
æĥħ å¢ĥ
200 0
ä»Ĭ å¹´
Ġ å¤§
åĩı èĤ¥
å°ıåŃ¦ æķ°åŃ¦é¢ĺ
çĬ ¹
çĭ Ĥ
çģµ æĦŁ
çºª å¿µ
å· ¾
å¥¶ æ²¹
ä»¥ä¸ĭæĺ¯ä¸Ģéģĵ å°ıåŃ¦æķ°åŃ¦é¢ĺ
åŃ¦ä¹ł æĸ°
ç³ĸ å°¿çĹħ
è¿ŀ ç»Ń
çĽ¸ å½ĵ
å¸Ĥåľº çļĦ
æııè¿° äºĨ
Ġ y
ä¸Ģ è¾Ĩ
èµ «
åı¦ä¸Ģ æĸ¹éĿ¢
æĿĲæĸĻ åĴĮ
AI åı¯ä»¥
ä¸Ģ éĥ¨åĪĨ
é¥¼ å¹²
æĻļ é¤Ĳ
åħ´è¶£ åĴĮ
åĴĮ ç»´æĬ¤
æĿ¥ ç¡®å®ļ
åī© ä½Ļ
20 15
åľŁ è±Ĩ
Ġ æĬĬ
æĿ° åħĭ
æľĢ å¤ļ
æ± º
éĢ Ĩ
åĬŀåħ¬ å®¤
åºĶ å½ĵ
åģļ èµ·
ä»£ æĽ¿
éĩĩçĶ¨ äºĨ
äººå·¥æĻºèĥ½ åĴĮ
è¡Įä¸ļ çļĦ
äººç±» æ´»åĬ¨
çĶŁæ´» ä¸ŃçļĦ
åĦ¿ åŃĲ
D NA
7 5
æĪĳ åĸľæ¬¢
éĻ µ
å²ģ çļĦ
å½¢å®¹ è¯į
æµ·å¹³éĿ¢ ä¸Ĭåįĩ
è »
m a
çĳ °
åĬłå¼º å¯¹
èĤ¯ å®ļ
çļĦ ä¸įåĲĮ
éħį ç½®
è¿Ľ ç¨ĭ
é¢Ħ æľŁ
åıĳçĶŁ äºĨ
æĺ¨ å¤©
ä½ł ä¼ļ
è°ĥ çłĶ
æģĲ æĥ§
å°ı çĭĹ
ç®Ģ åİĨ
æĦ Ī
åĴĮ è°ĥæķ´
ç¢³ æİĴæĶ¾
åĽĽ å·Ŀ
éĨ ī
çĶŁ çĲĨ
éĽĨ æĪĲ
æ¬¡ æķ°
ä½Ľ æķĻ
åĵ ¦
åĲĦä¸ª é¢ĨåŁŁ
æĴ° åĨĻ
çļĦ åĬ¨çī©
ä¸į å°ĳ
è¿ Ī
ä¸įæĸŃ è¿ĽæŃ¥
åĢ ¡
çĸ ı
çĮ ľ
çļĦ çī¹å¾ģ
N L
æŀ ª
æĶ¯ æĴĳ
éĻª ä¼´
æłĩ æ³¨
è§Ĥ æµĭ
ä¸ĸçķĮ çļĦ
æĤ¨åı¯ä»¥ ä½¿çĶ¨
ä»¥ä¸ĭæĺ¯ä¸ĢäºĽ åı¯èĥ½
ç´ł é£Ł
é¹ ħ
çĪ¶ äº²
é¡¹çĽ® çļĦ
% ãĢĤ
éĿŀå¸¸ å¥½
éģ ©
èħ »
éĢļè¿ĩ åĪĨæŀĲ
éĽ ¾
å®ĥä»¬ åľ¨
å®£ å¸ĥ
åĪł éĻ¤
çļĦçĭ Ĺ
è®²è¿° äºĨ
èĢ Ģ
åħ¬ åħĥ
å ļ
ä¸» è¯Ń
çļĦ è¡¨çİ°
äº§çĶŁ å½±åĵį
è£ħ å¤ĩ
çļĦç½ĳ ç«Ļ
æ´» åĬĽ
äºº æīį
ä¿ĥ éĶĢ
ä¸İ ä»ĸäºº
åŀ «
çİ¯å¢ĥ åĴĮ
æĭŁ åĲĪ
å§ĵ åĲį
æĪĲä¸º ä¸Ģä¸ª
åİ» éĻ¤
åĲ¦ åĪĻ
äº¤ æį¢
è¿Ļ ä½į
ç² ®
15 0
åĽ½ åĨħ
æķ´ éĻ¤
ä¸ĸçķĮ åĲĦ
ä¸¥éĩį çļĦ
Ġ çĥ¤
å¸®åĬ© ä»ĸä»¬
æ· Ģ
å¿ĺ è®°
çļĦç ¡
è´« åĽ°
çĶ· çĶŁ
éģ ¸æĵ
ç¨ ¿
éģ¸æĵ ĩ
æĺİ å¤©
åĴĮ ç»ıéªĮ
ä»¥ ç¡®å®ļ
çļĦçģ µ
çļĦçł´ åĿı
ä¸į å¾Ĺ
èĽ ĩ
å¾ ŀ
æĻ¯ èī²
ä¸Ģå®ļ è¦ģ
å¯¼ èĪª
è¿ĩ çļĦ
åı¯ä»¥è®© ä½ł
æĻºèĥ½ åĮĸçļĦ
çķĮ éĿ¢
å§Ķåĳĺ ä¼ļ
éĩĳèŀį æľºæŀĦ
åıį å°Ħ
çļĦ åħ·ä½ĵ
ä¸Ģ é¦ĸ
åıĳçİ° äºĨ
åĴĮ å°Ĭéĩį
æł¹æį® ä»¥ä¸Ĭ
å»ºç«ĭ èī¯å¥½çļĦ
å¯»æ±Ĥ å¸®åĬ©
æĪ Ĵ
æĺ¯ ä¸ºäºĨ
åĬŁèĥ½ åĴĮ
å®¡ æŁ¥
èŀį åħ¥
éĵ ľ
æľįåĬ¡ åĳĺ
çģ« å±±
åı¯ä»¥ å¾ĹåĪ°
åı¯ä»¥ å°Ŀè¯ķ
éĩįè¦ģ ä½ľçĶ¨
éĻ Į
æĪĳ å¸ĮæľĽ
çļĦ åŃ¦ä¹ł
æĺ¯ä¸Ģç§į éĿŀå¸¸
è¿Ļ åı¯ä»¥
æ¸ ´
åį ī
æĹ¶éĹ´åĴĮ ç²¾åĬĽ
ç© ·
åĴĮ å½±åĵį
ä¸Ĭ åįĪ
éĩĮ éĿ¢
ä¸ĩ åħĥ
æĽ´åĬł æ³¨éĩį
Ġ åĩĨå¤ĩ
å°½ åĬĽ
ä¼ į
æĹħ ç¨ĭ
æĭ Ĩ
åı¯èĥ½ä¼ļ å½±åĵį
åĨ³çŃĸ æłĳ
è¿ĻäºĽ æĸ¹æ³ķ
æĸ° åħ´
è¿ĺ åī©ä¸ĭ
ä½Ĩ ä¹Ł
åĴĮ æķĻèĤ²
çĶľ çĤ¹
x x
æľī ä»·åĢ¼
åı¤èĢģ çļĦ
ä¸ª æľĭåıĭ
ä¿Ŀ åŃĺ
éļı åĲİ
æ¸©å®¤æ°Ķä½ĵ æİĴæĶ¾
çļĦ å¤§å°ı
å¸Ŀ åĽ½
æĺ Į
éļ¾ å¿ĺ
ä¸Ģ çīĩ
éľ ľ
åĪĿ åŃ¦èĢħ
è¿Ľ èĢĮ
åķ ¦
å¤ĩ ä»½
å¾ħ éģĩ
æįŁ åĿı
èĬ± åįī
æĸ¯ åĿ¦
èĢĮ æĪĲ
è°ĥåĳ³ æĸĻ
åĿ Ľ
æĿ¥ é¢Ħæµĭ
æĸ¹ çļĦ
åħ¶ä»ĸ äºº
å¿«éĢŁ åıĳå±ķ
åĽŀçŃĶ è¿Ļä¸ªéĹ®é¢ĺ
âĢ¦ âĢ¦
æ³¨æĦı äºĭé¡¹
åŃĹç¬¦ ä¸²
æĢĿ è·¯
åįĹ æŀģ
å®¶ éĩĮ
ç®Ģ çº¦
Ġ a
åĲĦ èĩª
è´µ çļĦ
ä¸ī å¹´
æ±¤ åĮĻ
è¯ĨåĪ« åĴĮ
te r
æĪĳä»¬ è¿ĺ
å®īåħ¨ çļĦ
åı¯ä»¥ åĪ©çĶ¨
æĦŁåĪ° éĿŀå¸¸
éļ¾ é¢ĺ
çĶŁ æ¶¯
é£ ĺ
äººæ°ĳ åħ±åĴĮåĽ½
å°Ĩ ä»¥ä¸ĭ
å¸Ĥåľº èĲ¥éĶĢ
åı¯ è¡Į
æįŁ å®³
å¹¶ å¯¹
å¦ ¥
å±ķç¤º äºĨ
åĴĮ éģĵå¾·
åı¯èĥ½ åĮħæĭ¬
ä»¥ ä¿ĿæĮģ
ä»ĺ åĩº
çº¢ æ¥¼
æľīäºĽ äºº
èľĤ èľľ
å¦ĤæŀľæĤ¨ éľĢè¦ģ
åĪĩæĪĲ å°ıåĿĹ
ð Ł
æĤ¨åı¯ä»¥ åľ¨
é¡¾ éĹ®
æĽ´ åĩĨç¡®åľ°
è¯Ń ä¹ī
çĭ ±
æİ¥ ç§į
åĩºçİ° äºĨ
ä¸į åĪ°
å¨ ĺ
åı¯ä»¥ æĽ´å¥½åľ°
ä»¥ æ»¡è¶³
ä»İ äºĭ
éľĢè¦ģ å¤§éĩıçļĦ
æĪĳ æľĢè¿ĳ
è´ ¯
æµģ è¡ĮçļĦ
å¸ ķ
åĸľ çĪ±
æĸĩåŃ¦ ä½ľåĵģ
éĢ Ŀ
è¿Ļ ä¹Ī
å®ĥ å°Ĩ
å¹¶ éĩĩåıĸ
ç ¸
ä¾ £
" ,
çİ¯å¢ĥ çļĦ
é¹ ¿
åľ¨ å¤ĦçĲĨ
åĪļ åĪļ
æıĲä¾Ľ ä¸ªæĢ§åĮĸçļĦ
ç¬¬ ä¸Ģæ¬¡
åĩı ç¼ĵ
èĤ ¢
å¸Ĥ æ°ĳ
ä¿¡ å¿ĥ
åĩł å¹´
è®° å¾Ĺ
æ» ĭ
æıĲåĩº äºĨ
ä½ĵ ç§¯
å®¢æĪ· æ»¡æĦıåº¦
ãĢ Ģ
çļĦç²¾ ç¥ŀ
ç®Ĺæ³ķ åĴĮ
çļĦ è¯Ŀ
èģĮä¸ļ åıĳå±ķ
æıĲé«ĺ äºĨ
è½»æĿ¾ åľ°
Ġ åĴĮ
éĩĩåıĸ ä»¥ä¸ĭ
ç½ĳ ä¸Ĭ
æĬ¤ çĲĨ
çļĦç ħ
åŀ Ĥ
åľ¨ éĢīæĭ©
éĻĮ çĶŁ
æĶ Ģ
æĸĩ çĮ®
æľº åľº
èĬ± æľµ
æ» ¨
æŁ ¿
æľºåĻ¨åŃ¦ä¹ł åĴĮ
å¤ļ å½©
è¡¥ åħħ
ä¸Ń æĢ§
Ġ T
äºº åĲį
éģį åİĨ
i m
ä»¥ä¸ĭæĺ¯ä¸Ģ ç¯ĩåħ³äºİ
å¼ºçĥĪ çļĦ
éĿ¢ ä¸Ĭ
ä¼¦ æķ¦
è¿Ļ åľº
éľĢè¦ģ å¯¹
æ² ĥ
æ¶ ¨
ï¼Ī ï¼īï¼Į
è®² è§£
åĲĳ ä¸Ĭ
åĨ° ç®±
æĲľç´¢ å¼ķæĵİ
èĤ ĸ
éĢĴ å½Ĵ
Ċ Ġ
æĹ¥ ç¨ĭ
å¹³ éĿĻ
æĸĻ éħĴ
æĵħ éķ¿
å°ı åįİ
çº¢æ¥¼ æ¢¦
é«ĺ çº§
è° ĭ
éĢŁ åº¦åĴĮ
æķ° åĪĹ
ä¾ĽåºĶ éĵ¾
èĥ Ģ
Ġ åŃ¦ä¼ļ
é» Ľ
è¿Ĳ ç®Ĺ
å·¥ä½ľ çļĦ
åĪĽ æĸ°çļĦ
åĮĸ å¦Ĩ
å°ı æľĭåıĭ
æ³¢ çī¹
é¢ĳ ç¹ģ
on e
äºĳ è®¡ç®Ĺ
åħ Ħ
çģ¯ åħī
åī µ
ä¸ĵ éĹ¨
æĶ¿çŃĸ åĴĮ
èµĦæºĲ åĴĮ
æĤł ä¹ħ
é¦Ļ åĳ³
é¡ ŀ
æŁĶ åĴĮ
è¯» ä¹¦
æĺ Ĥ
åĪĨ æķ°
æĸ¯ çī¹
æľĢä½³ çļĦ
ç§ ¦
æ¹¿ åº¦
å¼Ģ å¿ĥ
çĥ Ĥ
á ŀ
åħį è´¹
çģ« çģ¾
çĶµè§Ĩ åī§
èĥ½æºĲ æ¶ĪèĢĹ
Ù ħ
ä½ł å¯¹
çļĦ æ°ĽåĽ´
åĴĮ è¯Ħä¼°
éģ ¥
æĿİ åįİ
è¯· æ³¨æĦı
å¹¶ ä½¿çĶ¨
çļĦç¾İ ä¸½
çİ¯ èĬĤ
æĥħ åĴĮ
æĪĳä»¬ è¦ģ
ä¸ĬéĿ¢ çļĦéĹ®é¢ĺ
æĸ ¤
çļĦç©º æ°Ķ
æĺ¯ å¦Ĥä½ķ
æ¬¾ å¼ı
ä»½ é¢Ŀ
è·¯ å¾Ħ
è¿Ľ åĮĸ
åľº åľ°
åľ°çĲĥ ä¸Ĭ
åĽŀçŃĶ ä¸ĬéĿ¢çļĦéĹ®é¢ĺ
æ²Ļ æ¼ł
æĿ¡ æ¬¾
å¿łè¯ļ åº¦
å¤§ éĻĨ
ä¼Ĺ å¤ļ
éģĵå¾· åĴĮ
ä¸İ äººç±»
åĭ º
åĽŀçŃĶ ä»¥ä¸ĭéĹ®é¢ĺ
éģ ĭ
æĸĩç«ł çļĦ
æıŃ ç¤º
çīĪ æľ¬
æīĭ å·¥
Ġ ï¼Ī
ç§¯ ç´¯
çļĦ æ¦Ĥå¿µ
æĸ° æĬĢæľ¯
Ġ t
å½ »
çģ« æĺŁ
æĺİ äºĨ
åĲ« éĩı
åĸ Ĥ
ä»¥åıĬ å¦Ĥä½ķ
æķ°æį® åºĵ
èį Ĵ
åģļåĩº è´¡çĮ®
æıı åĨĻ
ä¸Ńåįİ äººæ°ĳåħ±åĴĮåĽ½
æĸ° äº§åĵģ
Ġ æııè¿°
Ġ é¦ĸåħĪ
éĿ¢ åĽ¢
Ġ æĬĢæľ¯
èĩª è½¬
èģļ ä¼ļ
å¿½ è§Ĩ
å¸ ½
ç¢ °
ç °
åľ¨ è¿Ľè¡Į
å¹´ ä»½
çĦ¦èĻĳ åĴĮ
åĩ Į
s t
æİĴ åĲį
åĲĮ ä¸Ģ
ä»İèĢĮ å®ŀçİ°
å¤ ¹
éĨ ĩ
åĵģçīĮ çļĦ
å¹³æĸ¹ ç±³
è¶ħ å¸Ĥ
æľĢéĩįè¦ģçļĦ æĺ¯
æĢ Ĵ
å°ĳ æķ°
æŃ¦ åĻ¨
NL P
æĸ¹æ³ķ åĴĮ
å¤ª å¤ļ
ç»ıæµİ åıĳå±ķ
é«ĺæķĪ åľ°
åŃ¦ä¹ł è®¡åĪĴ
æķĪ åºĶ
æľĪ äº®
éĢīæĭ©éĢĤåĲĪ èĩªå·±çļĦ
Ġ ï¼Į
ç¬¬ åĽĽ
æĴĴ ä¸Ĭ
æµ ı
æĪĳ è¿ĺ
åĪĨ æĶ¯
çķªèĮĦ éħ±
çİ «
ä¾ ¦
æĬ¥ èŃ¦
åĴĮ èĶ¬èıľ
ç»Ĩ èıĮ
äº ķ
åĩº åıĳ
ç į
è¾ĥ é«ĺçļĦ
å¯¹ æĪĳä»¬çļĦ
å±± å³°
çŁŃ æĸĩ
éĢĤ å®ľ
åı¯è§Ĩ åĮĸ
åħħ çĶµ
æ°´ åĮĸåĲĪçī©
æĪĳ éľĢè¦ģ
è¿Ŀ åıį
çĥŃ éĹ¨
æ¼Ķ åĮĸ
æį ī
åįĹ éĥ¨
æıĴ åħ¥
åĩł ä¹İ
çº¿ ä¸Ĭ
éĻįä½İ æĪĲæľ¬
å¹¿ åľº
å¡ĳæĸĻ è¢ĭ
èī² è°ĥ
é«ĺ æ¸©
ç« Ł
è¯ŃéŁ³ åĬ©æīĭ
åľ¨ éĩĳèŀį
è¿Ļ åıª
ä¸Ĭ äºĨ
ä¸Ģæ¬¡ æĢ§
æ» ¥
æĮĩ æķ°
ç»© æķĪ
ä¸ĭ åİ»
å°ı é¸Ł
è§ĤçĤ¹ åĴĮ
æ¶Ī åĮĸ
åĽ¢éĺŁ çļĦ
æĶ¹åıĺ äºĨ
æłĸæģ¯ åľ°
å¿ į
æľĢ åĪĿ
çļĦç¨ ĭ
ç¹ģ æ®ĸ
åľ¨å®¶ éĩĮ
è¯¯ è§£
åĳ¨ æľ«
æıĲåıĸ åĩº
20 19
æľºåĻ¨åŃ¦ä¹ł æĬĢæľ¯
æī¹ è¯Ħ
å·¥åħ· åĴĮ
åı¯ä»¥å¸®åĬ©ä½ł æĽ´å¥½åľ°
é» ŀ
è¾ĥ å¤§
çİ« çĳ°
å¥ ī
åįģ äºĮ
è¦ģ ä¿ĿæĮģ
åĪ© çİĩ
çº¿ æĿ¡
Ġ ç»ĥä¹ł
æĺ¯ä¸Ģä¸ª éĿŀå¸¸
éĿ¢ä¸´ çļĦ
I T
è¥¿ çıŃ
åľ° åĽ¾
å±ķ è§Ī
è¥¿çıŃ çīĻ
æĪĳä»¬ åľ¨
çļĦ åīį
åĪ© äºļ
åĿ ĳ
ç»Ļ äºĨ
äººå·¥æĻºèĥ½æĬĢæľ¯ çļĦåıĳå±ķ
åĬĽ åº¦
åĮ»çĸĹ æľįåĬ¡
è¿Ŀ æ³ķ
å¢ ĵ
Ġ äºĨè§£
å» ·
å¤§ éĥ¨åĪĨ
è¿Ķ åĽŀ
æľī æĦıä¹ī
éĢļ éģİ
åĳ Ģ
éĽĨ åĽ¢
åŃ¦ å®¶
æĽ´å¤ļ çļĦäºº
éĻ¤ æ³ķ
å¢ŀ æ·»
å¦Ĥæŀľ æĤ¨çļĦ
æ¼Ķ åĩº
åĵģçīĮ å½¢è±¡
åı ¬
å¹¶ éĢļè¿ĩ
æľ¯ è¯Ń
èª ¿
å®ĥ åľ¨
ç¼º å¤±
åĮĸåŃ¦ åıįåºĶ
åĴĮ æľĭåıĭ
é¤Ĳ é¦Ĩ
åĳ¨åĽ´ çļĦ
åĪ© äºİ
æİĴåºı ç®Ĺæ³ķ
ç»Ļ æĪĳä»¬
äº¤ åıī
è¯Ĺ äºº
æµı è§Ī
åĪĩ ç¢İ
æ¯ıä¸ªäººéĥ½ åºĶè¯¥
ä¸ ¢
Ġ â
å°Ĩ åľ¨
èį ¡
ç§į åŃĲ
çŃĽ éĢī
æĬ ļ
åĲį åı«
çĶµåŃĲ åķĨåĬ¡
æĽ´ åħ·
è¯Ń æ°Ķ
ï¼ ħ
éĽ¶ åĶ®
å¥½ å¥ĩ
çļĦ åĨ³çŃĸ
æİ¢ æµĭ
è¶ħ çº§
æĮī æĹ¶
æĢ§åĪ« æŃ§è§Ĩ
æµ Ļ
Ġ æĺ¯çļĦ
å¤§ åľ°
æĸĩ èīº
èħ Ķ
éŃ Ĥ
æ· ĩ
ä»¥ åīį
ä»İ å°ı
åİŁ æĿ¥
èŀ º
å¤« å¦»
å°ıæĺİ çļĦ
çĻĮ çĹĩ
çļĦ å½¢å¼ı
æ¼Ĥ äº®
Ġ å¯¹
éĴ¢ çĲ´
åĽ¾ä¹¦ é¦Ĩ
æļ´ åĬĽ
å¹² æĹ±
è½¬ ç§»
çŃĶæ¡Ī æĺ¯
Ġ G
åĴĮ ä¸Ģä¸ª
å·ŀ å¸Ĥ
ä½ı å®¿
ä¹Ł èĥ½
å®¶ çĶµ
èĩªå·± åĴĮ
æĿ¥ è®¡ç®Ĺ
æ£ ķ
M ar
æĤ Ł
ä¸ĸçķĮ ä¸Ĭ
Ġ å¯»æī¾
ä¸ĭ ä¸Ģä¸ª
æĺŁ ç³»
æķ° åĢ¼
æĪĸ ä¸į
çļĦ åĳ³éģĵ
è¥¿ äºļ
èĭ± æĸĩ
åĲĳ åīį
è¿½æº¯ åĪ°
ä¹ĭ ä¸Ń
çĭ ¼
çĲ ³
åı¯ä»¥ å¯¹
çĥ ĺ
" ï¼Į
è®¾å¤ĩ çļĦ
åĨľ æ°ĳ
æ Ĩ
å¾Ĺ åĪĨ
æĪĳä»¬åı¯ä»¥ å°Ĩ
ç©º ä¸Ń
ç©º è°ĥ
çļĦ æİĴæĶ¾
æľī äºĨ
ä¸º ä¸Ģä¸ª
åŀĭ çļĦ
æİ¢è®¨ äºĨ
ä½ľ åĩº
çłĶç©¶ è¡¨æĺİ
æĺ¯ çĶ±äºİ
è¾ ¨
éħ µ
è®© æĤ¨
æ¢ ¨
ä»¥ æŃ¤
åĴĮ åĨ³çŃĸ
è° ľ
ä¹ĺ å®¢
æµĩ æ°´
åĪ¤ åĨ³
å±Ģ éĻĲ
éĢļè¿ĩ ä»¥ä¸Ĭ
æ·± æ·±
ä¸Ģ åº§
ä¸Ģ æľ¬
éĹ» åĲį
Ġ p
å¤© æĸĩåŃ¦
åıĳ è¡¨
é»ĳ å®¢
åĮĸçŁ³ çĩĥæĸĻ
Ġ éĢĤéĩı
é¢Ħ è®¢
ä¿Ħ ç½Ĺæĸ¯
æī ĳ
çļĦ é¢ĨåŁŁ
èĥ ĸ
è¿ĺ è¦ģ
æĸĩç«ł ä¸Ń
ä¾Ŀ æį®
é¥® çĶ¨
çĸĳ éĹ®
é¢Ħ è®¡
æĺ¯ä¸Ģ æ¬¾
çļĦçĭ¬ çī¹
éģŃ åıĹ
å¼ķ äºº
éĢļå¸¸ åľ¨
éĩįè¦ģ æĢ§
æĭħ å¿§
åı£ ç½©
ç¼ĵ æħ¢
æĦı åĽ¾
æħĪ åĸĦ
ç® Ń
Ġ çĶ¨
èī °
èħ º
æĺİ æĻº
èĩªçĦ¶ çļĦ
å¸®åĬ© æĪĳä»¬
è¾ ©
éķ¿ åŁİ
ç¿ ¼
è¿ĻäºĽ åĽłç´ł
è¿ Ń
å°Ĭéĩį åĴĮ
èģļ ç±»
ä¸ļ ç»©
å¯¹ ç¤¾ä¼ļ
çĶŁæ´» åľ¨
æ¨ £
çļĦ æµ·
åı¯ çĪ±
æį Ĳ
å¼ķ åħ¥
æĪĳ æ²¡æľī
æĺ¥ å¤©
çļĦç Ĥ
ĠåĪ¶å®ļ è®¡åĪĴ
æĸĩæľ¬ åĪĨç±»
ä¸ĵä¸ļ çŁ¥è¯Ĩ
çļĦçĽ®æłĩ åĴĮ
20 14
é¦Ļ æ°Ķ
é¦Ļ èįī
ä½Ĩ ä¸į
è®¾è®¡ å¸Ī
ä»·åĢ¼ åĴĮ
åħ¨ éĿ¢çļĦ
åĲ¯ ç¤º
åīį è¿Ľ
4 8
æľīä¸Ģ å¤©
åı¯ çĶ¨
åĴĮ åıįé¦Ī
å¯¹çİ¯å¢ĥ çļĦ
æħ °
æĩ Ī
å¾ Ĳ
æİ¨ ç§»
é¢Ħ å¤ĦçĲĨ
20 10
çĥŃ çĪ±
åĨ° æ·ĩ
å® ´
æ©Ł åĻ¨
çļĦ åħī
äºĨè§£ ä»ĸä»¬çļĦ
åĳ½ è¿Ĳ
æķħäºĭ æĥħèĬĤ
ç§ĳåŃ¦å®¶ ä»¬
å¤´ åıĳ
æ¸ ¬
å© Ĩ
çļĦ ä»£è¡¨
åľ¨ æĪĳ
åľ° ä¸ĭ
åľ° éĵģ
åĨ°æ·ĩ æ·ĭ
çħ§ çīĩ
æĬĢèĥ½åĴĮ çŁ¥è¯Ĩ
åŃ ķ
ãĢĭ ï¼ļ
å·²ç»ı å¼Ģå§ĭ
åģľ è½¦
å¼ķèµ· äºĨ
æķĻ åłĤ
çĸ¾çĹħ çļĦ
æŁĲ æŁĲ
çĭĹ çļĦ
æ¸¸æĪı ä¸Ń
çĶŁçī© å¤ļæł·æĢ§
åī ĳ
ç»Ļ æĤ¨
ç½ĳç»ľ å®īåħ¨
å¿ĥ ä¸Ń
å¦Ĥä½ķ åĪ¶ä½ľ
æ¼ı æ´ŀ
åĴĮ æ´»åĬ¨
å·² æĪĲä¸º
è¿ĺæľī å¾Īå¤ļ
èį¯ åĵģ
æ··åĲĪ çī©
æĪĳ è¦ģ
å® ı
éĢĤ çĶ¨
åı¯ä»¥ å®ŀçİ°
æĥ© ç½ļ
ä¹ĭ æĹħ
äºĨä¸Ģ ç³»åĪĹ
æ´¾ åĩº
çļĦåıĳå±ķ åĴĮ
éĢļè¿ĩ ä½¿çĶ¨
æĺ¾ å¾Ĺ
å¯¹ ä½ł
è®¾ ç«ĭ
Ġ å¢ŀåĬł
à¤ ¾
æ¡ Ĥ
éĿŀå¸¸ å¹¿æ³Ľ
ä»ª å¼ı
i r
çĭ Ĳ
å®¢æĪ· éľĢæ±Ĥ
çĵ ·
æŀģ å¤§çļĦ
å¤ªç©º æİ¢ç´¢
ä¸¥æł¼ çļĦ
ãĢĤ ãĢĬ
åı¯ è¡ĮçļĦ
äº¤éĢļ æĭ¥åłµ
æľĪ ä»½
ä¹¦ è®°
é£İéĻ© æī¿åıĹ
åĸĦ èī¯
åĨ° å·Ŀ
åİĨ ç¨ĭ
çļĦ ä¸į
ar a
å®ĩå®Ļ çļĦ
è®Ńç»ĥ æ¨¡åŀĭ
è¡¨ æł¼
æķ° çĻ¾
åħ¬ å¼Ģ
æľªæĿ¥ åıĳå±ķ
åĪĹ ä¸¾
ç¥ŀ å¥ĩ
æ¯ı ä¸Ģ
å¸¦ çĿĢ
åĲĦ åĽ½
è¿ĳ æĹ¥
äººä»¬ çļĦçĶŁæ´»
éģ¿åħį è¿ĩåº¦
å®ĺ æĸ¹
é³ į
åħ¬ çĽĬ
å®Įæķ´ çļĦ
å®Ŀ èĹı
l i
åį± æľº
çļĦçĥ ¤
è¯¥ åħ¬åı¸
çĭ® åŃĲ
Ġ Ø§ÙĦ
à §
è¶ħ è¶Ĭ
Ġ L
åĴĮ çłĶç©¶
æĪĳä»¬çļĦ äº§åĵģ
çģ« è½¦
æł¹æį® æĤ¨çļĦ
æ¶Īè´¹ èĢħçļĦ
Ġ èĩªåĬ¨åĮĸ
è´¢åĬ¡ çĬ¶åĨµ
èĦ Ĭ
è¡Įä¸ļ ä¸Ń
çł Ĥ
èĿ ´
è®© èĩªå·±
éĤ Ħ
è³ ª
é£İ èĥ½
å¯¼èĩ´ çļĦ
Ġ3 0
çļĦç´ §
è¿Ļ åı¯ä»¥éĢļè¿ĩ
æľīéĻĲ åħ¬åı¸
å½ĵ ä»£
èĿ´ èĿ¶
å±ŀ æĢ§
åĢ¼å¾Ĺ ä¸Ģ
ç¨ Ģ
çĲĨ çĶ±
ç¡®ä¿Ŀ æĤ¨
æĺĨ èĻ«
ä¼ļ æľī
åĤ¨ åŃĺ
ä¾ĽåºĶ åķĨ
è¿ĻäºĽ éĥ½æĺ¯
æĬķ è³ĩ
b r
é¥® åĵģ
æĪª æŃ¢
åı¯ ä¿¡
æīĭ æ³ķ
åı¸ æľº
åı¯ åı£
æ¯ı äºº
æ´»åĬ¨ åĴĮ
åĨĽ éĺŁ
éĥ¨ ä½į
å·¥ åİĤ
ç¥ŀç»ı åħĥ
ä¿¡çĶ¨ åį¡
åģ¥åº· éĹ®é¢ĺ
Ø ª
çļĦ æĦıæĢĿ
ä¸įä»ħä»ħ æĺ¯
éĩıåŃĲ åĬĽåŃ¦
åŁºäºİ ä»¥ä¸Ĭ
ç©¿ è¿ĩ
ä¸Ń ä½¿çĶ¨
åı¶ åŃĲ
å°ı å¿ĥ
åħ¶ä¸Ń æľĢ
èĢģ å¹´äºº
Ð ²
å¦Ĥ ä»Ĭ
æ°ĳ ä¸»
èĩªçĦ¶ çķĮ
ä½Ĩ ä»ĸ
èħ ¾
çªģ çł´
åĿļ å®ļ
è¿Ļ ä¹Łæĺ¯
Â ł
åľ° åĿĢ
æ²» çĲĨ
ä¿¡ å¿µ
å±ķçİ° äºĨ
åıĳ éŁ³
æĽ´ æľīæķĪåľ°
ç¡®ä¿Ŀ æĤ¨çļĦ
äºĨè§£ èĩªå·±çļĦ
åĴĮ å¸Ĥåľº
æŃ¤ æĹ¶
åįĹ äº¬
ä¼ģä¸ļ å®¶
åĲ¯ åıĳ
å® ħ
èĳ¡èĲĦ éħĴ
éħ¸ å¥¶
å°ĳ çļĦ
åĴĮ æİ§åĪ¶
è® ¼
çļĦçħ §
ä»İ ä»¥ä¸ĭ
æĢİ æł·
çī© åĴĮ
è§£åĨ³ éĹ®é¢ĺçļĦ
çŁ³ å¤´
çļĦ å£°éŁ³
éĩĳ é»Ħèī²
è¡Ģ æ¶²
èµ ¤
è¿Ļ åĮħæĭ¬
èĭ± å°º
ç±»ä¼¼ äºİ
åı¯èĥ½ åŃĺåľ¨
ç²Ĵ åŃĲ
å½¢æĪĲ äºĨ
Ġ æī¾åĪ°
ä¸» ä»»
èįī åİŁ
éļıçĿĢ æĹ¶éĹ´çļĦ
èĢĲ å¿ĥåĴĮ
å¯¹ åºĶ
éĢĤåĲĪ èĩªå·±çļĦ
ä¹Ł æĺ¯ä¸Ģä¸ª
Ã Ĺ
æīĵ åĩ»
åĨ· åį´
ä»¥ å®ŀçİ°
åħįçĸ« åĬĽ
åıį å¯¹
æĬ½ è±¡
åģ¶ æķ°
ä¸ĭ éĿ¢çļĦ
å¸®åĬ© äººä»¬
3 2
é«ĺè´¨éĩı çļĦ
ç©¿ è¶Ĭ
çĪ ·
å®ģ éĿĻ
è¿Ľè¡Į åĪĨæŀĲ
ç©ºæ°Ķ æ±¡æŁĵ
a g
çİ° æľī
çİī ç±³
çł ĸ
åħħåĪĨ çļĦ
å¯¹çİ¯å¢ĥ çļĦå½±åĵį
æ¯« åįĩ
åħ» æĪĲ
èĥ½ å¤ł
æĻ ´
å¤ĩ åıĹ
ä»ĸ æĥ³
å·¥ èµĦ
20 12
è¡¡ éĩı
å¥½ äºĨ
è¯ī è®¼
ç»Ļ äºº
åĿĲ åľ¨
ç¢Ĺ ä¸Ń
åĳ½ åĲį
çļĦçĪ ¶
æĪĳ ä¸į
æł¹æį® é¢ĺçĽ®
æĽ´åĬł æĻºèĥ½åĮĸ
ä»¥ èİ·å¾Ĺ
æıĲä¾Ľ æĽ´å¤ļçļĦ
ç¢º ä¿Ŀ
Ġ ä½łå¥½
çļĦçģ «
æī¿ è¯º
æĳĦ å½±
éļ ª
çļĦ åŃĺåľ¨
åĽ° å¢ĥ
Ġ H
å¿½ çķ¥
ä» ĵ
åħ³éĶ® ä¿¡æģ¯
é¢Ħ çĥŃ
æīĭ å·¥èīº
åħ¬ äº¤
æ¨¡ ä»¿
åį³ å°Ĩ
æĿ Ĩ
å¤ª å¹³
ä¸º çĶ¨æĪ·
è¯¯ å·®
éĩĩ éĽĨ
æ¸ħæĻ° çļĦ
é©± åĬ¨
çīĽ é¡¿
a v
a d
å®Ŀ çİī
åĸĦ äºİ
çļĦæĹ¶éĹ´ åĴĮ
çŃīæĸ¹å¼ı æĿ¥
ç»Ł ä¸Ģ
èĲ¥åħ» ç´ł
åħ¶ä¸Ń ä¸ĢäºĽ
åĲ¬ ä¼Ĺ
* *
äº§çĶŁäºĨ æ·±è¿ľçļĦå½±åĵį
æĽ´ æĶ¹
æĭ¼ åĨĻ
åĩºçİ° çļĦ
çº¢ æŁ¿
èħ Į
éĢłæĪĲ çļĦ
æľī çĶ¨çļĦ
ç»Ļåĩº ä¸Ģä¸ª
å¤ļæł· åĮĸ
åı¯ä»¥ è¿½æº¯åĪ°
äººå·¥æĻºèĥ½ çļĦåºĶçĶ¨
æ¨ Ĥ
è¥¿ çº¢æŁ¿
æĪĳ éĿŀå¸¸
éŁ© åĽ½
åĴĮ é£İéĻ©
èªī ä¸º
åıįæĺł äºĨ
å¹¶ ä¿ĿæĮģ
æį ŀ
å¹¶ è§£éĩĬ
å¹³åĿĩ åĢ¼
åıª éľĢè¦ģ
çĥ¤ çĽĺ
çĶŁæ´» è´¨éĩı
åĩºçİ° åľ¨
å¤§ è±¡
æ¶ Į
å·¥ä½ľ åĴĮ
é¢Ŀ å¤ĸçļĦ
åĩ ¤
æĺİ æľĿ
çļĦ åĢ¼
åŁĥ åıĬ
é¡µ éĿ¢
åı¯ä»¥ éĩĩçĶ¨
æģ °
çº¿ ç´¢
éĥ½æľī çĿĢ
è®¡ç®Ĺ åĩº
èģĶ çĽŁ
åħħè¶³ çļĦ
åİ ¦
èį¯çī© çłĶåıĳ
åħĭ çļĦ
æīĭ èĩĤ
çĸ¼ çĹĽ
çº¸ å¼ł
è®¨è®º äºĨ
çļĦç³ »
çļĦ åĲ«ä¹ī
çĮ ´
ä¾Ŀ çĦ¶
ãĢĤ âĢľ
æ¯Ķ äºļ
è®¾å¤ĩ åĴĮ
å¤ļ å¹´
å®Į ç¾İçļĦ
ä¹ī åĬ¡
çĺ ¦
é¤Ĳ é¥®
é¦Ļ æĸĻ
æīĢæľī äºº
åħĭ æĸ¯
å£° èªī
åĲ¬ åıĸ
å½¼æŃ¤ çļĦ
äººå·¥æĻºèĥ½ ç³»ç»Ł
ç¾İ æ´²
å¯Ĵ åĨ·
çŁŃ æľŁ
å°¤åħ¶ æĺ¯åľ¨
é¤Ĳ åħ·
åŃĺåľ¨ çĿĢ
å¯ Ĥ
å¿ĥ è¡Ģç®¡
éģ¿åħį ä½¿çĶ¨
é»Ħ æ²¹
æ´ª æ°´
éĢī ä¸¾
å¸®åĬ© åĮ»çĶŁ
AI åľ¨
æĸĩåĮĸ éģĹäº§
æ¹ĸ æ³Ĭ
æ¨¡å¼ı åĴĮ
èĻ ķ
éĥ½ åºĶè¯¥
å¥³ å£«
åĩĢ åĮĸ
å¥ ĳ
ä¸´ åºĬ
æģ¶ æĦı
è¡ °
éĶ ¦
äººå·¥æĻºèĥ½ åı¯ä»¥å¸®åĬ©
ä»¬ çļĦ
å¿ĥçĲĨ åĴ¨è¯¢
å°± èĥ½
æııè¿° ä¸Ģä¸ª
å¾® ç¬ĳ
çģ° èī²
åĳĬè¯ī æĪĳä»¬
æ°´ èµĦæºĲ
ä¼ĺ éĽħ
ç»ıåħ¸ çļĦ
æµĻ æ±Ł
éŁ ¿
ç»Ŀ å¯¹
æľī å¤ļå°ĳ
é£İ åħī
æ´»åĬ¨ çļĦ
æĪĳ çŁ¥éģĵ
ç§ĺ å¯Ĩ
AI è¯Ńè¨Ģæ¨¡åŀĭ
ç¸ ½
åĲ¸å¼ķ åĬĽ
çļĦæĹ¶éĹ´ å¤įæĿĤåº¦
ä¼ĺ ç¼ºçĤ¹
çī §
äººå·¥æĻºèĥ½ åı¯ä»¥éĢļè¿ĩ
æĸĩåĮĸ ä¸Ń
æĬķ è¯ī
å®¢ åİħ
ç¾İ è§Ĥ
æ³ķå¾ĭ åĴĮ
è§£ çŃĶ
æ¡Ĩ æŀ¶
è¾¹ çļĦ
æ© ĺ
åĩıè½» åİĭåĬĽ
è¿Ļ å°±æĺ¯
å®¶ ä¸Ń
åĲĳ æĤ¨
ä¸¤ ä¸ªäºº
æĶ¯ éĵħç¬Ķ
è½¬ åŀĭ
åĭ ĥ
åľ¨ ä¸įåĲĮçļĦ
è§ Ģ
åħ³ èģĶ
æ´Ĺ è¡£
äº¤éĢļ å·¥åħ·
åľ¨ ä¸įåĲĮ
çļĦ å¤©æ°Ķ
äºº èĦ¸
èº« ä¸Ĭ
åĲ¯ åĬ¨
éĥ ĳ
Ð ´
éľĢè¦ģ ä¸įæĸŃ
æĪĸ æĺ¯
åħ¬ æ°ĳ
Ġ1 00
çļĦ è¯Ŀé¢ĺ
ï¼Į ãĢĬ
åħ¥ æīĭ
çĩķ éº¦
åºĶçĶ¨ åľºæĻ¯
è¿ĺæľī ä¸ĢäºĽ
ä¹ĺ åĿĲ
ä¸ĢèĪ¬ æĿ¥è¯´
æļĹ ç¤º
èĢĮ å¼Ĥ
éļıçĿĢæĹ¶éĹ´çļĦ æİ¨ç§»
çļĦ å¤ĸ
çļĦç ķ
éĴ ¥
æĤ² ä¼¤
çĦ¶åĲİ å°Ĩ
èĤ¥ æĸĻ
20 13
ç¤¾äº¤åªĴä½ĵ ä¸Ĭ
i P
ä¸į æĩĪ
è¡ «
èĳ £
ä¹° äºĨ
çĽĹ çªĥ
o t
å¤Ħ ç½ļ
ç§ĳæĬĢ çļĦåıĳå±ķ
çĶŁçī© åŃ¦
å½±åĵį äºĨ
Ġ æ³¨æĦı
å¤Ħ çļĦ
ä¸İ äºº
ä»¥ éĢĤåºĶ
æ¸ Ľ
20 20
ä¹ĭ æĥħ
çĽ´ å¾Ħ
åĽ´ ç»ķ
çļĦ æĦıä¹ī
çº¢ èī²çļĦ
åı¯ä»¥ èĩªåĬ¨
èĻ ¹
ç®Ĺæ³ķ æĿ¥
åĮħåĲ« äºĨ
éĢĶ ä¸Ń
éĩįè¦ģçļĦ è§Ĵèī²
åħ± é¸£
å¡ĳ éĢł
åºĵ åŃĺ
çĭ ¸
ç¢³ æ°´åĮĸåĲĪçī©
Ġ éĤ£
éŀĭ åŃĲ
Ñ ĸ
çĤ¹ åĩ»
é¥®é£Ł åĴĮ
çĶŁæĢģ å¹³è¡¡
æĽ ¹
çī¹çĤ¹ åĴĮ
æĸ¹ å½¢
æ£ ī
ä»£è¡¨ çĿĢ
åĬł å¿«
çļĦ é£Łåĵģ
åįļ å®¢
ä¾ĭå¦Ĥ åľ¨
å¸Ĥ ä¸Ńå¿ĥ
å¤ªéĺ³ çļĦ
çī¹åĪ« æĺ¯åľ¨
é«ĺ è¡Ģåİĭ
éĹ´ çļĦ
éĹ ¹
ï¼Ī ï¼ī
åįĵ è¶Ĭ
ä¼ ª
çī µ
ä¸ŃçļĦ ä¸Ģä¸ª
ç² Ĺ
ä¸ ĺ
èĢ ¶
éļĲ èĹı
äº² å¯Ĩ
ç¦ģ æŃ¢
æĪĳä»¬ ä¹Ł
èŃ ĺ
éļ ¶
å¹½ é»ĺ
è¿Ļ åı¯ä»¥å¸®åĬ©
èµ° äºĨ
å®¢ æĪ¶
æ¶² ä½ĵ
çļĦç ı
éŁ µ
è¿Ļä¸ª æķħäºĭ
åľ¨å·¥ä½ľ ä¸Ń
å¤ ·
è¿Ļ ä»½
è®© çĶ¨æĪ·
åħ¨ æĸ°çļĦ
ï¼ į
) ãĢĤ
Ġ [
éģ ®
ä»£ åħ¥
æĺ¥ èĬĤ
çħ ¸
ç§ģ äºº
è¿Ļ è¡¨æĺİ
è¿Ļ åı¯ä»¥å¸®åĬ©æĤ¨
èº« é«ĺ
åıįé¦Ī åĴĮ
åħĪè¿Ľ çļĦ
çº¢ çĥ§
åĲ¬èµ·æĿ¥ å¾Ī
ä¿Ŀ åħ»
éĹ®é¢ĺ æĪĸ
è¢« èªīä¸º
åĽ¾ å½¢
åĶ® åĲİ
äºº å¿ĥ
Ġ h
æĢ§èĥ½ åĴĮ
ç¨İ æĶ¶
è¡¨ æĥħ
æľ¬ åľ°
çļĦç ¦
ä¸įä»ħ åı¯ä»¥
æĺ¯ä¸Ģ å®¶
åıĤä¸İ èĢħ
çľĭ çĶµå½±
åı¯ çĶ¨äºİ
å¼ºåĮĸ åŃ¦ä¹ł
èŀį åĮĸ
èĤ ¿
è¯ķ éªĮ
åĩı åİ»
æĤ¨ åºĶè¯¥
çłĶç©¶ åĴĮ
çĶµ åĬĽ
ç¼ Ŀ
åĮĹ éĥ¨
å²© çŁ³
éľĢè¦ģ éĩĩåıĸ
ä»¥ä¾¿ åľ¨
éĿł è¿ĳ
åĬł å¤§
Ġ D
åľ¨å®¶ ä¸Ń
æĪĳ å·²ç»ı
åįĥ ç±³
æľ ´
æ¸ ¡
åĴĮ å¯¹
æķ° æĺ¯
å¥³ åĦ¿
çļĦç½ĳ ç»ľ
ç§ĳ æĻ®
ä¿¡æģ¯ çļĦ
æĲº å¸¦
è¿ĺæľī è®¸å¤ļ
èĥ¸ èĤī
çĪ µ
å¥¥ è¿Ĳ
å®¢ è§Ĥ
äº¤éĢļ äºĭæķħ
è¿Ļç§į æĥħåĨµ
åĽŀ åºĶ
å·²ç»ı æĪĲä¸ºäºĨ
ä¹Ł è®¸
æĤ¨åı¯ä»¥ éĢīæĭ©
å¼Ģ æĶ¯
AI çļĦ
éĩįè¦ģçļĦ æĺ¯
åľ¨ ä¸ĢäºĽ
å¾ ½
æĽ´ æĺ¯
æ²¡æľī ä»»ä½ķ
çĮ Ľ
ä¸į å¥½
æķ°æį® æĿ¥
æ±ī åŃĹ
çĶµ åķĨ
æ¸ħæ´ģ èĥ½æºĲ
çļĦ æĢģåº¦
éĢļ è®¯
ç» µ
æĪ °
è¯ĨåĪ« åĩº
Ġ I
åıĳ åĬ¨æľº
æĬĺ æī£
æ½ľåľ¨ çļĦ
ä¿ĿæĮģ èī¯å¥½çļĦ
æİ¥ æĶ¶
å°Ĩ ä»»åĬ¡
åĨħ æ¶µ
æĹł çº¿
èĭ± éĩĮ
æĳ ¸
è°¢è°¢ ä½łçļĦ
å½± éŁ¿
çļĦçĹ ĩ
çĽ¸ åĬł
èµ° åĲĳ
æĳĦ åĥı
å¹¶ åıĬæĹ¶
' :
è¸ ı
le x
å¤§ èĴľ
æ²ī æµ¸
çļĦä¸»è¦ģ åĨħå®¹
ç©Ĩ æľĹ
æĺ¯ ä¸ª
åı£æĦŁ åĴĮ
Ġ æł¹æį®
å¿ĥèĦı çĹħ
æİ¢ ç©¶
é¾ Ł
3 4
åıĳçĶŁ çļĦ
ä¸Ģå®ļ ä¼ļ
ç©ĨæľĹ çİĽ
éĴ ®
èľľ èľĤ
çı Ĭ
ç²¾ å½©
è¯· ç»ŃåĨĻ
Ġ äººå·¥æĻºèĥ½
æ°Ķ æ°Ľ
å¹¿ ä¸ľ
æĺİæĺ¾ çļĦ
è¢«åĳĬ äºº
G P
äººä»¬ åı¯ä»¥
æĤ¨åı¯ä»¥ èĢĥèĻĳ
åĴĮ ä¿ĿæĬ¤
æľĢ ä¼ĺ
çº ²
èīºæľ¯ ä½ľåĵģ
åı¯éĿł çļĦ
å¥½ åĥı
éĽ »
ç¿ Ķ
å·¥ äºº
çĹĽ èĭ¦
é»Ľ çİī
u s
ä½ł è®¤ä¸º
è· Į
éħį å¤ĩ
åĲ¸å¼ķ æĽ´å¤ļçļĦ
çĪĨ çĤ¸
m y
çĽ ²
çļĦå®īåħ¨ æĢ§
æľº åħ³
åħ¨çĲĥ èĮĥåĽ´åĨħ
åĻ¨ å®ĺ
æµ· æĭĶ
å®¹ åĻ¨
ä»¥ä¸ĭæĺ¯ ä¸Ģä¸ª
å¦ĤæŀľæĤ¨ æľīä»»ä½ķ
æµ· å²¸
è¥¿ æĸ¹
Ġ R
æĢ ĸ
åħ¶ä¸Ń ä¸Ģä¸ª
èĨ ³
èģĶ èµĽ
æľ¨ æĺŁ
AP P
çĶŁäº§ åĬĽ
æĪĳ åĲ¬è¯´
æĻºèĥ½ å®¢æľį
éĹ® çŃĶ
éĥ½ éĿŀå¸¸
åı¯æĮģç»Ń çļĦ
Ġ d
è§Ĩ éĩİ
è¾¹ ç¼ĺ
é»Ħ çĵľ
æĪªæŃ¢ æĹ¥æľŁ
å¼¯ æĽ²
æıĲé«ĺ å·¥ä½ľæķĪçİĩ
åĻª éŁ³
æĴŃ æĶ¾
çıł ç©ĨæľĹçİĽ
å¸® æĪĳ
å¢ŀåĬł äºĨ
æĪĳ å»ºè®®
¬ éĹ´
èĬ± çĶŁ
åħ¨çĲĥ æ°ĶåĢĻåıĺåĮĸ
å®ŀéªĮ å®¤
éļıçĿĢ äººå·¥æĻºèĥ½æĬĢæľ¯çļĦ
æģĲ é¾Ļ
3 8
Ġ æķĻèĤ²
æĺ¯ åŁºäºİ
åĩĨ åĪĻ
é£İæł¼ çļĦ
æĽ¿ æį¢
è¿ĻäºĽ æİªæĸ½
çĽĪ åĪ©
é¥® éħĴ
æ² ®
åħ³éĶ® åŃĹ
æģĲ æĢĸ
åİ» ä¸ĸ
äºĶ å¹´
åŁİ åł¡
éĢĻ åĢĭ
æĺ¯ å°Ĩ
éĢī çĶ¨
æī ĩ
äºĭ åĬ¡
åī© ä¸ĭçļĦ
åĴĮ ç»Ħç»ĩ
ç· ´
ï ½
çļĦ åŃ¦çĶŁ
u n
çº µ
æ¦Ĥ è¿°
æ´¾åĩº æīĢ
åĴĮ èĪĴéĢĤ
ä¸º å®¢æĪ·
å¹¶ä¸Ķ åľ¨
i e
å¸Ĥåľº ä»½é¢Ŀ
ä¸Ģ åħ±
× Ļ
æĩī çĶ¨
ç³» çµ±
åĲ Ĳ
åº ŀ
è¯·ç»ŃåĨĻ ä»ĸä»¬çļĦå¯¹è¯ĿåĨħå®¹
æĿ¥ åĩıå°ĳ
çŃī å¼ı
çĤ¹ åĴĮ
åĮº çļĦ
ä»¥ä¸ĭæĺ¯ åĩłä¸ª
åľ°çĲĥ ä¸ĬçļĦ
æħ¢æħ¢ åľ°
æħ¢ æĢ§
æĭ ĺ
è¿ĺæľī åħ¶ä»ĸ
AIæĬĢæľ¯ çļĦ
å½¢æĪĲ çļĦ
åģ¥èº« æĪ¿
éĢī æīĭ
é© »
æĺŁ æĺŁ
çłĶç©¶ äººåĳĺ
an d
4 00
å¤§ äºİ
é¦ĸ æ¬¡
éŁ³ä¹Ĳ åĴĮ
åĵ Ń
é¢Ĩ è¢ĸ
çļĦçĹĩ çĬ¶
çļĦ æľīæķĪ
åĴĮ ä½ł
è¯ļ å®ŀ
çĽ¸å¯¹ è®º
å¹´ èĩ³
çĿ¡ è§ī
å³ ¡
æĸ¹ç¨ĭ å¼ı
åľ¨ åŃ¦ä¹ł
è®© ä»ĸ
è·³ è·ĥ
ä¸Ģ å±Ĥ
ç¤¼ çī©
èĨ ¨
æīį åįİ
åħ §
æĺ¯ è°ģ
è¿Ľ å£«
è®© è§Ĥä¼Ĺ
åĮĸåŃ¦ çī©è´¨
é¥ ²
è¡Į ç¨ĭ
åĪĨ å¿ĥ
è¢« çĶ¨äºİ
ä¸į çĶ¨
æĤ¨ åı¯ä»¥éĢļè¿ĩ
æŀģç«¯ å¤©æ°Ķ
åįı åķĨ
æ¸¸æĪı çļĦ
æķ´ æ´ģ
ç¥ Ń
åĻ¨ æĿĲ
ç¹ģ èį£
é¹ °
åĩıå°ĳ ä½¿çĶ¨
çıłç©ĨæľĹçİĽ å³°
Ġ åħĥ
åĽ¾ è¡¨
éĴ »
åŃĹ ä½ĵ
åĭĩæ°Ķ åĴĮ
æīĵ ç®Ĺ
è¢«å¹¿æ³Ľ åºĶçĶ¨äºİ
çĶµ æºĲ
èİ ²
ç³»ç»Ł åĴĮ
ä¼ĺ ç¾İ
åıĳçĶŁ åľ¨
çļĦ åĩĨç¡®æĢ§åĴĮ
è¿ĩ å¤ļçļĦ
ä½İ ç¢³
Ø ¯
è±Ĩ ç±»
____ ____
æĤ¨ å¯¹
çģ Į
æĪ·å¤ĸ æ´»åĬ¨
é¢ľèī² çļĦ
å¹¶ åĪ¶å®ļ
å¹´ åīį
å·¥ä½ľ æµģç¨ĭ
èµ· äºĨ
åį¡ è·¯
éĿ¢ éĥ¨
å®ĥ ä¼ļ
é¸¡ èĥ¸èĤī
çļĦç ¢
åĲĦç§į åĲĦ
éĹ® åį·
å¼Ģ è½¦
è¡¨è¾¾ æĸ¹å¼ı
æĮī éĴ®
æľī æľºä¼ļ
å°Ĩ æĪĲä¸º
éŁ³ä¹Ĳ çļĦ
é»Ħ éĩĳ
ç«Ļ åľ¨
è¿Ľè¡Į è¯Ħä¼°
æīĵ çł´
3 7
çļĦ è§Ĵèī²
æĬ¥ è¡¨
h one
Ġ åĪĨæŀĲ
åĪĨ åī²
éŃ ı
æ¡Į åŃĲ
å» ī
æľŁ éĻĲ
è¾ ī
å±± ä¸ľ
è¿Ļæ®µ å¯¹è¯ĿåĨħå®¹
Ð ¼
Ġ æİ§åĪ¶
ä¸» æĮģ
é¢ ĸ
æĺİçĻ½ äºĨ
åĴĮ ä»ĸçļĦ
èĩ £
çĪ±å¥½ èĢħ
çħ¸ çĤĴ
çļĦ åĬŁèĥ½
æ³° åĽ½
éĢł åŀĭ
åıĳçİ° èĩªå·±
å»ºç«ĭ èģĶç³»
éĽ¶ é£Ł
æ© ¡
åħ¶ å®ĥ
Ġ è¿Ļä¸ª
è¿½ è¸ª
èĪŀ åı°
çħ§ æĺİ
èĢģ é¼ł
åįĹ çľģ
ä¸½ çļĦ
ãĢ ĳ
å¯¼ å¸Ī
6 7
åĴĮ æĹł
ãĢ Ĳ
ä¸Ĭ æľī
èµĶ åģ¿
çļĦçľŁ å®ŀ
æıĲé«ĺ æķĪçİĩ
åĨħ åŃĺ
åģļ ä¸ĢäºĽ
å½¢å¼ı çļĦ
æĺİ æ²»
çĶŁ æĬ½
è¿ĩ æķı
èĨ³ é£Ł
æĿ¥ è¡¨è¾¾
çľĭ çĿĢ
æľĢ èĳĹåĲįçļĦ
ç½ Ĳ
çĶ¢ åĵģ
ä»¥ä¸ĭåĩł ç§į
æ¯ıä¸ªäºº éĥ½æľī
äº§ æĿĥ
åħ¨ éº¦
æł¹ æľ¬
ä¸ªäºº éļĲç§ģ
ä¿ĿæĮģ èº«ä½ĵåģ¥åº·
éĺŁ ä¼į
ç¦» åŃĲ
åĴĸåķ¡ åĽł
çºł æŃ£
æĮ º
å°ı çĲĥ
ä»¥ä¸ĭæĺ¯æĪĳ ä¸ºæĤ¨
èĩªå·±çļĦ æ¢¦æĥ³
åı¦ ä¸Ģç§į
Ġ th
å¾Īå¤ļ äºº
æĹħæ¸¸ æĻ¯çĤ¹
è¿Ļä¸ª è¿ĩç¨ĭ
é£İ æļ´
éĶĻè¯¯ çļĦ
å·²ç»ı åľ¨
u m
ĠĠ Ġ
é£İéĻ© ç®¡çĲĨ
æĮĩ å®ļ
åĴĮ ä¿¡æģ¯
æĢİä¹Ī æł·
æ©Ļ èī²
åĴ ¸
ä¿ĿæĮģ åĨ·éĿĻ
åĽĽ å¹´
èĮ¶ åĮĻ
ä»¥ è¾¾åĪ°
é©¾é©¶ åĳĺ
æľĪ çļĦ
æī®æ¼Ķ çĿĢ
éĶ Ĳ
éĢļå¸¸ éľĢè¦ģ
çĥ¤ åĪ¶
éĢ ¼
éĢļ é£İ
é¢ľèī² åĴĮ
æıĲ äº¤
20 18
çļĦäºº çī©
çĽ® æ¨Ļ
åģ¥åº· çĬ¶åĨµ
éĻ· åħ¥
Ñ ı
ä¸į åºĶè¯¥
20 11
æĪ¿ äº§
ä¸Ń åŃ¦
å¤´ éĥ¨
çº¢ éħĴ
è§Ĩè§ī æķĪæŀľ
Ġ w
æĹ¥ åİĨ
äºº ä¸º
æ»¥ çĶ¨
çļĦä¸Ģä¸ª éĩįè¦ģ
Ġ Î
æľī åı¯èĥ½
æĿ¥ å®ĮæĪĲ
è¯Ńè¨Ģ åĴĮ
çĲ Ĳ
åİļ çļĦ
çªĹ æĪ·
åĩıå°ĳ æ±¡æŁĵ
è¡ ¬
çļĦç ¿
æĦŁåıĹ åĪ°äºĨ
åĲ¸å¼ķ äºĨ
äººä»¬ åľ¨
åĲ Ĭ
å¡« åĨĻ
å¿ĥ èĤº
æ¸´ æľĽ
çģŃ ç»Ŀ
å¤ªéĺ³èĥ½ çĶµæ±ł
å°½éĩı éģ¿åħį
æ¡ ĳ
çļĦ æĬĢå·§
æŀľ æ±ģ
æ¯ı ç§į
200 8
èļ ģ
ç§įæĹı æŃ§è§Ĩ
åĬłåħ¥ ä¸ĢäºĽ
ç®Ģåįķ æĺĵ
ï¼ģ âĢĿ
åĻª å£°
éĿĴ å°ĳå¹´
èĩªå·±çļĦ æĥħç»ª
çº§ åĪ«
æ²® ä¸§
èº«ä½ĵ çĬ¶åĨµ
ä¸į å¹³çŃī
å¤± æľĽ
èĩªä¿¡ åĴĮ
åºĶ æĢ¥
éĺ¿ æĭī
æĸ½ å·¥
æīĢ å¾Ĺ
æ±Ĥ è§£
å¥½ åıĭ
èĨ¨ èĥĢ
å±± åĮº
ç§ĳæĬĢ åĪĽæĸ°
åľ¨åĮ»çĸĹ é¢ĨåŁŁ
å¿ħ éľĢ
å»º äºİ
çĶ» ä½ľ
æľĢ ä¸º
éĥ½ è¦ģ
éĺ² å¾¡
è®©äºº æĦŁåĪ°
æĺ¯ ä¸ĸçķĮä¸ĬæľĢ
ç²¾ åº¦
æ´Ĺ åĩĢ
ç»´çĶŁç´ł åĴĮ
åĪĨåĪ« æĺ¯
åĲ¸ çĥŁ
åı¯ä»¥ ä¿ĥè¿Ľ
ç¥ŀ è¯Ŀ
æ²¿ çĿĢ
ç¾½ æ¯Ľ
åĴĮ åİĨåı²
éķ ·
ç² ĺ
è¾ĥ å°ı
åĪĳ äºĭ
åķĨ å®¶
% ï¼Į
è®¤ è¯ģ
æīĵ åį°
æĪĳä»¬ å¯¹
å¤§ æĪĺ
æĻ¯ è±¡
ç¤º ä¾ĭ
åĳ¨ è¾¹
å°ıæĺİ æīĭ
çĮª èĤī
å½Ĵ çº³
èĤĮ èĤ¤
è Ł
å½±åĵį åĪ°
åĩł ä½ķ
æ¦ ľ
éĺ¿ å°Ķ
å¥ Ī
çŃ ¹
Ġ f
æĸĩæľ¬ è¿Ľè¡Į
å®¶åºŃ çļĦ
æĪ¿ åŃĲ
å¸¸ çĶ¨
äº² åŃĲ
çº¿ çļĦ
æĮ ¤
è½® èĥİ
åħ ¹
çĪĨ åıĳ
åįĪ é¤Ĳ
Ġ æĶ¶éĽĨ
çĥŃ æ°´
è© ¦
çĶŁ çļĦ
è¿Ļ åı¯èĥ½ä¼ļå¯¼èĩ´
çļĦ åĽłç´ł
çļĦçģ ¯
åı¯ä»¥ å¢ŀå¼º
æ¯Ľ åıĳ
æĹ¶æľŁ çļĦ
å¸Ĥåľº éľĢæ±Ĥ
èħĮ åĪ¶
Ġ è®¡ç®Ĺ
çļĦ åı¥åŃĲ
åĽłæŃ¤ éľĢè¦ģ
çļĦçĥ ¹
å¼ ·
ä¼¸ å±ķ
o s
ä»¥ äºĨè§£
å¤ĸ æĺŁ
åĢº åĬ¡
Ġ æ¨¡åŀĭ
ä»¥ ä¿Ŀè¯ģ
ç§ĳåŃ¦ çłĶç©¶
çĶŁäº§ åĴĮ
åıĬæĹ¶ åıĳçİ°
ä¸¤ äººçļĦ
ä»»åĬ¡ åĴĮ
åĲĪ å¹¶
é£İéĻ©æī¿åıĹ èĥ½åĬĽ
è®¾è®¡ çļĦ
æ·±åħ¥ äºĨè§£
ä¹ĺ ä»¥
éī´ åĪ«
æĻĭ åįĩ
çĥŃ å¸¦
ä½ľ çī©
å± ¿
åĲĮ ä¹īè¯į
æĦŁ æģ©
Ġ å°ı
åĶ®åĲİ æľįåĬ¡
æī ¶
é«ĺ åĵģè´¨
åĲĪä½ľ ä¼Ļä¼´
çĶ¨ é¤Ĳ
åģļ åĪ°
ä¿ĿæĬ¤ åĴĮ
æĪı åī§
äºĮ å¹´
ç¬ ¼
å¦Ļ çļĦ
æ¾³ å¤§åĪ©
is a
ç¼ĸåĨĻ ä¸Ģä¸ª
æĺ¯ å¾Ī
æĹłäºº æľº
æĥĬ åĸľ
i ke
å®ŀ ä¹ł
æĿĤ å¿Ĺ
å»ºè®® åĴĮ
åĴĮ æµ·
æķĪçİĩåĴĮ åĩĨç¡®æĢ§
äººå·¥æĻºèĥ½ å°Ĩä¼ļ
éĶ ĭ
å¯¹ ä»¥ä¸ĭ
èĻļ åģĩ
çĭĲ çĭ¸
èĥ½ åĲ¦
é¤Ĳåİħ çļĦ
ä¸İ å®¢æĪ·
çļĦéĩįè¦ģ åĽłç´ł
åŁºç¡Ģ è®¾æĸ½
åĬ¨çī© çļĦ
çİĭ æĺŁ
ç¡¬ ä»¶
å¦Ĥä½ķ ä½¿çĶ¨
æľ¨ æĿĲ
è·³ èĪŀ
lo g
æľī åºı
.. .
æľī æĽ´å¤ļçļĦ
o b
Ġ2 00
é²ľ èī³
æĪĳä»¬ åħ¬åı¸
èĩªèº« çļĦ
èĵĿ èī²çļĦ
ä¸įæĸŃ æıĲé«ĺ
æ»¡æĦı åº¦åĴĮ
æľīä¸Ģ å®ļçļĦ
ç®Ģ åĮĸ
ä¸»è¦ģ æĺ¯
è¯ ŀ
é© Ĺ
æĽ´ å¿«éĢŁ
åĲ ģ
ä»¥ä¸ĭæĺ¯ä¸Ģ æ®µ
å¹² é¢Ħ
Û Į
éĥ½ å¾Ī
ç¨ĭåº¦ ä¸Ĭ
o l
ä½ł æľīä»Ģä¹Ī
éĿĴ å¹´
è© ²
ä¹Ĳ è§Ĥ
åĬł éĢŁåº¦
æīĭ æĮĩ
äºļ é©¬
çĽ®æłĩ æĺ¯
æĭ ³
åī Ĭ
çļĦç¤ ¼
é¢Ĩå¯¼ èĢħ
åı¯ä»¥ è¿Ľè¡Į
ç®Ģ ä»ĭ
h e
æĪĲä¸º ä¸ĢåĲį
åĪĽéĢł åĬĽåĴĮ
ä½į æķ°
èĩ³ ä»Ĭ
èĩª æ²»
è« ĭ
iP hone
åģı å·®
åĲĪä½ľ åĴĮ
åĨľ æĿĳ
åĵĪ å¸Į
è¿ĺ åľ¨
åīį æĿ¥
éħį æĸ¹
å¾® ä¿¡
i g
ç¤¾äº¤åªĴä½ĵ å¹³åı°
äºĨè§£ åĪ°
çºł çº·
éĩĮ æľī
è¾ħ å¯¼
å°ı éķĩ
ä¸ŃåĽ½ ä¼łç»Ł
å¥½ å¥½
åĪĹ è½¦
åįı åĲĮ
èģĮä¸ļ çĶŁæ¶¯
ä¾µ çĬ¯
æģĭ çĪ±
åı¯ä»¥å¸®åĬ©æĤ¨ æĽ´å¥½åľ°
åİĭ ç¼©
çļĦçĮ «
çĹħ æĥħ
èĥľ åľ°
æ¾³å¤§åĪ© äºļ
åħ³ çĪ±
æĶ¿åºľ åºĶè¯¥
èµŀ æī¬
ä½ł è§īå¾Ĺ
æ¸Ĳ æ¸Ĳ
æĥħæĦŁ åĪĨç±»
æĦŁ åĬ¨
ä¸»é¢ĺ çļĦ
å±ķçİ° åĩº
è§£ è¯»
1 20
éĥ½ èĥ½å¤Ł
ä¿¡ä»» åĴĮ
éŁ³ é¢ĳ
çĶŁæĪĲ ä¸Ģä»½
è¿ĲåĬ¨ åĴĮ
å¤± èĲ½
ç±»åŀĭ åĴĮ
A lex
çľŁ æĺ¯
åĪĨéħį ç»Ļ
äºļé©¬ éĢĬ
çļĦ è´¨éĩıåĴĮ
æ¸¸ è§Ī
æ¯Ķ åĸ»
ä¿ĥè¿Ľ äºĨ
ä¿ ¯
å¾Ī å®¹æĺĵ
æĮĩ æĮ¥
åĦ ª
ä½ł æľī
è¦ģ ç´ł
ä¸°å¯Į å¤ļå½©
çł į
æĿĳ åºĦ
éª¨ éª
è± «
åĽ¢ ç»ĵ
åľ¨ æķĻèĤ²
è¯¥ æĸĩæľ¬
å®ŀéĻħåºĶçĶ¨ ä¸Ń
åħī çħ§
æĥ³è±¡ åĬĽ
çľĭ æ³ķ
åħ¬åħ±äº¤éĢļ å·¥åħ·
åĽ½å®¶ çļĦ
åĪ ¹
çļĦç ª
æ¨¡æĭŁ äººç±»
åĪ« äººçļĦ
è® Ĭ
ä¸įæĸŃ åŃ¦ä¹łåĴĮ
åĴĮ æĻºèĥ½
æīį èĥ½å¤Ł
éĴ ĵ
åĻ¨ çļĦ
éĹ °
åħ¥ ä¾µ
åĶĲ æľĿ
åħ¬å®ī å±Ģ
è¿ĩç¨ĭ ä¸ŃçļĦ
çļĦ çĽ®çļĦ
åĴĮ èĩªçĦ¶
ç»Ĩ èħ»
è¿Ļç§į æĬĢæľ¯
éª¨éª ¼
ä¸Ń å¼ı
çĪ¸ çĪ¸
æĮ ¡
æħ ®
æĥħåĨµ åĴĮ
åĲ ŀ
æ´ Ĵ
è¡Ģ ç³ĸ
æĦı å¿Ĺ
éľĢè¦ģ å¸®åĬ©
ä½Ĩæĺ¯ æĪĳ
èĤ ¾
æľĢ æĹ©
æĢ» åħ±
å®īåħ¨ æĢ§åĴĮ
è¿ľ ç¦»
å¼ ¥
éĢļå¸¸ çĶ±
Ġ W
å¤±åİ» äºĨ
ä¸ĸçķĮ ä¸Ń
å¤§ æķ°æį®åĪĨæŀĲ
å°Ĩ åĨĽ
è¯ķ è¯ķ
åģļåĩº äºĨ
çļĦ ä½ľåĵģ
å¤ ¸
éĢļå¸¸ çĶ¨äºİ
å¡ ĺ
èĬĤçº¦ èĥ½æºĲ
è°ĵ è¯Ń
è®© åŃ¦çĶŁ
å¹´ åº¦
è§ģ åĪ°
æ¸ Ķ
æŀģ åħ¶
ä»ĺ æ¬¾
åĨħ åľ¨
è®© è®¡ç®Ĺæľº
èīºæľ¯ å½¢å¼ı
åľ¨ è¿ĻäºĽ
è¿Ľè¡Į æ¯Ķè¾ĥ
çĸ ¾
åģļ çļĦ
å¹¶ æıĲåĩº
è¯¾ åłĤ
æ¬¢ ä¹Ĳ
èĩªä¿¡ å¿ĥ
åĬŀ æ³ķ
æįķ æįī
æĹ¥ åŃĲ
èº ²
ä¿ ±ä¹Ĳ
éħĴ ç²¾
ç¢ ±
é¦ĸåħĪ éľĢè¦ģ
çļĦå¥½ å¤Ħ
æĶ¶ èİ·
éł Ĳ
é£İéĻ© åĴĮ
å¥ĩ æķ°
åĴĮ æĬĢå·§
è± ¹
à µ
å± ¥
æ¯Ķ çī¹
æİ¥ åĪ°
ç®ĢçŁŃ çļĦ
åŁºäºİä»¥ä¸Ĭ è¿Ļæ®µæĸĩæľ¬
å°Ĩ ç»§ç»Ń
æĳĦåĥı å¤´
äº§åĵģ è´¨éĩı
å®īåħ¨ éĹ®é¢ĺ
æĶ¹ ä¸º
ä¿±ä¹Ĳ éĥ¨
åĲ¬ åĬĽ
æ¯ ¯
å®ĥ èĥ½å¤Ł
åį§ å®¤
é£İ åĳ³
æ¸ħ æ°´
é²¸ é±¼
åı ĥ
å®¶ ä¹¡
è¥¿ åħ°
èĩ³åħ³ éĩįè¦ģçļĦ
æŃ£ ä¹ī
å¯¹è¯Ŀ ä¸Ń
çĶ º
çĶŁ å¹³
çļĦçľ¼ çĿĽ
éļ¾å¿ĺ çļĦ
éĥ¨ ä»¶
æī Ń
åĩº ç§Ł
ä¹Ł ä¸º
çĤ ĸ
å¹¶ åĩıå°ĳ
åħĥ éĴ±
å¤ªéĺ³ç³» ä¸Ń
è¿Ļ å¹ħ
åĿļæĮģ ä¸įæĩĪ
åĩº åı£
çĳ ļ
å¯¹ æĬĹ
Ġ ä¸ªæĢ§åĮĸ
åı¯ä»¥ åºĶçĶ¨äºİ
S ara
èĮ «
è¥¿ çĵľ
çĶµåŃĲ è®¾å¤ĩ
æ·Ģ ç²ī
çļĦç ĳ
åºŁ çī©
åħ¬åı¸ åľ¨
3 9
Ġ æ°´
åŁİå¸Ĥ è§ĦåĪĴ
æĿİ çĻ½
çĳ Ł
è¶ĬæĿ¥è¶Ĭ å¹¿æ³Ľ
åĨ »
ä¹ĭ ä¸ĭ
æĥĬ åı¹
åı£ ç¢ĳ
æİ¢ç´¢ åĴĮ
éĽĨä¸Ń ç²¾åĬĽ
ä¸į ä¹ħ
èı ł
åħ±åĲĮ çĤ¹
æµĵ åº¦
Ġ F
å®ĮæĪĲ äºĨ
æĬ ¬
åĦ Ĵ
æ° £
ä¸İ åĲĮäºĭ
åıį å¤į
åħī åĲĪ
åį¡è·¯ éĩĮ
ç¥ ¥
åĳ¼ åĲģ
çĸĹ æ³ķ
éĿĴ æ¤Ĵ
ä¹Ł æ²¡æľī
çĭ¬ èĩª
L isa
åĨ² åĩ»
ç Ģ
åĪ° æĿ¥
æģ ¨
ç²¾ èĩ´
çļĦç¼ ĸ
å¦Ĥæŀľ æľī
ç¤¼ ä»ª
äºĭå®ŀ ä¸Ĭ
åĤ ¬
åıĳ æİĺ
æľªæĿ¥ çļĦåıĳå±ķ
åĩĨç¡® çİĩ
å¸®åĬ© åŃ¦çĶŁ
æĳĦ æ°ı
åģļåĩº åĨ³çŃĸ
æ¢ ³
ä¸Ģç¯ĩ æĸĩç«ł
æģ ¼
ç³ĸ åĪĨ
i v
å»º æ¨¡
å¦Ĥæŀľ éľĢè¦ģ
èĥ½å¤Ł å¸®åĬ©æĤ¨
çļĦ åħĥç´ł
è¿ĩ æĭŁåĲĪ
çīĽ ä»Ķ
è¿ĺ æ²¡æľī
ä»¥ä¸ĭæĺ¯ä¸ĢäºĽ åı¯èĥ½çļĦ
å¾Ĵ æŃ¥
çļĦ æĿĲæĸĻ
åľ¨ å¼Ģå§ĭ
æĴ ¤
åıĻ è¿°
æĺ¯ åħ³äºİ
åĹ ¨
è¯Ń åı¥
è§Ĵ èĲ½
æİĮ æİ§
åĻ¨ åĴĮ
20 17
åĸľæ¬¢ åĲĥ
åĩº åİ»
åĤ ³
é²ľ ç¾İ
åįł æį®
æ¼ Ĩ
èµ İ
å°ı åĮº
Ġ é¼ĵåĬ±
æĽ´ å¤§
å½±åĵį åĬĽ
åħ¬ å¯ĵ
å¯»æ±Ĥ ä¸ĵä¸ļ
æĿ ī
å½» åºķ
ä¼° è®¡
èĪ °
é¬ ¼
e d
Ġ1 8
ç³»ç»Ł ä¸Ń
æĵ ļ
çļĦ æķ°åŃĹ
åĪĨ ç¦»
ä»ħ ä»ħ
èĢĮ éĹ»åĲį
è®© åŃ©åŃĲ
ä¿® åīª
åĵ ĳ
ä¸Ģä¸ª äººçļĦ
çļĦç¤¾äº¤ åªĴä½ĵ
éĶ»çĤ¼ èº«ä½ĵ
è¿Ń ä»£
å¯ Ħ
åŃ Ł
èĥ½åĬĽ çļĦ
å¾Ĺ ä»¥
éĢĤåºĶ æĢ§
ï¼ļ ï¼Ī
è¿Ĳ ä½ľ
åĲĳéĩı æľº
è¯Ńè¨Ģ çļĦ
éĢĢ ä¼ĳ
æ³¨ åĨĮ
ä¸Ń çŃī
éľĢè¦ģ æľī
è¯· åĳĬè¯īæĪĳ
éĢĥ èĦ±
éĽķ å¡ĳ
æĪĳä»¬éľĢè¦ģ éĩĩåıĸ
ç»Ł æ²»
åĮº åĪĨ
ç§» æ°ĳ
æ¯ı ç»Ħ
èĮ Ĥ
è£ħ ç½®
æķ£ å°Ħ
èĥĮæĻ¯ åĴĮ
æĪĳä»¬ å·²ç»ı
æıĲä¾Ľ å¸®åĬ©
çīĻ é½¿
è´¾ å®Ŀçİī
Ġ åŁ¹åħ»
ä¸Ģ åħ±æľī
ä¸º æĪĳ
çļĦçĻ ½
å°ĳ éĩı
çļĦ åĩºçİ°
å¤§ éĺŁ
ä¸ĭ éĽ¨
è¯Ń å¢ĥ
åĩ Ń
ç© ´
çļĦç³» ç»Ł
æł ½
åıĭ æĥħ
çĽ¸ å¤Ħ
å¤į ä¹ł
é² ¨
èĤ¥ èĥĸ
è¿Ļ éľĢè¦ģ
åĮĸå¦Ĩ åĵģ
éħ± æ±ģ
å»¶ éķ¿
åĽ½ çİĭ
è¯ĬæĸŃ çĸ¾çĹħ
å·²ç»ı è¢«
çļĦçĸ ¾çĹħ
æī¿ è®¤
æł ı
à¥ į
å·¥åħ· æĿ¥
u l
éĶĻ è¿ĩ
éĩĮ ç¨ĭ
èķ ´
åģļ ä»Ģä¹Ī
å¯¿ åı¸
ä¼Ł å¤§çļĦ
å·² è¢«
å°Ĩ è¿ĻäºĽ
åĴĮ èĦĤèĤª
ä¾Ŀ æ³ķ
åĩıå°ĳ æµªè´¹
ä¹ĭä¸Ģ æĺ¯
æħ¢ è·ĳ
äº§çĶŁ è´ŁéĿ¢å½±åĵį
éľĢè¦ģèĢĥèĻĳ åĪ°
çĬ¯ç½ª å«Įçĸĳäºº
å¯º åºĻ
å®ĥä»¬ æĺ¯
å¹³åĿĩ åĪĨç»Ļ
ç¤¾ä¼ļ ä¸Ń
åº§ ä½į
ä¼´ ä¾£
" :
6 5
è¾¾ åĪ°äºĨ
åĽ° æĥĳ
æ··åĲĪ åľ¨ä¸Ģèµ·
ä»ĸ æĺ¯
çĤ¹ çļĦ
200 9
åľ° è¿Ľè¡Į
æķ ¸
AI åı¯ä»¥éĢļè¿ĩ
çļĩ å¸Ŀ
å¤ ķ
ç¾İ æĻ¯
ä¹Ł å¸¦æĿ¥äºĨ
è¿Ļä¸ª äºº
åħ±åĲĮ çļĦ
å°ı å¼ł
à¸ Ļ
é¢Ħ èŃ¦
ä¼ĺçĤ¹ åĴĮ
çļĦ éķ¿åº¦
æĳ© æĵ¦
u r
åį Ģ
åĢĻ éĢī
çº½çº¦ å¸Ĥ
ç§¯ åĪĨ
çļĦ å¹³è¡¡
çĶµåĬ¨ æ±½è½¦
å¥½ æľĭåıĭ
æľĢè¿ĳ çļĦ
ä¸įåĲĮ ç§įç±»
æŀĦ éĢł
çļĦ çī©åĵģ
æĽ´ éĢĤåĲĪ
æ±ī åł¡
é©¬ æĭī
ä¸įåı¯æĪĸç¼º çļĦä¸Ģéĥ¨åĪĨ
åĴĸåķ¡ è±Ĩ
é«ĺ ä¸Ń
æ¶µçĽĸ äºĨ
è¿Ļ ä¸¤
AI åĬ©æīĭ
æĥ ķ
er s
æĿ¥ äºĨ
å°ı çĮ«
çļĦç Ħ
éĽĨ åĲĪ
æĶ¾æĿ¾ åĴĮ
åħ¬åħĥ åīį
åĬŁ æķĪ
éľĢè¦ģ åħ·å¤ĩ
çİ¯ä¿Ŀ éĹ®é¢ĺ
åŃ¦ä¹ł çļĦ
å¤į åħ´
å¦» åŃĲ
å£ ¶
èķ ¾
æĢĢ çĸĳ
åİĨåı² åĴĮæĸĩåĮĸ
è¶ĬæĿ¥è¶Ĭå¤ļ çļĦäºº
æĪĳ æĹłæ³ķ
ç¯ Ģ
æĿ¡ä»¶ ä¸ĭ
çĴ °
éķ¿æľŁ çļĦ
èĶ¬èıľåĴĮ æ°´æŀľ
ä¸º äººä»¬
åķĨ äºº
ç»ıåİĨ äºĨ
å° Ī
ä¸Ģä¸ª å°ı
çĽ¸åħ³ ä¿¡æģ¯
çļĦæĥħæĦŁ åĴĮ
ç¾¤ ä¼Ĺ
åıĳ å°Ħ
åĢ¡ å¯¼
çļĦ åı¯èĥ½æĢ§
æĪĳä»¬åı¯ä»¥ çĶ¨
å¤ĦçĲĨ åĴĮ
åĶĲ ä»£
æĢģ åº¦åĴĮ
åĬĽéĩı è®Ńç»ĥ
èļ Ĥ
æĹ¶éĹ´ æĿ¥
çļĦ ä¾ĭåŃĲ
æħ ķ
åºķ éĥ¨
è¯´ æ³ķ
æµ ¦
æıĲ éĹ®
çļĦ å»ºçŃĳ
å´ ©
æľī åĪ©äºİ
æľī å¤ļ
æĦŁ åĨĴ
éĿŀå¸¸æĦŁè°¢ æĤ¨çļĦ
æĥ³ åĪ°
æł¡ åĽŃ
p h
åı¯èĥ½ å¯¹
å¥¹ åľ¨
åĴĮ æµĭè¯ķ
æĽ´åĬł é«ĺæķĪ
éĻį éĽ¨
åĴĮ ä»·åĢ¼
æŁ ı
æ¤ İ
æĺ¯ä¸Ģ åº§
å¿«éĢŁ æİĴåºı
å¸ ĺ
æĶ¹åıĺ æĪĳä»¬çļĦ
çŃī çº§
ä¸ĭ ä¸Ģ
å¹¶ å°Ŀè¯ķ
ç¼ ł
å¾® æ³¢
ç´« èī²
åĪĨè§£ æĪĲ
æŁ ³
æŃĮ æīĭ
å¤ı å¨ģ
æĢĿç»´ æĸ¹å¼ı
å®¶ åĴĮ
æľĢ ä½İ
å¼ķ çĶ¨
ç»ĵæĿŁ åĲİ
åįı ä¼ļ
æłĳ åı¶
èº«å¿ĥ åģ¥åº·
Ù ĩ
èıľ è°±
æīĭå·¥èīº åĵģ
åĪ¶å®ļ è®¡åĪĴ
èŃ¦ æĥķ
æĶ¯æĮģ åĲĳéĩıæľº
çĶµåŃĲ äº§åĵģ
ä¼ļ è¢«
çļĦç¼ º
å¤ıå¨ģ å¤·
çļĦ èĩªçĦ¶
åıĹ å®³
çļĦ å¸Ĥåľº
åĮĹäº¬ å¸Ĥ
åĮ»åŃ¦ å½±åĥı
äººæ°ĳ å¸ģ
æĶ¶ èĹı
è®© è¯»èĢħ
ç¤¾äº¤ æ´»åĬ¨
è®²è¿° äºĨä¸Ģä¸ª
è®© å®ĥ
æ£ µ
éħ ¥
éĺ² èĮĥ
å°¼ åħĭ
æŁłæª¬ æ±ģ
å¦ ®
æł¼ åħ°
å¹¶ çĶ¨
ä¼ ŀ
Ġ æĤ¨
èĢħ åĴĮ
æĺ¥ åŃ£
åĲ¬ éŁ³ä¹Ĳ
çĨ Ļ
éĥ½ è¢«
Ġ è¿Ļ
æĪĳ æŃ£åľ¨
ä¸į åıĹ
å®ŀçİ° äºĨ
åı¯ä»¥ åĪĨä¸º
ä¸» æ¼Ķ
çĽ¸ ç»ĵåĲĪ
éħ ·
è£ħé¥° åĵģ
å¥ĩ æĢª
ä¼ĺè´¨ çļĦ
é¢Ĩ åħĪ
5 5
éĥ½æľī åħ¶
åĪĿ æŃ¥
èĬ ½
å½ĵ æĤ¨
å¹³ æĹ¶
äº¤éĢļ è¿Ĳè¾ĵ
è®¾ æľī
ç»ĵ å±Ģ
èª ª
èĩªçĶ± åĴĮ
é»ĳæ´ŀ çļĦ
æĶ¶ åĪ°
å¸ĥ ç½®
à¸ ²
è¡Į èµ°
ä½ľ èĢħçļĦ
å¤§ çĨĬçĮ«
åĴ ³
Ġ ä¼ĺåĮĸ
× ķ
åħĦ å¼Ł
ä¸ Ľ
æ· ĺ
éģĭ åĭķ
åĬł æĭ¿
çģµæ´» æĢ§
æĢ»ä½ĵ æĿ¥è¯´
çī¹åĪ« çļĦ
åı¯ æĺ¯
åĵ ¡
å®ĥ ä¸įä»ħ
æĦ ¤
é¢Ħæµĭ åĴĮ
èļĤ èļģ
ä¹¦ æ³ķ
æ¸© åĴĮ
æ±Ł èĭı
èĻļæĭŁçİ°å®ŀ æĬĢæľ¯
ä» ĩ
ç§ĭ åŃ£
çļĦ é¦ĸ
è£ ¹
æĽ Ŀ
è¯ķ çĿĢ
ç¢ Į
åħ» æĬ¤
è°· æŃĮ
çļĦç¥ŀ ç»ı
ä»ĸä»¬ å¯¹
å·¥ä½ľ ä¸Ń
äºº æľº
æľįåĬ¡ åĴĮ
Ġ å¯¹äºİ
åı¯ è§£éĩĬ
ä»ĭç»į ä¸Ģä¸ĭ
èªŀ è¨Ģ
éĻĲ äºİ
å¥³æĢ§ åľ¨
äººåĬĽ èµĦæºĲ
åħī çļĦ
åĩºæĿ¥ çļĦ
ç¶ ²
æ¸© åº¦åĴĮ
çļĦçĤ ¹
ä¸Ģ å°ģ
æ¤ħ åŃĲ
å¤ļ æĸ¹éĿ¢çļĦ
åĩº ä¸Ģä¸ª
ä¸Ģ æĸ¹éĿ¢
éĤ ª
Ġ ãĢĤ
ä»ĸä»¬ åı¯ä»¥
åİŁ æĸĻ
" ãĢĤ
ä¸Ģ é¢Ĺ
èĥ½æºĲ çļĦ
èĩª éĢĤåºĶ
ä¸»è¦ģ åĮħæĭ¬
ç§ĳæĬĢ åıĳå±ķ
çħ ¤
éļıçĿĢ ç§ĳæĬĢçļĦ
åĪĨéĴŁ çļĦ
å¼Ĥå¸¸ åĢ¼
æīĭ åĬ¨
åĨħå¿ĥ çļĦ
éĢļè¿ĩ è¿ĻäºĽ
ä¿® æŃ£
æĿ¥èĩª äºİ
çļĦ è¯¦ç»Ĩ
è´ ª
çİ° çĬ¶
æııè¿° ä¸Ģç§į
ç»ıæµİ å¢ŀéķ¿
æ¶ī å«Į
è§£ æĶ¾
è±ª åįİ
åĲİ ä»£
è½» æĺĵ
åŃĹ çļĦ
å µ
Ġ ì
å¾Ī éĩįè¦ģ
èŃ ·
çļĦ æ¤įçī©
æĪĳä»¬ ä¹ŁéľĢè¦ģ
å¿ĥ çİĩ
åı¯èĥ½ä¼ļ è¢«
ç¨İ åĬ¡
æµ·æ´ĭ çĶŁçī©
åı¯èĥ½ä¼ļ åĩºçİ°
å¤ı æĹ¥
è¿Ļ ç»Ħ
çĦ¶åĲİ åĨį
çªģ åıĳ
åĲįè¯į çŁŃè¯Ń
åħīåĲĪ ä½ľçĶ¨
ãĢį ï¼Į
ç©ºæ°Ķ è´¨éĩı
çĽ¸ éģĩ
åı¥åŃĲ çļĦ
çļĦ åŃ£èĬĤ
ä»ĸ å¯¹
å®¾ è¯Ń
æº ¢
åįĬ å¾Ħ
ä½Ĩ åĲĮæĹ¶ä¹Ł
ç»Ļ èĩªå·±
å¡ Į
è¶ĭåĬ¿ åĴĮ
æ¸ħ æľĿ
ä» ²
æĽ´å¥½åľ° åºĶå¯¹
åıĳ è¡Į
åĿ Ĭ
Ø ©
åī¯ ä½ľçĶ¨
Ã ·
Ġ æ£ĢæŁ¥
å¤ļ é¡¹
ä¹ł ä¿Ĺ
åĬłåħ¥ éĢĤéĩıçļĦ
çļĦ æĪĲåĬŁ
èµ ´
åħ¶ åľ¨
èĬ ¯
ä¼¦çĲĨ éĹ®é¢ĺ
Ġ ä¸į
å¤ļæł· åĮĸçļĦ
è§ĦåĪĻ åĴĮ
çļĦçĥ¹ é¥ª
æĺ¯ ç¾İåĽ½
æĪĳä»¬ æīįèĥ½
æĺ¯æĮĩ åľ¨
Ġ à¦
19 0
ç»ĵ å©ļ
ç»Ļå®ļ ä¸Ģä¸ª
ä»İèĢĮ å¯¼èĩ´
å®ĮæĪĲ çļĦä»»åĬ¡
ä¸º åŃ¦çĶŁ
éĥ¨ ç½²
èĤ¡ç¥¨ ä»·æł¼
éľĢè¦ģ éĢļè¿ĩ
åħħè¶³ çļĦçĿ¡çľł
æľī å¾Īå¤§çļĦ
çĪ± ä½ł
è¯ ±
èĤ ĥ
ä¸Ģ è¾¹
çŃī æĸ¹æ³ķ
ä¸įæĸŃ çļĦ
æŀ ¯
éģ Ķ
ç»Ħç»ĩ åĴĮ
çļĦ éĥ¨åĪĨ
ç¡¬ å¸ģ
è¿ĺ åı¯ä»¥éĢļè¿ĩ
æĿ ı
ç¼ ´
ç»¿ èī²çļĦ
.. ..
à¥ ĩ
åĨ³ å¿ĥ
è§ģ è§£
æĢ§ éĹ®é¢ĺ
æł¹æį® æīĢ
åĽ¢ ä½ĵ
ç§ ©
é¢Ħ æĬ¥
åºŁå¼ĥ çī©
æĸ½ èĤ¥
çļĦçĦ ¦
çĶµ ç£ģ
ä¸º ä¸»è¦ģ
æĹħæ¸¸ çĽ®çļĦåľ°
çļĦ åľºæĻ¯
ç»ĵ å°¾
an g
è°Ī åĪ¤
ç»´çĶŁç´łåĴĮ çŁ¿çī©è´¨
ä»¥ä¸ĭæĺ¯ä¸ĢäºĽ å¸¸è§ģçļĦ
éĩĩ è´Ń
äºĨè§£ åĨ³
åĥ ¹
å¤ļåħĥ åĮĸ
å¤ªå¹³ æ´ĭ
é¢Ŀ å¤ĸ
åĽłæŃ¤ åľ¨
Ġ5 0
æĢİä¹Ī åĬŀ
èĢĮè¨Ģ ä¹ĭ
æĻºèĥ½ äº¤éĢļ
åŀĥåľ¾ éĤ®ä»¶
ä¸Ģ çĶŁ
æĸ¹å¼ı æĿ¥
å¸¦æĿ¥ ä¸ĢäºĽ
ä¸»é¢ĺ åĴĮ
æĹ¶éĹ´ å¤įæĿĤåº¦
æ·± å¤Ħ
æ²»çĸĹ æĸ¹æ³ķ
åĴĮ æľī
å¹³ åºķ
å®ĩå®Ļ ä¸Ń
Ġ èĢĥèĻĳ
æ³¨æĦı åĪ°
éŁ³ä¹Ĳ ä¼ļ
èĮ¶ åı¶
åı¸ æ³ķ
çļĦç¾İ æĻ¯
æĺ¯ä¸Ģ éģĵ
æķ´ åĲĪ
å¸Ĥåľº è°ĥçłĶ
æ¼« æŃ¥
èı² å°Ķ
ä¸İ æŃ¤
L ily
å°ı åĲĥ
ä½łä»¬ çļĦ
éĽĨä¸Ń åľ¨
æĬķ ç¥¨
åĨħéĥ¨ çļĦ
æĺ¯ä¸Ģ åĢĭ
æī¾åĪ° ä¸Ģä¸ª
ä¾¿åĪ© åĴĮ
è¾ ½
æ´Ĺ æīĭ
Ġ `
æĻº åĬĽ
åľ¨ æĹ¥å¸¸çĶŁæ´»ä¸Ń
ä¸į èµ·
è®¤ åĲĮ
åŃĺ æ¬¾
åı¯ä»¥ éĻįä½İ
è© ¹
å¥¥è¿Ĳ ä¼ļ
åķ ¤
çļĦç« ĭ
å½ĵ äºĭ
æ´» è·ĥ
Ġ2 5
åıĳçĶŁ åıĺåĮĸ
å¤įæĿĤ çļĦéĹ®é¢ĺ
å¾Ī é«ĺ
Ġ å®īåħ¨
çļĦ æľĢä½³
æĻ ĵ
ä½ĵ åŀĭ
æ¯Ķå¦Ĥ è¯´
èº« æĿĲ
ä½ Ĳ
åħ¬ ä¸»
å²Ľ å±¿
ä¼ĳæģ¯ æĹ¶éĹ´
æĦŁè°¢ æĤ¨
çļĦ ä¸ľè¥¿
å¯¹ æľªæĿ¥
äº« åıĹåĪ°
ä¾ į
æ¸Ľ å°ĳ
åĨħå®¹ åĴĮ
åĳ½ ä»¤
à¤ °
å°ı äºİ
å°ıæĺİ åĴĮ
è¿Ľ æĶ»
æŃ¤ æ¬¡
å¸Ĥåľº åĴĮ
å¸Ĥ åł´
ä¸¦ ä¸Ķ
æĹł å°½
ä»¥ ä¿ĿæĬ¤
æ¸ Ĺ
èĩªå·± åĸľæ¬¢çļĦ
å¥¹ ä»¬
åħį åıĹ
æĿ¯ åŃĲ
è¿ĻéĩĮ çļĦ
çļĦçŁŃ æĸĩ
ä½ł åºĶè¯¥
çļĦ å®¶åºŃ
å¹´ éĹ´
à ª
æ¯ı æĹ¥
çĶ» å®¶
æİ¨èįĲ ç³»ç»Ł
æŃ£ åĪĻ
çļĦ æķĪçİĩ
èĭ± å¯¸
åľ¨æŁĲäºĽ æĥħåĨµä¸ĭ
è¿Ļ æĹ¶
ï¼ī <|
èĩªçĦ¶ èµĦæºĲ
å¿Ļ ç¢Į
å§ľ èĴľ
æµ· æĬ¥
éĵ¾ æİ¥
è¯Ńæ³ķ åĴĮ
åĢ¾åĲĳ äºİ
éĿĴ æĺ¥
èµ¢å¾Ĺ äºĨ
ä¸İ æĤ¨
çº¿ è·¯
æĬĵ ä½ı
çĽĲåĴĮ é»ĳèĥ¡æ¤Ĵ
èĻķ çĲĨ
å»ºç«ĭ äºĨ
åıĳ èĤ²
æĪĳä»¬ çĽ¸ä¿¡
å®¡ æł¸
æĶ¯æĮģåĴĮ å¸®åĬ©
å¢¨ è¥¿
ç¬¬ äºĶ
åħħåĪĨ åĪ©çĶ¨
ä¾ ¯
ä¸īè§Ĵ å½¢
åı¯ åĽŀæĶ¶
æ¸© æŁĶ
åľ°çĲĨ ä½įç½®
çļĦ æĸ¹åĲĳ
åıĸå¾Ĺ æĪĲåĬŁ
åĪ¶éĢł åķĨ
ç¤ ģ
èĭı èģĶ
çīĽ æİĴ
çĲĨ æĢ§
è¡Įä¸º çļĦ
Ġ éĢļè¿ĩ
åħ¬ è½¬
åħĥç´ł çļĦ
ä¸» æķĻ
äºĭä»¶ çļĦ
æĿ Ń
æŀĹ é»Ľçİī
g le
à¸ £
æ¯ıä¸ª ä»»åĬ¡
ä½ĵéªĮ åĴĮ
åĪ© æģ¯
æĺ¯ä¸Ģç§į åŁºäºİ
åĽłç´ł çļĦå½±åĵį
çļĦç¨ İ
åľ¨ æľªæĿ¥çļĦ
æĽ´å¤ļ åľ°
å·® è·Ŀ
Mar y
å®¢æĪ· åıįé¦Ī
èĥ¡æ¤Ĵ ç²ī
æľĿ é²ľ
äººèĦ¸ è¯ĨåĪ«
åŃ¦ ä½į
æ°ĳ éĹ´
åĲĥ äºĨ
åĢŁ åĬ©
ä¸į åıĺ
è¡¨ éĿ¢çļĦ
æł¹ æĵļ
æĹł éľĢ
å¹¶ ç¡®å®ļ
åĴĮ ä»·åĢ¼è§Ĥ
å®¹ éĩı
è¡£ çī©
18 0
èµ· åĪ°
éĵ¶ æ²³
åķ¤ éħĴ
åĴĮ äºº
å¸ĮæľĽ èĥ½
çļĦåŁºç¡Ģ ä¸Ĭ
à ¯
çļĦ åĪ¶ä½ľ
ç¿ ł
å·¥ä½ľ äººåĳĺ
å¹¸ç¦ı æĦŁ
æĢ ¨
æĬ ¼
å¢¨è¥¿ åĵ¥
å° İ
åľ° æĿ¿
éļı æĦı
æİ§åĪ¶ åĴĮ
æĦŁåıĹ åĴĮ
å¹¿ å·ŀ
æĺ¯åĲ¦ åŃĺåľ¨
çħ® æ²¸
çī ¢
æ¨ ±
ä¸ĢäºĽ åħ³äºİ
çļĦç¬ Ķ
ç§ĳæĻ® æĸĩç«ł
o d
ä¸ī æĺİæ²»
è§£ æ±º
èµĽ äºĭ
åĬ¨ æ¤įçī©
éĿŀå¸¸ å¥½çļĦ
éļĶ ç¦»
Ø ³
è¿ĳ æľŁ
çİ¯ä¿Ŀ è¡ĮåĬ¨
ä¸¤äººçļĦ å¯¹è¯ĿåĨħå®¹
ä½ł æľĢè¿ĳ
ç¿ħ èĨĢ
è¦ģ çĤ¹
éľĢè¦ģ å°Ĩ
çļĦçİ¯å¢ĥ ä¸Ń
è¿Ļ ä»¶
åį¡ çīĩ
åľ¨ éĤ£éĩĮ
è½ ¿
æŀľ å®ŀ
æĿĥ éĩį
Ø ¨
8 9
åĮ»çĶŁ çļĦ
å¦Ĥæŀľä½ł æĥ³
æĸĩåĮĸåĴĮ åİĨåı²
æĹłäºº é©¾é©¶
Ñ ĭ
åĲİ ç»Ń
åĸ ī
åĩł å¤©
æ²»çĸĹ æķĪæŀľ
ä¸ª æ©ĻåŃĲ
è¢« åĽ°
å± Ī
å¸¦ é¢Ĩ
ä»İèĢĮ ä½¿
èĢģ èĻİ
ä»¥ä¸ĭæĺ¯ä¸Ģæ®µ ä¸¤äººçļĦå¯¹è¯ĿåĨħå®¹
ç§¯æŀģçļĦ å¿ĥæĢģ
èĴĻ åı¤
å¼¹ æĢ§
éĺ² æĬ¤
é¢¨ éļª
ç«ĭ æĸ¹
éĥ½ å¸Ĥ
çļĦ ç®Ĺæ³ķ
æĭ ¯
åĩıå°ĳ å¯¹
i on
ç¼ĸ åĨĻä¸Ģç¯ĩ
ä½ı å®ħ
çļĦ æľĭåıĭ
å½ĵ å¤©
çľĭ å¾ħ
è¿ĺ å°Ĩ
èµ· çĤ¹
Ġ ä¸Ń
æķĻ è®Ń
è´Ł åĢº
åı¯ä»¥ éĩĩåıĸ
è§Ĥ èµı
èĢ³ æľµ
æĻºèĥ½ æīĭè¡¨
æ¸ħ çĪ½
ï¼ļ '
éĺ² æĻĴ
çŁŃ æļĤ
çİ°ä»£ç¤¾ä¼ļ ä¸Ń
åĤ ²
èĨ ı
ä»İ æľª
çº¢çĥ§ èĤī
Ġ E
æĿ¥ éĢīæĭ©
ä½ı æĪ¿
æİ¨åĬ¨ äºĨ
å¸ĮæľĽ èĥ½å¤Ł
å¥¥ æĸ¯
çŀ ¬éĹ´
å§ ĳ
çī©ä½ĵ çļĦ
æįŁ ä¼¤
éĢıæĺİ åº¦
ä¾ĭå¦Ĥ ä½¿çĶ¨
æĬĵ èİ·
éĩĳ éĴ±
æĿ¿ åĿĹ
åįļ å£«
åİĨåı² åĴĮ
è¿Ļ å¯¹
æĿ¥ è¯Ħä¼°
å½ĵ æĪĳ
çļĦ è¦ģæ±Ĥ
ç¥Ŀ ç¦ı
åįķ çĭ¬
ä¸Ģæ®µ æĹ¶éĹ´
ä¸į åľ¨
Ġ1 6
çŁ© éĺµ
æķĳ èµİ
æĲ ¬
ä½ľä¸º ä¸Ģç§į
æĬ± æŃī
ä½ł è¦ģ
èµĦ æľ¬
å°¾ å·´
è¿Ļ åı¯ä»¥å¸®åĬ©ä½ł
çŃī æ´»åĬ¨
Ġ è¿Ľè¡Į
ä»¥ å¢ŀåĬł
éĿ¢ æĸĻ
æ² «
åĲ µ
ä¸į ç¨³å®ļ
åħĥ å¹´
å·´ è¥¿
ä¾Ŀ éĿł
èĲ¥åħ» çī©è´¨
è®©æĪĳä»¬ ä¸Ģèµ·
å¹¶ éģ¿åħį
ä¸į å¦Ĥ
å¿ĥ éĩĮ
æ¿Ģ åĬ¨
åįĥ åħĭ
ç¼ºå¤± åĢ¼
ä¸Ģ æĶ¯
åĮ ¿
åĶ ¤
åıĳ éħµ
AIæĬĢæľ¯ çļĦåıĳå±ķ
ä¼ļ äº§çĶŁ
æ³ ģ
Ġ è®¾å®ļ
æ¯ı æľĪ
ä¸į ç®¡
åĪ Ĭ
å¡ĳæĸĻ åĪ¶åĵģ
æ¹¿ æ¶¦
åĩł åįģå¹´
æļ´ éľ²
æ½ľåľ¨ å®¢æĪ·
åı Ķ
æģ ¤
åĽ¢éĺŁ åįıä½ľ
è© ķ
äº¤ èŃ¦
è¿½ éĢĲ
Ġ N
åĪ ¥
ä¹Ĳ æĦı
éĹ®é¢ĺ æĹ¶
åĮ»çĸĹ æľºæŀĦ
æī§ æ³ķ
æĭ¯ æķĳ
æĪĲ äºĨ
çĿ¡çľł è´¨éĩı
è´ º
å®ŀ åĬĽ
æľīåĬ©äºİ æıĲé«ĺ
çļĦ æĶ¯æĮģ
éĺħè¯» çĲĨè§£
åĬ ²
çķ ı
æ¨¡ ç³Ĭ
çļĦæĳĦåħ¥ éĩı
çļĦ åĩĨç¡®æĢ§
è£ ¡
çĦ Ļ
çĤİ çĥŃ
çļĦ è·Ŀç¦»
ä¸įåĲĮ æĸĩåĮĸ
åĲĦç§įåĲĦ æł·çļĦ
æľºåĻ¨åŃ¦ä¹ł æ¨¡åŀĭ
ä»¥ä¸ĭæĺ¯ä¸ĢäºĽ æĸ¹æ³ķ
çĹħ äººçļĦ
æĪĲ ä¸Ģä¸ª
çļĦ æīĢæľī
æł¹æį® æıĲä¾ĽçļĦ
ä»¥ä¸ĭæĺ¯ä¸ĢäºĽ ä¾ĭåŃĲ
çŃĸ åĪĴ
éĹ¨ åı£
éľĢè¦ģ ç»¼åĲĪèĢĥèĻĳ
æ´» åĬĽåĴĮ
æľī æľĽ
åŃ¦ä¹ł å¦Ĥä½ķ
æĹ¥ åľ¨
æ¼Ķ åĶ±
æ°Ķ çĲĥ
èĲ §
å½¢æĪĲ ä¸Ģä¸ª
æ´Ĺè¡£ æľº
çİ°ä»£ åĮĸ
èĹ Ŀ
è´§ çī©
ç§© åºı
Ġ çłĶç©¶
Î ±
åĴ ¬
çļĦ é«ĺåº¦
å¢Ļ å£ģ
å¤§ ä¼Ĺ
åıĮ æīĭ
oo gle
ä¸º ä»ĸä»¬
çļĦäºº åĳĺ
çļĦ ä¸įæĸŃ
ä½Ĩæĺ¯ åľ¨
çĶ¨æĪ· åı¯ä»¥
çģ¾ éļ¾
æ±ī è¯Ń
æľĢå¤§ åĮĸ
éĻĦè¿ĳ çļĦ
å¹¶ éĿŀ
è¨Ń è¨Ī
åĬ ĥ
æĿĥ éĻĲ
ä¹ĺ æ³ķ
å¤´ çĹĽ
ä¸į çŁ¥
Ġ è¿ĲåĬ¨
è¿Ļæł· æīįèĥ½
å±ĢéĻĲ æĢ§
éĥ¨ åĴĮ
åĽ° æī°
åĪ¹ è½¦
æĹ© æĻ¨
çļ Ĩ
åĩı æİĴ
æĹł æķ°
è¿Ľ åĪ¶
èĲ¥åħ» æĪĲåĪĨ
ä»¥ éĺ²æŃ¢
æĪĳ æĿ¥
å¹¶ ä¸įèĥ½
ä¸įä»ħ æĺ¯
æĿĥåĪ© åĴĮ
çİ°åľ¨ çļĦ
åıĺ å½¢
èĸª èµĦ
åŃ Ŀ
éĩĩåıĸä»¥ä¸ĭ æİªæĸ½
éĩĳèŀį æľįåĬ¡
åľ¨è¿Ļä¸ª è¿ĩç¨ĭä¸Ń
åĬ¨ åĬĽåĴĮ
AI åı¯ä»¥å¸®åĬ©
è¨ ±
æľºä¼ļ åĴĮ
ä¸Ģç¯ĩ åħ³äºİ
åĪĽéĢł æĢ§
ç¦ı å»º
å°ıè¯´ çļĦ
å¥ĸ é¡¹
Ġ æĪĳä»¬
ä¸į æĥ³
éħ ¬
å¥³ æĢ§çļĦ
éĵģ å¡Ķ
ä¸ĩ ç¾İåħĥ
çľŁå®ŀ çļĦ
ä¹Ł æĺ¯ä¸Ģç§į
å¾Ī é«ĺçļĦ
æ° ®
æµ· è¾¹
æĪĳä»¬åı¯ä»¥ ä»İ
ä¸ľ åįĹ
çĶŁ èıľ
åįĹæŀģ æ´²
æīĭ çİ¯
ä»£è¡¨ äºĨ
çļĦ æĮĳæĪĺ
èģļ éĽĨ
æĦıè¯Ĩ åĴĮ
ä»İ æŃ¤
ç©ºæ°Ķ ä¸Ń
å®ĹæķĻ ä¿¡ä»°
èī ĩ
æŃ£ éĿ¢çļĦ
åĴĮ éĹ®é¢ĺ
å®ŀ çĶ¨çļĦ
å¤ľ éĹ´
æĸ ·
æ¾ ¡
] <|
çļĦ æ¯Ķä¾ĭ
æĹ¶ ç©º
ç¯ĩ æĸĩç«ł
æ²ŁéĢļ æ¸łéģĵ
æĸ¹æ³ķ æĺ¯
ä¾¿ å®ľ
åı¯ä»¥æł¹æį® èĩªå·±çļĦ
å®ļæľŁ æ£ĢæŁ¥
éĩį çļĦ
å¡« åħħ
çļĦåºĶçĶ¨ åľºæĻ¯
èº º
ä¸º åŁºç¡Ģ
ä½Ĩ è¿Ļ
åį° åĪ·
åı¯ä»¥ æľīæķĪåľ°
åģ¥åº· çļĦçĶŁæ´»æĸ¹å¼ı
æ¯ ħåĬĽ
ä¸ªäºº åı£åĳ³
è½¿ è½¦
å² Ń
èĴ¸ æ±½
çĶŁäº§ çº¿
çļĦåľ° åĮº
ç»Ī çĤ¹
æĹ¶ è®¸
æĶ¿åºľåĴĮ ä¼ģä¸ļ
èĤĸ çĶ³
ä¸Ń èİ·å¾Ĺ
Â ²
çļĦç¡ ®
ä½ł åı¯ä»¥åľ¨
ä¾ĭå¦Ĥ éĢļè¿ĩ
ä¸İ å®¶äºº
ç§ĭ å¤©
éĺ ģ
æĺŁ éĻħ
éĥ Ń
é£İéĻ© è¯Ħä¼°
å®ļ çĲĨ
ä¸Ń åħ±
å½¢çĬ¶ åĴĮ
å½ °
è¾ĥ å¤§çļĦ
èļ Ģ
æĮģ æľī
çļĦ é¥®é£Ł
æĽ´ åĩĨç¡®çļĦ
è¿ĺ èĥ½å¤Ł
4 2
åı¯ è§ģ
å§Ĩ æĸ¯
æľĢ åıĹæ¬¢è¿İçļĦ
éĩįå¤į æĢ§
éĤ£ æł·
æĿ¥ ä¿ĿæĬ¤
é¢Ĺ ç²Ĵ
å¾Ĺåĩº ç»ĵè®º
ä¸» å¸Ń
åĩ» è´¥
çļĦ éķ¿
çĽ¸ å¯¹äºİ
ä¹Łå°±æĺ¯ è¯´
åı¯ ä¹Ĳ
å®ŀ è¡Į
ä¿¡ èªī
æ·± åıĹ
è¡¨è¾¾ å¼ı
å®Ŀ çŁ³
æī« æıı
å®ļ ä»·
æĥħç»ª åĴĮ
åľ¨åĮ»çĸĹ ä¿Ŀåģ¥
Ġ ç¤¾ä¼ļ
æııè¿° ä¸Ģä¸ĭ
èį¯çī© æ²»çĸĹ
ä¼ģä¸ļ åĴĮ
ç¤¼ è²Į
ĠÐ ¿
M ike
ä¸ĭ äºĨ
å¿ĥçĲĨ åĮ»çĶŁ
çļĦ æĻ®åıĬ
åĬł æ·±
åĩº éĹ¨
åĨĻ ä¸Ģä¸ª
æķ° éĩıçļĦ
åıĳå±ķ åĴĮ
åĿ ª
ä½ķ æĹ¶
éŁ ¦
æ°´æŀľ åĴĮèĶ¬èıľ
å®ĥä»¬ åı¯ä»¥
ä¸ŃçļĦ éĩįè¦ģ
è¡¨ç¤º ä¸º
æĮģ ä¹ħ
æ°´ æºĲ
ä¸İ åħ¶
è¯Ħ å®ļ
åİŁ æĿĲæĸĻ
åĴĮ äº¤æµģ
×Ļ ×
çĺ ¤
ä¹ĭ ä½ľ
æĸ° èĥ½æºĲ
æĹ¶éĹ´ æ®µ
çľĭ è§ģ
çĶŁæĪĲ çļĦ
æķ£ æĸĩ
æ¡¥ æ¢ģ
i a
âĢĿ ãĢĤ<|
åİ» å¹´
ä½ĵ åĨħ
å®ī æħ°
200 7
æĳĦåħ¥ éĩı
æĪĳä»¬ èĥ½å¤Ł
éĻ ķ
åĪĨéħį ä»»åĬ¡
éŁ³ æķĪ
å®ŀçİ° çĽ®æłĩ
å¤§éĩı æķ°æį®
æĪĳ ä¸ĢçĽ´
åĸľ åī§
è¿Ľè¡Į è®Ńç»ĥ
çļĦ åĪĨç±»
è´£ä»» åĴĮ
åĴĮ è§Ĩé¢ĳ
æĻºæħ§ åĴĮ
æ¸©å®¤æ°Ķä½ĵ çļĦæİĴæĶ¾
æĻºèĥ½å®¶å±ħ ç³»ç»Ł
æķĮ äºº
äººå·¥æĻºèĥ½ é¢ĨåŁŁ
åĵĳ éĵĥ
çıĬ çĳļ
å¸ Ĳ
çº¹ çĲĨ
åı£ èħĶ
æĪĺ å½¹
çıŃ çº§
ä¸ Ī
åºĶçĶ¨ åĪ°
åĲĦç§į ä¸įåĲĮçļĦ
å¸ ĸ
ä¸ī åįģ
æľª ç»ı
åĩºçĶŁ äºİ
çĻ½ å¤©
éľĢè¦ģ äºĨè§£
æ´» åĭķ
è°Ī è®º
ä»¥åıĬ å¯¹
å®ĮæĪĲ åĲİ
å¦ĤæŀľæĤ¨ æľī
åı¯ä»¥è®© æĪĳä»¬
èģĶ éĤ¦
çļĦ è¡ĮåĬ¨
åľ° å½¢
å¼Ģ åĲ¯
Ġ o
è¿Ļ åı¯èĥ½ä¼ļ
Ġ çĽĲ
æĬķ æĶ¾
ä¸Ĭ æĸĩ
åĴĮ æĸ¹æ³ķ
éģŃ éģĩ
åĬ «
é«ĺéĢŁ åħ¬è·¯
çļĦ æııè¿°
åİ ī
èĩª åĪ¶
åħ± äº§
è¡¨çİ°åĩº èī²
ç§ĳæĬĢ åħ¬åı¸
èĨ Ŀ
åĬĽéĩı åĴĮ
æ¤ °
200 6
ä¸İ æľĭåıĭ
è®© æĪĳä»¬çļĦ
åı¯èĥ½ä¼ļ åıĹåĪ°
å¿ħ ä¸įåı¯
éĢļå¸¸ åĮħæĭ¬
ç¬Ķè®° æľ¬
æ£ķ èī²
åĴĮ æĬķèµĦ
è¿Ļ åı¯èĥ½
ä»Ĭå¤© çļĦ
è¹ ²
ä¹Ł èĥ½å¤Ł
è¶Ĭ åįĹ
ä¸½ èİİ
ä¸Ģèµ· åİ»
ç´ł åħ»
é¦ĸåħĪ è¦ģ
æĿĥ åĬĽ
è¿İ æİ¥
ä¸Ĭ æ¶¨
çļĦäºº çĶŁ
çļĦ èº«ä½ĵ
çĶµå½± ä¸Ń
ä¹Ķ æ²»
é«ĺ ç«¯
æ¯ĶèµĽ çļĦ
æĸ¹ä¾¿ åľ°
åĲī ä»ĸ
æĴ° åĨĻä¸Ģç¯ĩ
çļĦ åħ¬åı¸
èµĦ æł¼
ç¼ĵè§£ åİĭåĬĽ
äºĨ èĩªå·±çļĦ
æĬĺ å°Ħ
éĺ» æŃ¢
8 5
ä¸Ĭ æĺł
çŁ ¶
æĬĬ æı¡
åı Ľ
æº ĥ
ä¼ģ é¹ħ
åĨ³ èµĽ
çļĦç¨ĭ åºı
èĩª åĭķ
åĪĨ è£Ĥ
å°ı èĬ³
æĪĲæľ¬ åĴĮ
ä»¥ä¸ĭåĩłä¸ª æŃ¥éª¤
å¿«ä¹Ĳ åĴĮ
çļĦäºº ç¾¤
å®ĩ èĪª
å¦¥ åįı
åħĥ çļĦ
æĺ¯åĲ¦ èĥ½å¤Ł
çµ Ĳ
ç²¾ ç»Ĩ
çī¹å¾ģ åĴĮ
åĲĮ æĻĤ
åĵģçīĮ çŁ¥åĲį
çķĻ åĩº
æŀģ å¤§åľ°
å¤ļæł· æĢ§åĴĮ
è¿ĩ æĿ¥
æ´¾ å¯¹
æ¬ ł
ä¸ľ åĮĹ
ç¾İå¥½çļĦ æľªæĿ¥
æŃ ·
å¦Ĥæŀľ ä¸Ģä¸ª
è®Ńç»ĥ æķ°æį®
éģĹ åĿĢ
è¡¬ è¡«
è¡ į
å®¡ è®¡
ä»İ åīį
ä¸įæĸŃ åıĺåĮĸ
æ³° åĿ¦
åŀĭ åı·
è´Ŀ å°Ķ
æºĲ äºİ
åĨ¬ å¤©
çļĦ è§Ĵåº¦
å® ª
è¿Ļä¸ª éĹ®é¢ĺçļĦ
å®¢æĪ·çļĦ éľĢæ±ĤåĴĮ
ä½Ļ æķ°
åľ° è´¨
æĪĺ æľ¯
åĲĦä¸ª æĸ¹éĿ¢
æ³ Į
æĭ¥ æĬ±
å¥ĭ æĸĹ
å·´ åİĺ
èĻļ æŀĦ
çļĦå®īåħ¨ æĢ§åĴĮ
åľ¨ ç¾İåĽ½
æĥ «
6 6
æĿ¥ å¢ŀåĬł
åħ¬ æĸ¤
ä¸¤ ä¾§
æĺ Ń
çļĦ å°ıè¯´
å¹¶ åĲĳ
åĽ½å®¶ åĴĮ
Em ily
çŃī äºº
çĽ¸ä¿¡ èĩªå·±
ä¸¢ å¤±
æĪĸ ä½¿çĶ¨
åŁºåĽł ç»Ħ
r a
æĺ¯ä¸Ģä¸ª åħħæ»¡
éĢļå¸¸ ä½¿çĶ¨
ä¸Ģ åĳ¨
æİĴ éĻ¤
æķħ å®«
åĴĮ å®¶äºº
æĪ Ī
çĻ» å±±
ÑĢ Ð°
éĿ ĸ
è¿Ļä¸ª è¯į
èĪ Į
ä¿ĿæĮģ åģ¥åº·çļĦ
å¸¸ è§Ħ
é£İ åĲ¹
åĴĮ æ²ŁéĢļ
éŁ³ä¹Ĳ å®¶
æł Ī
è¡¨ è¿°
æ¿Ģ æĥħ
æĶ¿æ²» äººçī©
Ġ ä¸įè¦ģ
åŁ ĭ
ä¸º æŃ¢
åı¶ æĸ¯
ç¢° æĴŀ
ä¼ĺ ç¾İçļĦ
åı¯ä»¥è®© æĤ¨
åĪĨåĪ« ä¸º
åĶ ĩ
á ĥ
åľ¨ åŁİå¸Ĥ
å¯¹ æĪĳä»¬
æĤ¨åı¯ä»¥ å°Ŀè¯ķ
å§Ķ ä¼ļ
è§Ĥä¼Ĺ çļĦ
éº» è¾£
åĬłæĭ¿ å¤§
å· ¢
å¤© æĸĩ
åĽŀ é¡¾
Em ma
åľ°çĲĥ è¡¨éĿ¢
é©¬ åħĭ
è¿Ļ å¯¹äºİ
å¤ĸ å¥Ĺ
ãĢį ãĢĤ
å®ĥ æĺ¯ä¸Ģç§į
ä¸º ä»¥ä¸ĭ
çºª å½ķ
èĬ ¹
å·² æľī
é¥² åħ»
ä¸įæĸŃ æĶ¹è¿Ľ
çļĦ çĶŁçī©
åĵģçīĮ åĴĮ
åįķ ä¸Ģ
æ½® æµģ
ç½ ķ
æĹ¥ èĩ³
éĩį å»º
è¯ŃéŁ³è¯ĨåĪ« æĬĢæľ¯
8 8
è§Ĩ è§Ĵ
è³ ½
åĴĮ å®ŀè·µ
åĲ ¨
ç¼© çŁŃ
çļĦ ç»ĵæŀĦ
å¤± çľł
æĤ£ æľī
åĽ½ çļĦ
èĩªçĦ¶ ä¿ĿæĬ¤
æħ Į
ç¼ĸ çłģ
åħ¬åĽŃ éĩĮ
åĨľä¸ļ çĶŁäº§
éŁ³ä¹Ĳ åĪĽä½ľ
×ķ ×
æķ°æį® éļĲç§ģ
Ġ1 1
ä¼ļ ä½¿
çļĦç ¹
å¤´ èĦĳ
ä¸» è§Ĥ
è´¨ æķ°
åĽłä¸º ä»ĸä»¬
æŃ£ç¡® åľ°
5 000
ä¸į å®ī
éĵ¾ è¡¨
çĽ¸å¯¹ è¾ĥ
ç§¯æŀģçļĦ æĢģåº¦
çĽ¸ æľº
èĽ Ľ
ä¸Ń åľĭ
ä¸į å½ĵ
è¿Ļä¸ª åŁİå¸Ĥ
æī¹ åĩĨ
ç¿»çĤĴ åĿĩåĮĢ
æĿ¥ æĶ¯æĮģ
ä¸ĭ è½½
èį£ èªī
å¹³æĸ¹ åħ¬éĩĮ
èİī èİī
åľ¨ è¯¥
åĶ± æŃĮ
A my
çĶ¨ çĶµ
è¯· æķĻ
çļĦ æıĲé«ĺ
åĴĮ è§£åĨ³
å¨ ĥ
èĪĴ æľį
è½¦ çļĦ
æ³ ¼
æ°´ ä¸Ĭ
æĳĦæ°ı åº¦
éĥ½ ä¸į
Ġ èĩªçĦ¶è¯Ńè¨Ģå¤ĦçĲĨ
å¿« æį·
åıĺæĪĲ äºĨ
å² ³
çŃī åĬŁèĥ½
ç¼º éĻ·
ä¸» å¼ł
ĳ å¸ĥ
å°ı çģ«
åħ¬ å¸ĥ
éĥ¨ éķ¿
æļ´ éĽ¨
åĨ° åĿĹ
è°¢è°¢ ä½ł
èĳĹ ä½ľ
çļĦ è§£åĨ³æĸ¹æ¡Ī
è§Ĵèī² ä»ĭç»į
è¶³å¤Ł çļĦæĹ¶éĹ´
åĪ¶æĪĲ çļĦ
å¤§ æ¥¼
ç¼ Ģ
äººç±» ç¤¾ä¼ļ
å¹¿ æĴŃ
ä¼ĺåĬ¿ åĴĮ
è´Ŀ åı¶æĸ¯
çļĦ çİ°è±¡
åħ¬æŃ£ åĴĮ
å½© èĻ¹
æĤ Ķ
èĪª å¤©
åĪ¶ä½ľ åĩº
æ¶Ĥ æĬ¹
Ġ å½ĵçĦ¶
å¤§ åŃ¦çĶŁ
åħ± è¯Ĩ
æ·±åº¦åŃ¦ä¹ł ç®Ĺæ³ķ
åĩĿ èģļ
æł ª
æľĢ é«ĺçļĦ
éĢīæĭ© æľĢéĢĤåĲĪ
åŃ£ åº¦
æĸĩèīº å¤įåħ´
æ² Ī
æ¹ Ľ
æĸ Ĳ
è¯ģ åĪ¸
éĽĩ ä¸»
å¿ĥ çļĦ
çļĦçŁ ³
åıĳæĮ¥ éĩįè¦ģä½ľçĶ¨
éļıçĿĢæĬĢæľ¯çļĦ ä¸įæĸŃåıĳå±ķ
è·¯ ç¨ĭ
æ®ĸ æ°ĳ
äº§çĶŁ æ·±è¿ľçļĦå½±åĵį
èĩªåĬ¨åĮĸ åĴĮ
ç¹ģ å¿Ļ
æľįåĬ¡ åĻ¨
è¶£ åĳ³
Ġ çĥŃ
é¤Ĳ æ¡Į
ç¨ ł
åĪĿ æľŁ
ç»§ æī¿
è¾¹ çķĮ
å¯¹ æĪĳ
åĲį çļĦ
æĻ ķ
ä¸ĭéĿ¢æĺ¯ ä¸ĢäºĽ
Ġ åıĤåĬł
è·Ł éļı
åľ¨ å®ŀéĻħåºĶçĶ¨ä¸Ń
ä¼ļ å¢ŀåĬł
å¸ĮæľĽ ä»¥ä¸Ĭ
æĽĿ åħī
çŃ ĭ
åħ¶ ä¸»è¦ģ
æĺ¯ ä»İ
åħ¨ è°·
çĽ®æłĩ å®¢æĪ·
æ±¡æŁĵ çī©
æĬĺ åıł
è¦ģ æľī
å®ĥä»¬ ä¹ĭéĹ´çļĦ
åº· å¤į
å±± è¥¿
éĩıåŃĲ è®¡ç®Ĺæľº
æĽ´åĬł ä¾¿æį·
çİ¯å¢ĥ ä¸ĭ
ç¼ĸåĨĻ ä¸Ģä»½
çļĦ åķĨåĵģ
åı¯ä»¥ ä¸İ
å¯¹åħ¶ è¿Ľè¡Į
Ġ ç¡®ä¿Ŀ
åľ¨ å½ĵä»Ĭ
åĴĮ æŃ§è§Ĩ
æľį åĭĻ
è°¢è°¢ æĤ¨çļĦ
ä¾ ł
æĪĳä»¬ è¿ĺåı¯ä»¥
è¿Ļå®¶ é¤Ĳåİħ
ä¸į åģľ
åĴĮ æĮĩå¯¼
åħ³ æĢĢ
åħī æ»ĳ
çļĦç ĩ
çĽĬ å¤Ħ
è·¨ è¶Ĭ
åħ¨éº¦ éĿ¢åĮħ
ä¹ ¾
åħĪ åĲİ
æļ ĳ
æĺ¯ æľī
é¢ ģ
éĺŁ åĳĺ
åīį çļĦ
æķĻ ç¨ĭ
å¤§éĩıçļĦ æķ°æį®
å·´åİĺ å²Ľ
æ¾ Ī
æľĭåıĭ ä»¬
åıįé¦Ī åĴĮå»ºè®®
èĪª çıŃ
è¡¨è¾¾ èĥ½åĬĽ
äºĨä¸Ģ åľº
è¯Ī éªĹ
ä½Ĩæĺ¯ å®ĥ
ä»¥ ä¸º
æĪĳ å°±
æĹ¥ èĲ½
ä¸ī æĸĩ
çĽ´ èĩ³
ä½ł è¯´
æĺİ æĺŁ
åı¯ä»¥ æĮīçħ§
èĩªçĦ¶ æĻ¯è§Ĥ
çĥ¤ç®± ä¸Ń
Ġ k
éĸĭ å§ĭ
æķ°æį® ä¸ŃçļĦ
æĹ º
æĬķèµĦ äºİ
æŃ£åľ¨ å¯»æī¾
æ°´å¹³ åĴĮ
åıĹ çĽĬ
æµĵéĥģ çļĦ
Ġ g
ä¸ľ æĸ¹
ç§¯æŀģ åľ°
éĹ° å¹´
åıĸ æ¶Ī
ç¬¬ä¸ī æĸ¹
200 5
éĻĮçĶŁ äºº
ä½¿ åĳ½
æµģ æµª
æĮĳ éĢī
å» Ĭ
è¯Ńæ³ķ éĶĻè¯¯
æľī ä¸¤ä¸ª
çĽ´ çº¿
å°ıè¯´ ä¸Ń
çļĦ ç»ıåİĨ
çļĦ å®ļä¹ī
çļĦ å¢ŀåĬł
åı¯ä»¥ åĲĳ
éľĢè¦ģ ä¸įæĸŃåľ°
u t
åİŁ æľ¬
åĮ Ĩ
è§£ é¢ĺ
æŀģ ä¸º
çĽĴ åŃĲ
çļĦç¹ ģ
æķ ŀ
å¤§ åİ¦
è¿ĺ åı¯ä»¥å¸®åĬ©
Ð ¹
çľŁ è¯ļ
å¿ĥçĲĨ æ²»çĸĹ
èĸ Ľ
è·Ł è¿Ľ
æ¯ı å°ıæĹ¶
ä¿ĿæĮģ èģĶç³»
è¯¸ å¤ļ
æ±Ł è¥¿
an a
æ±Ĥ èģĮ
æĢ» èĢĮè¨Ģä¹ĭ
éĺ¿ çĶĺ
æĸĩæľ¬ä¸Ń æıĲåıĸ
Ġ éĩĩçĶ¨
æķ°æį® æĮĸæİĺ
åİ¨ å¸Ī
åŃ¦ä¹łæĸ° æĬĢèĥ½
éħį éĢģ
æĦ¤ æĢĴ
çľŁçļĦ å¾Ī
è§Ħ å®ļçļĦ
æ¤ Ń
åĵ Ģ
åĸĿ æ°´
æĸ ¥
ä¸Ń ç«ĭ
ä¸º äºĨè§£åĨ³
åĨ Ī
å¸® å¿Ļ
å¤ĸ è¯Ń
æĮ ļ
åºĶè¯¥ åľ¨
ä¿ĿæĬ¤ åľ°çĲĥ
ä¸»è¦ģ çļĦ
æĳ© æīĺ
çļĦ æľªæĿ¥
è¡Į äºº
æ´Ľ æĿī
è¼ ķ
åĸľ æĤ¦
æ³°åĿ¦ å°¼åħĭ
äº² çĪ±çļĦ
çļĦ äººä»¬
æ°Ķ åĳ³
èĬ± æ¤Ĵ
éĽ¨ æŀĹ
çĻ½ èī²çļĦ
èµ ļ
æĸ¯ æĭī
å¤ļ åĲĥ
æº ĸ
æĺ¯åĲ¦ ç¬¦åĲĪ
å®ŀè·µ ä¸Ń
åįĹ æĸ¹
çļĦ æ¸¸æĪı
è¿Ļä¸Ģ çĤ¹
æ¼Ķ ç¤º
in d
å¤ªéĺ³èĥ½çĶµæ±ł æĿ¿
ä¸į åħ¬å¹³
é£İ éĽ¨
æ³¨æĦı åĬĽåĴĮ
æ¢ µ
æĺ¯ å¯¹
çĤ ®
äºĨè§£ æĤ¨çļĦ
æķ¬ ç¤¼
ãĢĤ ãĢĤ
ä½ł æĥ³
å°Ĩ è¢«
çŁ¥è¯Ĩ äº§æĿĥ
èµ¶ åĪ°
Ġ K
ä¸Ĭ å¸Ĥ
é¦ ħ
è¿ĻäºĽ æ´»åĬ¨
çļĦ æ¸©åº¦
åĴĮ æİ¢ç´¢
æĽ´ é«ĺæķĪ
å®¶ åĬ¡
æĪĺ èĥľ
å¹¿æ³Ľ åºĶçĶ¨äºİ
Ï Ħ
åĴĮ é«ĺæķĪ
å³ »
å¼ķäºº åħ¥
çļĦ ä¼łç»Ł
æĺ¯ ä»¥
éħį é¥°
å¦Ĥä½ķ å¤ĦçĲĨ
å¤§ å¹ħ
è¯ģ å®ŀ
åģĩ æľŁ
éĺ² çģ«
æ³°åĿ¦å°¼åħĭ åı·
åīį éĢĶ
éŁ³ä¹Ĳ ä½ľåĵģ
çļĦ éĿ¢ç§¯
åľ¨ è´Ńä¹°
åĲĥ é¥Ń
è´¨ åľ°
æĺ¯ä¸Ģ ä»¶
èĢĲ çĶ¨
æĽ´å®¹æĺĵ åľ°
4 4
æĥħæĦŁ çļĦ
å®¡ çĲĨ
éľĢè¦ģ ä»İ
æĢĿ å¿µ
ä»¥ç¡®ä¿Ŀ åħ¶
åı¯ä»¥ çľĭ
è¿Ľè¡Į éĢīæĭ©
åĴĸåķ¡ é¦Ĩ
çļĦä¸»é¢ĺ åĴĮ
T æģ¤
æīĢ åŃ¦
è±Ĩ çĵ£
çļĦ æĥħç»ª
ä¸īæĸĩ é±¼
æĶ¹ ç¼ĸ
o w
æŀģ åľ°
å£« åħµ
æĻºèĥ½å®¶å±ħ è®¾å¤ĩ
èµŀ ç¾İ
çī© ä¸ļ
åı¯ä»¥ åĮħæĭ¬
åľ° åŁŁ
éī´ å®ļ
éĴ Ļ
å¾Ĺ çŁ¥
éĥ½ åħ·æľī
èĩ³ äºİ
éľĢè¦ģ è¿Ľä¸ĢæŃ¥
æħ ¨
ç»ıéªĮ ä¸°å¯ĮçļĦ
ä¸» æĦı
çĸ² æĥ«
å¾® çĶŁçī©
æµ·æ´ĭ çĶŁæĢģç³»ç»Ł
åħ¨ åĬĽ
å¤į åĲĪ
å¾ĹåĪ° çļĦ
éļıçĿĢäººå·¥æĻºèĥ½æĬĢæľ¯çļĦ ä¸įæĸŃåıĳå±ķ
A n
åĴĮ æĪĳ
è¿ĩ éĩı
åŁº åľ°
åĪĩ åī²
éĨ «
è®® é¢ĺ
è¯» èĢħçļĦ
Sara h
ç¬¬äºĮ æ¬¡
åĪĨ æŃ§
åŁº çĿ£
é©¬ å°Ķ
æĿİ æŁĲ
çļĦ å¿ĥ
æī Ķ
æŃ ĩ
å¼ı çļĦ
æĹ¥ è®°
åı¯ä»¥ èİ·å¾Ĺ
æĶ¾ç½® åľ¨
å¥Ķ è·ĳ
ä¸įæĸŃ ä¼ĺåĮĸ
åıĬæĹ¶ è°ĥæķ´
å¯¦ çı¾
5 6
æ¸ħ æ¾Ī
æ°ĳ åĽ½
éĴĪå¯¹ æĢ§çļĦ
æ´ĽæĿī çŁ¶
åĩº åĶ®
åģļ äºĨ
æ³ķ å®ĺ
ä½ĵ æ£Ģ
äººç±» åĴĮ
éĢļå¸¸ åħ·æľī
åħ» çĶŁ
æ¼« çĶ»
èĲ¥éĢł åĩº
æı´ åĬ©
çĤ Ń
åĸ ±
åĲĮ æł·çļĦ
ä¹Ł è¢«
åĪ¶ä½ľ çļĦ
è¿Ľå±ķ æĥħåĨµ
è¨± å¤ļ
çļĦçĥŃ éĩı
åĪĨç±» åĻ¨
å®ļæľŁ è¿Ľè¡Į
è¡£ è£Ļ
ä»» åĭĻ
ä¹Ł è¶ĬæĿ¥è¶Ĭ
æŁ ´
è§Ĵèī² åĴĮ
è®© ä½łçļĦ
ç³ĸ åĴĮ
åĽº éĨĩ
çŁ³ æ²¹
åĽ°éļ¾ åĴĮæĮĳæĪĺ
éĺ¿ éĩĮ
Ġ1 3
è§Ĵèī² çļĦ
æĺ ı
å¤ĸ åĽ½
ä¸ĸçķĮåĲĦ åľ°
å¤įæĿĤ æĢ§
æĿ¥ è¡¨ç¤º
èĩªçĦ¶ é£İåħī
éĶ ¡
æĹħ å®¢
çģ« éĶħ
Î ¿
å¤ļä¸ª æĸ¹éĿ¢
èĥĮ åĲİ
åħįçĸ« ç³»ç»Ł
Ġ æĮģç»Ń
çļĦ é£İæł¼
ç¤¾äº¤ ç½ĳç»ľ
æ·±åĪ» åľ°
äºĨ ä¸Ģç§į
åĴĸ åĸ±
äº¿ ç¾İåħĥ
Ġth e
ä¸į è§ģ
çŃī åľ°
çĦ °
è¨ ĵ
éĢĻ æ¨£
ä¾Ŀèµĸ äºİ
å°Ĩä¼ļ æĽ´åĬł
æŀ ¢
å¼ Ħ
æİĴ éª¨
çĽĳ çĭ±
å¦ĩ å¥³
èĬĴ æŀľ
Ġ è¡¨ç¤º
ä»ĸ å¼Ģå§ĭ
èĬ ¦
Ġ åı¯ä»¥
æ³ķ åºŃ
ä¹¡ æĿĳ
çļĦç´ ł
en t
èº«ä»½ éªĮè¯ģ
ç»Ĩ èĩ´
æĽ´å¤ļ äºº
âĢ ĵ
è¿Ľè¡Į çļĦ
åĽ¢éĺŁ ä¸Ń
èµ° è¿Ľ
éģ Ĭ
å¾®æ³¢ çĤī
å¯¹ ç§°
åĭ ¾
ç»ĨèĬĤ åĴĮ
åĴĮ äº¤éĢļ
åĤ Ļ
r y
Ï Ģ
å·¥ä½ľ æķĪçİĩåĴĮ
çľ ī
åĬł æ²¹
çļĦåİĨåı² åĴĮæĸĩåĮĸ
å¼ķäººåħ¥ èĥľ
å°¼ æĸ¯
åı¯ åı¯
å¯¹ æķ°æį®è¿Ľè¡Į
é«ĺ èĦĤèĤª
æĶ¾æĿ¾ æĬĢå·§
éł ĺ
æĶ¿åºľ åı¯ä»¥
åĽ¢éĺŁæĪĲåĳĺ çļĦ
æŀģ æĢ§
æ·±åħ¥ çļĦ
åľ¨ æ°´ä¸Ń
éĩĳ åŃĹ
èĢģ å¹´
çļĦ åı£æĦŁ
åĴĮ éŁ³ä¹Ĳ
ä¹ĭ è·¯
ä¸º ä¸Ģ
æĿ¥ åĪĨæŀĲ
åĲĮ å¹´
èĲ½ åľ¨
å¹¶ èİ·å¾Ĺ
å· «
åı£ åı·
å®ĺ åĳĺ
ç» ¸
è¿Ľè¡Į åĪĨæŀĲåĴĮ
ä»İ æķ°æį®ä¸Ń
é¥ º
4 9
æĭ ¨
ç² ¥
åĮħæĭ¬ äºĨ
4 6
çļĦäºº åı£
ç´§æĢ¥ æĥħåĨµ
Ġ è¯Ħä¼°
æĥħ æĻ¯
å±¥ è¡Į
éĴ ł
à¸ Ń
æī© å¼ł
åĴĮ çĦ¦èĻĳ
æķħäºĭ ä¸Ń
i f
åľ¨ ç¤¾äº¤åªĴä½ĵä¸Ĭ
åħ¨ èº«
åĪĨæŀĲ ç»ĵæŀľ
æĽ´å¥½åľ° æİĮæı¡
ä¸Ģä½į å¹´è½»çļĦ
è¡Ĺ å¤´
çļĦ èĬ±
å¦ĤæŀľæĤ¨ æĥ³
èĤ¡ å¸Ĥ
æ¯« ç±³
å®ī å¾½
æ¶Ī æ¯Ĵ
æ¬£èµı åĪ°
å¥ ł
çľĭ äºĨ
é¢Ħæµĭ ç»ĵæŀľ
äººçĶŁ çļĦ
E D
ä»ĸ è¿ĺ
ä¸İ æĤ¨çļĦ
æķ°åŃĹ çļĦ
æĬ Ľ
åįĩ èµ·
æĹ¶ä»£ çļĦ
æĿ¥ æİ§åĪ¶
ç²¾åĩĨ çļĦ
ç³ Ł
èĩªçĦ¶è¯Ńè¨Ģå¤ĦçĲĨ åĴĮ
æ¶Ĥ ä¸Ĭ
éĻķ è¥¿
çĶµ è·¯
è°ĥ è§£
çŁ¥è¯Ĩ åĴĮæĬĢèĥ½
200 4
é¾Ļ å¤´
ä¸º åħ¬åı¸
åı· çº¿
è¿Ľè¡Į æİĴåºı
å¦Ĥæŀľ æ²¡æľī
èĥ½éĩı åĴĮ
èĹĿ è¡ĵ
ä¸į ä½³
ä¸ĢäºĽ éĹ®é¢ĺ
åł ª
é¸¡ ä¸ģ
åĪĨ è¯į
è¿ĩ äºĨ
çģ« ç®Ń
èģ Ĩ
è½¬ åĲĳ
éĩĳåŃĹ å¡Ķ
æľª èĥ½
å¤į åĪ¶
è¿ŀ è¡£è£Ļ
ä½ĵçİ° äºĨ
å®¶åºŃ åĴĮ
èĳ± å§ľèĴľ
æĬµ æĬĹ
æķ°åŃĹ è´§å¸ģ
æ²ŁéĢļ æĬĢå·§
Ð ³
åĩł åĪĨéĴŁ
ä»¥ åºĶå¯¹
ç³ ¯
çĻ Ĥ
éĩĩ è®¿
ä¸Ĭ åİ»
å¹³ æĿ¿
èĪĴéĢĤ åĴĮ
åľ¨è¿ĩåİ» çļĦ
ä¹Ł åı¯ä»¥éĢļè¿ĩ
è§£åĨ³ è¿Ļä¸ªéĹ®é¢ĺ
åĪĿ å§ĭ
å¿ħ å¤ĩ
åĴĮ åı¯æĮģç»Ńåıĳå±ķ
æĪĳä»¬ æīĢ
èĢĮ éĿŀ
éĢļå¸¸ æ¯Ķ
å°Ŀè¯ķ æĸ°çļĦ
è´¢ æĶ¿
ç¹ģ çĲĲ
é¥ ¿
ä»Ģä¹Ī æł·çļĦ
çĶŁäº§ æķĪçİĩ
ä¸įåı¯ éģ¿åħį
Ġ v
æĳĨ èĦ±
çº¤ç»´ ç´ł
çĬ¹ è±«
éĽ Ģ
éĩĮ æĸ¯
åĲĮ ä¸Ģä¸ª
å®ŀ æĥł
å¼Ģ åħ³
è·³ ç»³
ä¸įéĶĻ çļĦéĢīæĭ©
çļĦ æ¦Ĥçİĩ
èĳ ¬
äººæĢ§ åĮĸ
Ġ é«ĺ
èļ Ĭ
çİ¯ä¿Ŀ äºĭä¸ļ
å¾ŀ èĢĮ
éľ ¸
åĮ»çĶŁ è¿Ľè¡Į
è¦ ĸ
ä¸į æ»¡
ä»» æĦı
åĸ Ĭ
å·¥ä½ľ åİĭåĬĽ
è» Ĭ
æĦŁè°¢ æĤ¨çļĦ
å°±ä¸ļ å¸Ĥåľº
è¿Ļ æĿ¡
èĢĥ æħ®
Ġ æķ°æį®åĪĨæŀĲ
ä¸º æŃ¤
æľĢ åħ·
éĩİ é¤Ĳ
åı¯è¡Į æĢ§
åı¯ä»¥ å¸¦æĿ¥
æ±¡æŁĵ åĴĮ
å£ ĵ
åĬ³ åĬ¨åĬĽ
æľī è¶³å¤ŁçļĦ
èµ· åºĬ
çŁŃ ç¼º
èį· åħ°
çķĻä¸ĭ äºĨ
åıĳ è¾¾
å¼º åĪ¶
åĽł æŀľ
çĶµ èĥ½
æľį çĶ¨
æĿ¥ å¤ĦçĲĨ
å¥³ ç¥ŀ
è§ģ éĿ¢
éĩĩåıĸ æİªæĸ½æĿ¥
æ±Ĥ åĩº
ĠÐ ²
ä¸¤ æ¬¡
çĥĺ çĦĻ
æī ģ
æľ¬ æ¬¡
å¤© æ´¥
çİ¯ä¿Ŀ çļĦæĸĩç«ł
å¿ĥè¡Ģç®¡ çĸ¾çĹħ
çļĦ ä¿ĿæĬ¤
å¤ĸ çķĮ
è¯´æĺİ ä¹¦
å°ıæĺİåĴĮ å°ıçº¢
åĩ ĳ
âĢĿ ï¼Ī
åķĨ åľº
è¿ĲåĬ¨ çļĦ
æ°Ķ åĴĮ
åĪĨ ç»Ħ
èº« é«Ķ
A N
æĿİ èĢģå¸Ī
æıĲ åĪ°çļĦ
å®¡ ç¾İ
çļĦçĳ ľä¼½
ä¸ª å°ıæĹ¶
åį µ
ä¸ĩ äºº
æī§ å¯¼
èĤĸçĶ³ åħĭçļĦ
Ġ åģ¥åº·
çļĦ æİªæĸ½
éŁ³ æ¨Ĥ
ä»¥ä¸ĭæĺ¯ä¸Ģ ç¯ĩ
çĶ· äºº
æĹģ è¾¹
åŀĤ çĽ´
æ¸Ĺ éĢı
çŃī ä»»åĬ¡
éĥ¨ çļĦ
æł¹æį®ç»Ļå®ļçļĦ æĸĩæľ¬
ä¸ŃåĽ½ ä¼łç»ŁæĸĩåĮĸ
åģ¥èº« è®¡åĪĴ
æĪĳ å»ºè®®æĤ¨
ä¼ļ åĦ¿
çŁŃ ä¿¡
èĤĸçĶ³åħĭçļĦ æķĳèµİ
æ¯ ħ
éģĵ åħ·
è¿Ļç§į æĸ¹å¼ı
Ġ è°ĥæķ´
çŃī åĲĦç§į
éħį ä»¶
èĵĿ èİĵ
èĩ Ģ
å»ºç«ĭ èµ·
çİ© æ¸¸æĪı
åĴĮ æĽ´
ç¡ «
åıĹ æįŁ
çŁŃ æĹ¶éĹ´åĨħ
ä¸Ģ åĿĹ
æł¹æį® è¿Ļä¸ª
æ¨¡ æĿ¿
åŁİ åĮº
åı¥åŃĲ ä¸ŃçļĦ
èĹ ¤
ç³ Ļ
çĪ¬ è¡Į
åľ ĸ
è¶ħ åĩº
éĢ Ľ
ä¸º åħ¶
å¯¹ è¯¥
åĳ¨ éķ¿
çłį ä¼Ĳ
åĪĨ æ³Į
åĽº å®ļçļĦ
åŃ¦ä¹ł æĸ¹å¼ı
åĪĴ åĪĨ
é¡¹çĽ® ç®¡çĲĨ
åħ¬äº¤ è½¦
æ©ĺ åŃĲ
çİ Ħ
åİŁ åĳĬ
æ·»åĬł ä¸ĢäºĽ
åľ£ æ¯į
æķ°éĩı ä¸º
é²¨ é±¼
åı¯ä»¥ çľĭåĪ°
è¿ĲåĬ¨ ä¼ļ
åľ¨ æ°´
éĢīæĭ© ä¸ĢäºĽ
å®ļ æĹ¶
åıĺ ä¸º
éĢī åıĸ
è·¯ åı£
çļĦ çĶŁåĳ½
æ£Ģ éªĮ
çģ¯ æ³¡
è´ŁéĿ¢ æĥħç»ª
ä»£ çĲĨ
åĽŀ æĿ¥
éĩĳ æĺŁ
G oogle
åıĤä¸İ åĪ°
ç¾İ æľ¯
äº Ń
æ° ¨
åŃĲ çŃī
åĮ»çĸĹ é¢ĨåŁŁ
çħ® èĩ³
çīĪ æĿĥ
åıĳæĮ¥ çĿĢ
© çĮİ
å¥ ´
åŃ¸ çĶŁ
å¸ ¶
ä½ľ æĽ²
ä¸Ĭ è¿Ľè¡Į
çĦ ¡
å¤§ éģĵ
å¯ ŀ
èº«ä½ĵåĴĮ å¿ĥçĲĨ
åı¯ ä¾Ľ
çĶŁäº§ æµģç¨ĭ
åŃ¦ä¹ł æĸ¹æ³ķ
æīĭ ä¸Ń
æ·±åº¦åŃ¦ä¹ł æĬĢæľ¯
åį³åı¯ äº«çĶ¨
è½¬æį¢ æĪĲ
S T
ä¸į è¶ħè¿ĩ
å®¶åºŃ ä¸Ń
èµ·æºĲ äºİ
çĶµ æµģ
ï¼Ī ï¼Į
æĦīå¿« çļĦ
åı¯ä»¥ åĪĨåĪ°
ä»¤äºº æĥĬåı¹
éĢļ éģĵ
å®¢æĪ·çļĦ éľĢæ±Ĥ
ä¸ª æĢ§åĴĮ
å¤ļå°ĳ éĴ±
éĢĲæ¸Ĳ å¢ŀåĬł
å®ĩèĪª åĳĺ
Ġ2 4
é¸Ł åĦ¿
åŃ¦ä¼ļ äºĨ
Ġ Ñģ
éļ ¨
éĻį è§£
çĶ¨æĪ· åıįé¦Ī
åħħ å®ŀ
a te
å¼ Ĭ
éħį ä¸Ĭ
å°ģ éĹŃ
å¿ĥçĲĨåĴ¨è¯¢ å¸Ī
åĩ ¶
åĬŀ çĲĨ
æł¹ æºĲ
çī¹å¾ģ æıĲåıĸ
å¼ĢæĶ¾ çļĦ
Ġ 60
çģ« èħ¿
ä¿® é¥°
Ġ æĹ¶éĹ´
æĪĳä»¬ åħ¬åı¸çļĦ
è´§ è½¦
æĢ» æķ°
æľįåĬ¡ è´¨éĩı
Ġ åĿļæĮģ
åĭ Ł
æķħäºĭ çļĦ
æĦıè§ģ åĴĮ
éĴĵ é±¼
æĸ° æīĭ
äºĨè§£ åĴĮ
æĹħè¡Į ä¸Ń
åª ļ
çķĻ åľ¨
çĨŁ éĢı
ï¼ļ "
è§£åĨ³éĹ®é¢ĺ çļĦæĸ¹æ³ķ
ĺ èĽĽ
éĢī è´Ń
æĹł ç©·
åĽłæŃ¤ åı¯ä»¥
é¦Ļ èĤł
8 00
é²ľ èĬ±
å¼ł æŁĲ
è¨Ī åĬĥ
çĪ ª
å»ºçŃĳ åĴĮ
åı¯ä»¥ åĪĨæŀĲ
èľ ĺèĽĽ
åĵ ĩ
æĶ¯æĮģåĴĮ é¼ĵåĬ±
ä»¥ æĽ´å¥½åľ°
æĽ´ æ³¨éĩį
èľ ¡
èĥĨ åĽºéĨĩ
åĴĮ æ³ķå¾ĭ
åķĨ æłĩ
æ´»åĬ¨ ä¸Ń
æĹħè¡Į èĢħ
è´¢åĬ¡ æĬ¥è¡¨
ç»Ħç»ĩ çļĦ
æ¢³ çĲĨ
åĴĮ æİ¨å¹¿
ç¦» å©ļ
æĭĺ çķĻ
å®ĺ åħµ
æ³¨ åħ¥
åŃĺåľ¨ äºİ
æĺ¯ ä¸ĢäºĽ
çĤ ¼
åĲĦ ç±»
ä¹ ĥ
åĬł ä»¥
çļĦ éĩįéĩı
ä¸Ģ å¹ħ
çĶ¨ äºĨ
å¼ ĺ
èĢĮ åıĪ
ä¸İ ä»ĸä»¬
Ġâ ī
ä»ĸä»¬ éľĢè¦ģ
ä¿® çĲĨ
åī§ æľ¬
äº¿ åħĥ
7 6
ç»Ļ äººä»¬
åħŃ å¹´
çīĽä»Ķ è£¤
æĦı æĦ¿
ç²¾ ç¾İçļĦ
æĺ¯ä¸ŃåĽ½ åı¤ä»£
ä¸įç¡®å®ļ æĢ§
åıªæľī éĢļè¿ĩ
çļĦ ä»·åĢ¼
åĩ ¸
åĳĬ çŁ¥
âĢĿï¼Į âĢľ
åĲ »
ä½ĵ æ¸©
åĲĳ æĪĳ
çĶ· å¥³
ä¹Ł å¯¹
ä»ĸä»¬ ä¼ļ
çĴ° å¢ĥ
åĴĮ å¨±ä¹Ĳ
åľ¨ çİ°ä»£
çĶ¨ ä½ľ
æľº åĬ¨
ä¸İ æĪĳ
ä¸Ģ å¥Ĺ
åºĶå¯¹ æ°ĶåĢĻåıĺåĮĸ
å®¢ æ°Ķ
ç§ĳ åĬ¨çī©
æĶ¶åħ¥ åĴĮ
ç¶ Ń
æ¸ħ éĻ¤
æĬ½ åıĸ
åĮ»çĸĹ è¡Įä¸ļ
èµĽ åŃ£
èģĶåĲĪ åĽ½
çĮ´ åŃĲ
ä¹¦ åĨĻ
çİĭ åĽ½
åħ¬æŃ£ çļĦ
çļĦ èģĶç³»
å· ·
åľ° åĲį
æĤ¨ èĥ½
ä»ĸä»¬ åı¯èĥ½ä¼ļ
è®¾è®¡ æĸ¹æ¡Ī
Ġ ä¿ĥè¿Ľ
åīį éĿ¢
å¤© èµĭ
è´£ä»» æĦŁ
è®¾è®¡ ä¸Ń
éĢı æ°Ķ
ä½© æĪ´
ç¥ Ī
æ·± åİļ
æµ¸ æ³¡
å° ĭ
æ» ¿
åĨį åĪ©çĶ¨
äºī åıĸ
æıĲåįĩ èĩªå·±çļĦ
æľºåĻ¨åŃ¦ä¹ł æĺ¯ä¸Ģç§į
çļĦ æľĢ
æĤ Ħ
æ¸©æļĸ çļĦ
æ¬º éªĹ
ä»Ļ äºº
æįĲ èµł
GP T
åĴĮ ä¸ĢäºĽ
æµģ å¤±
ä¸İæŃ¤ åĲĮæĹ¶
æĸĩåĮĸ äº¤æµģ
åľ ³
è¾ Ī
åħ¥ åı£
æ·· ä¹±
æĺ¯ åľ°çĲĥ
æ¶ ¤
åĩł æ¬¡
éªĳ è¡Į
çĽ¸ä¼¼ ä¹ĭå¤Ħ
æĢ»ä½ĵ èĢĮè¨Ģ
ä¸ĵ è¾ĳ
æĪĳä»¬ æľī
åĻ¨ çŃī
èĪ Ł
è± ļ
ä¹Łæľī ä¸ĢäºĽ
æĪĳä»¬ ä¸įèĥ½
åĩıå°ĳ ç¢³æİĴæĶ¾
ä¸Ĭ åŃ¦
è¯· æĢ»ç»ĵ
å¼Ģå§ĭ äºĨ
æĭĮ åĮĢ
çļĦ å½¢æĪĲ
å§ĭç»Ī ä¿ĿæĮģ
æĪĳå¾Ī é«ĺåħ´
è¨Ģ è®º
å¯¹ä½ł æľīæīĢå¸®åĬ©
åĪ©çĶ¨ AIæĬĢæľ¯
çĥ¤ èĤī
æŃ¤ èĩ´
æľ´ ç´ł
ç®¡çĲĨ ç³»ç»Ł
åı° åĮĹ
çĽĸ èĮ¨
ç¢º å®ļ
Ġ æĬķèµĦ
Ġ Ñ
çĹħ åİĨ
å¤± è¸ª
åĹ ½
åĴĮ èĩªæĪĳ
åĵģ åĳ³
åĮ¿ åĲį
èĤ¡ ä»½
åĪĨå¸ĥ å¼ı
8 6
é¸Ń åŃĲ
ç§¯æŀģ çļĦå½±åĵį
æĽ´ åĸľæ¬¢
æĿĲæĸĻ çļĦ
æ²³ åįĹ
æ»ĳ éĽª
åĪ© çļĦ
æĸĩæľ¬ çļĦ
åºĶå¯¹ æİªæĸ½
åıªæľī åľ¨
éĿ¢ åīį
éĻĨ åľ°
ä¿ĿæĬ¤æĪĳä»¬çļĦ åľ°çĲĥ
å®ĥ éĢļè¿ĩ
ä¸¤ ä½į
åıĺå¾Ĺ æĽ´
åħ¬åı¸ åĴĮ
æģ¶ åĬ£
è¡Į åĲĦ
åı¯èĥ½ æľī
èĩªå·±çļĦ çĽ®æłĩ
é»ĳå®¢ æĶ»åĩ»
è¡ ·
åĲĳ ä¸ĭ
åıĪ ç§°
å®ŀä½ĵ è¯ĨåĪ«
è¿ŀ è´¯
æµ· åĨĽ
ä¸ĸçķĮ æĿ¯
æĿĳ æ°ĳ
çĶŁ æľº
æłĩ çĤ¹
å¹¿ å¤§
è¿ľ çļĦ
éĺŁ çļĦ
ä¸´ æĹ¶
çĻ» å½ķ
åı¤ å¸ĮèħĬ
åŁİå¸Ĥ åĮĸ
é»Ħ èī²çļĦ
çĽ¸ éĤ»
æĭī ä¼¸
æĪĳ ä¸įèĥ½
é«ĺ äºİ
å¸®åĬ© çĶ¨æĪ·
æłĩ è¯Ĩ
å®ŀçİ° çļĦ
ä¸ĭéĿ¢ æĺ¯ä¸Ģ
æľŁå¾ħ çĿĢ
a b
å°Ĩ æĿ¥
åİ» ä¸Ńå¿ĥ
Ċ ĠĠĠĠ
éļĲç§ģ éĹ®é¢ĺ
çī©è´¨ çļĦ
éĩİ å¤ĸ
åĴĮ è´¨éĩı
åĩı æ³ķ
çµ Ħ
çĭ¬ç«ĭ çļĦ
éģ¿åħį åľ¨
çļĦ è¶ĭåĬ¿
æĺŁ ç©º
æĪĳä»¬ è¿ĺéľĢè¦ģ
ä»¥åıĬ åħ¶ä»ĸ
æķħ æĦı
ä»įçĦ¶ æĺ¯
åĴ³ åĹ½
åĸĤ åħ»
çļĦäºº æīį
ç»ıéªĮ çļĦ
åĩºç§Ł è½¦
å¹¶ ä»¥
çıį è´µçļĦ
åı¯ éĩįå¤į
ä½¿ è®¡ç®Ĺæľº
æľīçĶ¨ çļĦä¿¡æģ¯
éħ± æĸĻ
å¡ĳæĸĻ æ±¡æŁĵ
å¹³çŃī çļĦ
è¿Ļæĺ¯ä¸Ģ éĥ¨
çĸ ¯
æŃ£ æĸ¹å½¢
åĪĹè¡¨ ä¸Ń
ç®Ģæ´ģ æĺİäºĨ
ä¿ĿæĮģ ä¸ĵæ³¨
æŁĶ éŁ§
åľ¨ ç»Ļå®ļçļĦ
ä¼ģä¸ļ åĴĮä¸ªäºº
ç¨į å¾®
åľ° è¯´
è¿ĺ æ¬¾
å±± æ°´
çĽ¸ä¼¼ çļĦ
èĽ Ļ
èįī åľ°
éķľ å¤´
B ob
ä» ĳ
ä½ł çŁ¥éģĵ
æĢĿæĥ³ åĴĮ
or m
9 5
Ġ 19
æ©ŁåĻ¨ åŃ¸ç¿Ĵ
çļĦ è®¡åĪĴ
å¦Ĥæŀľ ä½łçļĦ
åĲĦ è¡ĮåĲĦ
éŃ ħ
D I
é£Łçī© åĴĮ
èĲ¥ ä¸ļ
åĽ Ĭ
å®½ æĿ¾
ĠÙ ħ
Ġ åĽłæŃ¤
åŁİ éķĩ
åĪĻ éľĢè¦ģ
æ¸ħæ´ģ åīĤ
è·¯ æ®µ
çļĦ ä¸Ńå¿ĥ
ç»Ļ ä¸Ģæ®µ
ç¬¬ åįģ
çİ°ä»£ åĮĸçļĦ
ç¾¤ ä½ĵçļĦ
èī ĺ
çº³ ç±³
ä¸ļåĬ¡ æµģç¨ĭ
çİĭ æŁĲ
ç±»ä¼¼ çļĦ
åĲĦ ä½į
ä¼ļ åĳĺ
åľ¨è¿Ļä¸ª åı¥åŃĲä¸Ń
à¹ Ģ
åĿļ å¼º
å®Įæķ´ æĢ§
åĴĮ åı£æĦŁ
ä»£ è¯į
å·¥ä½ľ åĴĮçĶŁæ´»
çĹ ķ
åķĨä¸ļ æ¨¡å¼ı
çŃ¾ ç½²
éĢīæĭ© çļĦ
åĩıå°ĳ äºĨ
å¼ķ é¢Ĩ
éĩį åºĨ
ä¸İ ä½ł
ç¢ §
å¹¶ä¸Ķ åı¯ä»¥
æĪĳä»¬éľĢè¦ģ å°Ĩ
çļĦç¢ ³
éħ ¶
é¢ľ æĸĻ
è¯¦ç»ĨçļĦ è®¡åĪĴ
æ½ľ æ°´
Ġ å¹´
æĦ¿ æľĽ
æĥĬ äººçļĦ
ä¸ĭ ä¸ĢæŃ¥
åĲĦ åľ°
æĬĢæľ¯çļĦ ä¸įæĸŃåıĳå±ķ
å®ŀæĹ¶ çĽĳæµĭ
è¿Ļåº§ åŁİå¸Ĥ
ä¸Ĭ çıŃ
éģĹ è¿¹
åĽ½ æ°ĳ
æĬķèµĦ çŃĸçķ¥
æĩī è©²
æİĴ æ°´
åĴĮ å®¶åºŃ
åĲĦè¡ĮåĲĦ ä¸ļ
ä¸º O
åį ¸
è¿Ľè¡Į ä¸ĢäºĽ
çĻ¼ å±ķ
s e
æŀģ éĻĲ
è¿Ļæł· åı¯ä»¥è®©
åĲİ éĿ¢
éļ Ĭ
åĪĽ ç«ĭ
æ¯Ķ èĲ¨
å½ĵäºĭ äºº
æĸĩç«ł åĨħå®¹
è´Ł éĿ¢çļĦ
æľĢå¤§ åĢ¼
åĩī çĪ½
çŁ ®
a pp
Ġ åĪ¶ä½ľ
å²ģ æľĪ
æĸ° åĨł
ä¹Łä¼ļ å½±åĵį
èį£ å¹¸
æİ¨æĸŃ åĩº
çĶŁ äºİ
æĪĸèĢħ åľ¨
ç½ĳç«Ļ çļĦ
æ£Ģ å¯Ł
å¯Ĩ çļĦ
åĿļ éŁ§
å¾® åįļ
AI çļĦåıĳå±ķ
çļĦå½±åĵį æĺ¯
é Į
èĥ½å¤Ł å¸®åĬ©ä½ł
æµ· æ°´
æİ¨èįĲ çļĦ
éĺ» åĬĽ
ç»Ļä¸Ģæ®µ æĸĩæľ¬åĨħå®¹
æĪĳä»¬ ä¹Łåı¯ä»¥
çļĦç £
åĵĪ åĵĪ
åŁºåĽł ç¼ĸè¾ĳ
åĴĮ èīºæľ¯
æ·± åľ³
ç¼º å°ĳ
åŃ¦æł¡ çļĦ
è´ ¤
åĿ ł
å®Ī æĬ¤
è©¹ å§Ĩæĸ¯
å§¿ æĢģ
æĴŀ åĩ»
çī¹çĤ¹ æĺ¯
XX XX
çĶľ åĳ³
åĴĮ è¿ĽæŃ¥
éĢı éľ²
åľ¨ åĮ»åŃ¦
éĥ Ĭ
åıĤ èµĽ
çļĦ è¡£æľį
èĩª å°Ĭ
æıĲä¾Ľ çļĦä¿¡æģ¯
é£ŀè¡Į åĳĺ
åĲ¬èµ·æĿ¥ ä¸įéĶĻ
å¾ĴæŃ¥ æĹħè¡Į
æĿ¥ æııè¿°
ç« Ń
å®ŀçĶ¨ æĢ§
éĺ¿æĭī ä¼¯
çļĦ æĪĲæľ¬
èī¯å¥½ çļĦçĿ¡çľł
è¼ ĥ
åĬ© çĲĨ
äººä»¬ ä¼ļ
æĹ¶ è¦ģ
çĮ ©
æĶ¿åºľ çļĦ
åĳ¨åĽ´ çİ¯å¢ĥ
æ³ķ åĴĮ
çľĭ æĿ¥
å¥½å¥ĩ å¿ĥ
çļĦç´§ å¼ł
åıĺ èī²
å·¥ä½ľ èĢħ
æĺ¯åĲ¦ éľĢè¦ģ
é³ ŀ
ä¸¤ èĢħ
çĪ± åĴĮ
åħ¨çĲĥ ç»ıæµİ
éĤ» å±ħ
å°½ æĥħ
è§£ æŀĲ
éģĵ çĲĨ
æıĲé«ĺ åĮ»çĸĹ
éĢ Ĺ
è¿ĺ åİŁ
éĢ ¸
ä¸Ń æīĢ
çĶµ èį·
åīį è¡Į
èĭ į
æĹ¥ çļĦ
åıĳæĮ¥ ä½ľçĶ¨
æŀ¶ æŀĦ
äº¤ ä»ĺ
æĭ Ĥ
çļĦ ä½ĵéªĮ
ä¼Ĭ æĸ¯
Ġ éĺħè¯»
æıĲä¾Ľ ä¸Ģä»½
åľº ä¸Ĭ
æĸĻ çĲĨ
æ³Ľ åĮĸ
åħ³ èĬĤ
åĻ¨ æ¢°
çļĦçĪ¶ äº²
æ´Ĺ æ¾¡
å¹´é¾Ħ æ®µ
åı¯ çĪ±çļĦ
æİ ©
æŃĮè¯į çĶŁæĪĲ
æ²» æĦĪ
à¤ ¿
ä½łåı¯ä»¥ å°Ŀè¯ķ
æľī åĩłä¸ª
å¯Ĥ å¯ŀ
I n
åį ¿
å¾Ī å°ĳ
AI ç®Ĺæ³ķ
å®« æ®¿
å®½ åº¦
äºĨ è¿Ļä¸ª
èµĭ äºĪ
æµģ æĦŁ
åįĹ åĮĹ
ç»Łè®¡ åŃ¦
æĪĸèĢħ æĺ¯
éĢı è¿ĩ
çļĦæķ°æį® éĽĨ
æ¸ħæĻ° åľ°
4 7
æ£ ĺ
çļĦç¤¾ åĮº
è¯Ħ æµĭ
æĪĳ åĴĮ
çīĩ åĴĮ
æŃĮæĽ² çļĦ
å¦Ĥä½ķ æıĲé«ĺ
Ġ è®¾è®¡
ä¸ ĳ
å¯¹ æŃ¤
åĬł åĿ¡
åĽł åħ¶
çļĦä¸Ģ é¡¹
åĪĨ è¾¨
éĩį åĨĻ
æľĪ åı°
æī¹ åĪ¤
æĸ° çĶŁ
æĺ¯ æĹ¥æľ¬
é£Łçī© çļĦ
å°Ĭ ä¸¥
è¡¨è¾¾ åĩº
é£Łåĵģ åĴĮ
ä¹Ł åı¯èĥ½ä¼ļ
èįī èį¯
æ°´ éĩı
æŀģ åħ·
çĤĴ é¥Ń
æĺ¯ ä¸įæĺ¯
åĭ ¢
ç»ĵæŀľ è¡¨æĺİ
æĦŁè§ī åĪ°
çĽ®æłĩ å¸Ĥåľº
éº» çĥ¦
ä¸ĢçĽ´ æĺ¯
çļĦ ä¼ĺçĤ¹
ä¸į åı¯èĥ½
è° £
éĵ¶æ²³ ç³»
å¯Ĩ éĽĨ
åı£åĳ³ åĴĮ
é«ĺ è¾¾
æµģ æ´¾
æĮĩ æİ§
æł ĭ
æĽ² çº¿
è·Ł çĿĢ
å½±åĵį çĿĢ
æĶ¾ åĪ°
ç¥Ŀ æĤ¨
ä½Ĩä¸į éĻĲäºİ
çļĦä¸Ģ åĪĩ
çļĦ è¡¨éĿ¢
æĺ¯ä¸Ģ ç¨®
å½© èī²
æľī åĬĽçļĦ
ä»¥ç¡®ä¿Ŀ æĤ¨çļĦ
å®ļ äºĨ
Ġ å°ıæĺİ
èŃ¦ åĳĬ
èĤ¿ çĺ¤
çĢ ĳå¸ĥ
çº Į
èı²å°Ķ éĵģå¡Ķ
åĴĮ åİĭåĬĽ
éĿ¢ åĲĳ
è¿ĺ åĮħæĭ¬
åľ¨ åĵªéĩĮ
çľĭèµ·æĿ¥ æĽ´åĬł
è¢« çĶ¨æĿ¥
ç£ģ åľº
åľ¨ èģĮåľº
çªĹ å¸ĺ
æįŀ åĩº
èĥ½å¤Ł æ»¡è¶³
éļıæĹ¶ éļı
æīĢå¾Ĺ ç¨İ
ä½ £
ä¸Ģ å¼Ģå§ĭ
å¦Ĥ åĲĮ
éģ Ĥ
éĢīæĭ© åĴĮ
è¿ĩåİ» çļĦ
çİ° æľīçļĦ
åĬłåħ¥ éĢĤéĩı
åĲĪä½ľ åħ³ç³»
çļĦä¸»è¦ģ åİŁåĽł
åĽŀæĬ¥ çİĩ
ä¿ĥéĶĢ æ´»åĬ¨
éĽ¨ æ°´
åľ¨ è®Ńç»ĥ
è¿Ļ ä¸įä»ħ
B A
èµ ģ
æ´Ĺ æ¶¤
æĬĳéĥģ çĹĩ
æĹ¥ ä¸ĭåįĪ
æĭį çħ§
çļĦ æ®µèĲ½
æ² ¥
ç¬¬ ä¸īä¸ª
åīį æıĲ
èµ° è·¯
ç½ļ æ¬¾
è¦ ĭ
æĸ° åĬłåĿ¡
æ¯Ķ åħ¶ä»ĸ
åĨľ åİĨ
å½¼ å¾Ĺ
åľ¨ åħ¶
ä¿Ŀ èŃ·
å°Ķ æĸ¯
èİ· èĥľ
ä¸º ç¤¾ä¼ļ
åĪĨ å¼Ģ
çļĦçŁ¥è¯Ĩ åĴĮæĬĢèĥ½
å¿ĥèĤº åĬŁèĥ½
ä½İ äºİ
ç§Ł èµģ
åĸľå¥½ åĴĮ
æĳĩ æ»ļ
æĳ©æīĺ è½¦
çī¹ æķĪ
å¤§ æµ·
ä½Ĩ çĶ±äºİ
å¤ĸ çº¿
çº¦ æĿŁ
ä¸į è¢«
æĪĲ å¹´äºº
åľ¨ æĪĳä»¬çļĦ
è¡Įä¸ļ åĴĮ
è±Ĩçĵ£ éħ±
ä»£è¡¨ æĢ§çļĦ
é¼ĵåĬ± äººä»¬
å¹³åı° ä¸Ĭ
èĳ Ľ
äººå·¥æĻºèĥ½æĬĢæľ¯ çļĦåºĶçĶ¨
ä¸Ń åĮ»
è®© æĤ¨çļĦ
åĸ ®
çĶŁæ´» åĴĮå·¥ä½ľ
æ²¡ éĹ®é¢ĺ
æĹ¶ éľĢè¦ģ
æĹħ éĢĶä¸Ń
æŃ£ æĸĩ
å¤ĦçĲĨ åĴĮåĪĨæŀĲ
ä½ľèĢħ å¯¹
ä¸ŃåĽ½ äººæ°ĳ
ç¾İåĽ½ çļĦ
ä¸Ģæ®µ æĸĩæľ¬
ç£ ħ
æĺ¯ä¸Ģ åıª
æ·± çļĦ
å¤ª å¥½äºĨ
ä¸ŃåĽ½ æĸĩåĮĸ
Bazinga çļĦ
ï½ ŀ
åĪĨè§£ ä¸º
èĦĬ æ¤İ
çī¹ çļĦ
çĮľ æµĭ
ä¼¤ äº¡
ä¸ĸçķĮåĲĦ åľ°çļĦ
åİ Į
Ð ¿
çļĦç¡ ¬
à¸ ģ
åī ¥
å¸ «
è¯Ń è°ĥ
éĻĲ åº¦
æĬĬ å®ĥ
ä¸Ń æī¾åĪ°
ä¹Ł å¼Ģå§ĭ
çļĦçĥŃ éĹ¨
Ġ \
é£ ĵ
ç¡ ķ
å¢ŀå¼º çİ°å®ŀ
åıªæľī è¿Ļæł·
è¿Ļ å°±
æİ¨ éĶĢ
ä¸įæĸŃ å¢ŀåĬł
åĩıè½» åİĭåĬĽåĴĮçĦ¦èĻĳ
ä¸ĢäºĽ æĸ°çļĦ
åŁİå¸Ĥ äº¤éĢļ
æĬĢèĥ½åĴĮ ç»ıéªĮ
çļĦ åħ³éĶ®è¯į
æ³¢ éķ¿
èī° éļ¾
ä¿Ŀ å¯Ĩ
éļı ä¹ĭ
åı¯ä»¥ è¯´
çº³ ç¨İ
Ġå¯»æ±Ĥ å¸®åĬ©
æ°Ķ åİĭ
æĳ §
é¡¹çĽ® ä¸Ń
è¿ŀæİ¥ åĪ°
ä¸º æĤ£èĢħ
çļĦçłĶ åıĳ
çĪµ å£«
é¥ ¥
æĸ¯ æŀĹ
åİĨåı² æĤłä¹ħ
çĨ ¬
éĢĥ ç¦»
7 8
çļĦ ç»ıåħ¸
å¼º å£®
éĢıæĺİ çļĦ
æĹłéĻĲ çļĦ
åħ±äº§ åħļ
éªĳ è½¦
åı¯è§£éĩĬ æĢ§
: âĢľ
å¤ĸ äº¤
åĩıå°ĳ æ¸©å®¤æ°Ķä½ĵæİĴæĶ¾
æĶ¶éĽĨ åĴĮåĪĨæŀĲ
é£ĵ é£İ
Ġ æİ¨å¹¿
èµ Į
å°ı æķ°
éħĴ åĲ§
èģ ¯
åŃĲ å¥³
åĹ ħ
æĺ¯ å½ĵä»Ĭ
åĪĽéĢł æĸ°çļĦ
æĦ¿ æĻ¯
çļĦç¦ ı
Ġ æĢ»
èµ° åĪ°
æ²³ åĮĹ
æ©¡ çļ®
ä¸ Ļ
æĶ¾æĿ¾ èº«ä½ĵåĴĮ
èī¾ç±³ ä¸½
çļĦ è®¡ç®Ĺ
è¥¿ éĥ¨
æĪĳçļĦ å¿ĥ
çĶŁéķ¿ åĴĮ
æ¢¯ åº¦
ç¸½ ä¹ĭ
çĭ Ģ
èĻ« å®³
éķ¿ æĹ¶éĹ´çļĦ
æĺ¯åĲ¦ ä¼ļ
æĩ Ĵ
ï¼ļ [
å¥ĩ å¹»
ä¸Ģ ç¾¤
ä¸Ģ åıĮ
åľ¨ æĪĳä»¬
å· ©
å°Ĩ æķ°æį®
æ±½è½¦ çļĦ
æ°¸ æģĴ
éĩĬæĶ¾ åĩº
æ½® æ¹¿
ä¸Ī å¤«
å¹ ¾
ä»·åĢ¼è§Ĥ åĴĮ
ä¸ºå®¢æĪ· æıĲä¾Ľ
å»ºçŃĳ çļĦ
çĮ« çļĦ
æľºåĻ¨äºº åĴĮ
æĺ¯ åħ¨çĲĥ
æĴ ¼
åıĸä»£ äººç±»
ä¸» èıľ
æīĵ ç²ī
çļĦç¬¬ ä¸Ģä¸ª
å·ŀ çļĦ
å¹¼ åĦ¿
åıĳæĮ¥ èĩªå·±çļĦ
ä¿¯ åį§
æĬ¤ èĤ¤
åĥı æĺ¯
åĥı äººç±»
Ġ1 4
çª Ŀ
èĳ± èĬ±
ÑĤ Ð°
ä¼´ éļıçĿĢ
æĹłè®º æĤ¨
èĴľ æľ«
çļĦç ¯
å¹´ åľ¨
çĦ¦èĻĳåĴĮ åİĭåĬĽ
åºĶçĶ¨ çļĦ
åı¯ä»¥å¸®åĬ© åŃ¦çĶŁ
çĥ Ľ
èĪĴéĢĤ åº¦
äºĽ ä»Ģä¹Ī
è¾ĥ å°ıçļĦ
åĪĨç±» åĴĮ
åİĨåı² ä¸ĬçļĦ
æ¯ı ä»½
è¿ĲåĬ¨ éŀĭ
åĽŃ æŀĹ
é¸¡ èħ¿
åĨĻ åĩº
ç¾¤ å²Ľ
ä¸Ń ç§ĭ
åİŁ æĸĩ
è§£åĨ³ æĸ¹æ³ķ
éĿŀå¸¸ åĩºèī²
çĶŁæ´» ä¹łæĥ¯
æľª ä¾Ĩ
çİ¯ä¿Ŀ æİªæĸ½
åıĭ å¥½çļĦ
åĲĮæĹ¶ä¹Ł è¦ģ
æĹł åħ³
åį· ç§¯
ä»¥ ä½¿
è° ¦
æĭī ä¸ģ
ç§į ç§į
6 00
çļĦ èīºæľ¯
ç¾İ å®¹
æĥ³ èµ·
äºĳ åįĹ
199 0
Ġ æ¸¸æĪı
äºº é¡ŀ
çī ²
å¤ĸ è²Į
è§£éĩĬ ä¸Ģä¸ĭ
åµ Į
F i
å°Ĩ æĺ¯
éĺ ®
é¼» åŃĲ
ä½¿çĶ¨ æľºåĻ¨åŃ¦ä¹łç®Ĺæ³ķ
åĥ §
é»ĳ èī²çļĦ
ç»ĥä¹ł åĴĮ
åĺ ¿
ç«ŀ èµĽ
à¸ ĩ
çĽ¸åħ³ æĢ§
ä¾ĭåŃĲ ä¸Ń
æĿ¥ åĪ°äºĨ
å¸Ĥ åĮº
åħĪ å°Ĩ
è®º åĿĽ
ä¸Ń æıĲåıĸ
çŃ Ĵ
çĽ £
Ġ å°Ĭéĩį
å¤ļå°ĳ ä¸ª
å®ĥ è¿ĺ
è´µ æĹı
Ġ æĽ´åĬł
äºĨä¸Ģ å®¶
ä¸į åĪ©
ä¹Ł ä¸įä¼ļ
å¤© åłĤ
ä¸ŃçļĦ åħ³éĶ®è¯į
æĤ¬ æĮĤ
çļĦå®īåħ¨ åĴĮ
æ¸©æļĸ åĴĮ
Î ¹
é«ĺ å³°
ç¯ ¡
åĢ¾ æĸľ
è¿Ļ åı¯èĥ½åĮħæĭ¬
æ± ª
åĲį è¨Ģ
ä»£ æķ°
åĪĽ å§ĭ
äººç±» è¯Ńè¨Ģ
åĦĴ å®¶
äºº åĢĳ
å¼ł åħĪçĶŁ
p e
Ġ çº¢
æĽ´ æľīæķĪçļĦ
æ´» æ³¼
æ²¡ éĶĻ
ç»¿ åĮĸ
åŁ¹è®Ń åĴĮ
å¡ĳæĸĻ åŀĥåľ¾
ä¸įåĲĮ ä¹ĭå¤Ħ
ç®¡ éģĵ
åı¯éĿł æĢ§åĴĮ
åĲ ķ
ç¾ ©
äºĨä¸Ģ æ¬¡
ä»¥ å¸®åĬ©æĤ¨
éĢģ åĪ°
ä¸įå¾Ĺ ä¸į
ä¸Ģ åĲĮ
éľĢè¦ģ ä¸Ģå®ļçļĦ
äº¤éĢļ æĸ¹å¼ı
è« ĸ
åĬ£ åĬ¿
èĤī è´¨
å»¶ è¿Ł
æŃ£å¸¸ çļĦ
åį ĳ
åħĭæľį åĽ°éļ¾
ä»Ļäºº æİĮ
å·¥ä½ľ çİ¯å¢ĥ
åĽłä¸º ä»ĸ
æ´ŀ å¯Ł
çĨŁ ç»ĥ
è½» çĽĪ
æ¼Ķ åıĺ
es t
æĸĩåĮĸ èĥĮæĻ¯
å¯ ¨
èµ Ĳ
å¦Ĥæŀľ æĺ¯
åĩĨç¡® åĴĮ
ç»ıæµİ åĴĮç¤¾ä¼ļ
çĽ¸ ç¬¦
ç»ıæµİ åŃ¦
çļĦçĥ¤ ç®±
å¤§ æ¡¥
æ´» æĢ§
æ¤į è¢«
ä»ĸçļĦ ä½ľåĵģ
200 3
èĭ±è¯Ń åı£è¯Ń
çŃī æİªæĸ½
å®ĮæĪĲ å·¥ä½ľ
æĪĲåĬŁ çļĦåħ³éĶ®
é²ľ æĺİ
æĿ¥ äºĨè§£
æīĢ è°ĵ
æ²¹ çĶ»
æĮĳæĪĺ æĢ§çļĦ
ä»¥ä¸ĭæĺ¯ åħ³äºİ
æĢĿç»´ åĴĮ
æľºéģĩ åĴĮæĮĳæĪĺ
æŀĹ åĮ¹
éĴ¥ åĮĻ
è®¡åĪĴ çļĦ
æĿĥ å¨ģ
ä»¥ä¸Ĭ çļĦ
ĠÐ ½
ç«ŀ æĬĢ
çĭ ©çĮİ
å¾ĹåĪ° å¹¿æ³ĽåºĶçĶ¨
åħ¸ åŀĭçļĦ
çĶ¨ è¯į
äºĶ ç§į
åĲĮæĹ¶ä¹Ł éľĢè¦ģ
è¦ģ åľ¨
å¤§å°ı åĴĮ
è±¡å¾ģ çĿĢ
åīª åĪĢ
Ġ çĶ¨æĪ·
ä¾Ŀ æ¬¡
Ġ4 0
Ġ æ°´æŀľ
å¹¶ ä½¿
æľĢéĩįè¦ģçļĦ ä»»åĬ¡
è¯ģ äºº
æĵįä½ľ ç³»ç»Ł
æľįåĬ¡ çļĦ
èĬ± äºĨ
çļĦ è®Ńç»ĥ
ç»Ļå®ļ ä¸Ģç»Ħ
åĲİ æľŁ
åħī èĬĴ
åĽ¢éĺŁæĪĲåĳĺ ä¹ĭéĹ´çļĦ
åįİ çĽĽ
å¤§èĩªçĦ¶ çļĦ
æ²ŁéĢļ èĥ½åĬĽ
åĪĨäº« èĩªå·±çļĦ
ä¸»è¦ģ åĨħå®¹
ä¼ĳæģ¯ åĴĮæĶ¾æĿ¾
éĩĮç¨ĭ ç¢ĳ
æĦı å¼ı
åįķ åħĥ
è¿ĺæľī ä¸Ģä¸ª
æ·±æ·± åľ°
åĢĻéĢī äºº
çķ «
ç»ĺ åĪ¶
è¯·éĹ® æĤ¨
å°ĳæķ° æ°ĳæĹı
è¿Ļ ä¸īä¸ª
å¢ĥ åĨħ
éŁ³ åĵį
æħ ĭ
çİ°ä»£ ç§ĳæĬĢ
è¿Ļ ä¼ļ
ä½¿çĶ¨ ä¸ĢäºĽ
éĴ± åĮħ
çĥ¤ é¸Ń
å¤ļä¸ª åĽłç´ł
è¿Ŀ çº¦
é Ħ
æµ ©
åĮħæĭ¬ ä½Ĩä¸įéĻĲäºİ
çĦ¶åĲİ åľ¨
è§£éĩĬ ä»Ģä¹Īæĺ¯
æ³¡ æ²«
çļĦ å¢ŀéķ¿
è¿Ļ åı¯èĥ½å¯¼èĩ´
åľŁ æĺŁ
æĮ¯ åĬ¨
ä¸Ģ å¯¹
çĦ¶åĲİ çĶ¨
æıĲé«ĺçĶŁäº§ æķĪçİĩ
äºº æĢ§çļĦ
åı¯èĥ½ æĹłæ³ķ
æĽ¾ åľ¨
ç¾Ĭ èĤī
æĸĩæľ¬ä¸ŃçļĦ åħ³éĶ®è¯į
æľĢ åĸľæ¬¢
æĺ¯ä¸Ģç§į å¸¸è§ģçļĦ
çļĦäºº éĻħ
åĴĮ åĬŁèĥ½
ä¼ģä¸ļ åºĶè¯¥
å¤©æ°Ķ é¢ĦæĬ¥
Ñ Į
åľ¨ éĿ¢å¯¹
åı¯èĥ½ æľĥ
å±Ĥ éĿ¢
æĸ° æĬĢèĥ½
æłĳ æŀĿ
ä»¥ åĲ¸å¼ķ
éļ §
èĥ½å¤Ł éĢļè¿ĩ
éħį ä»¥
æĳĨ æĶ¾
åĴĮ æī§è¡Į
éĺ² å®Ī
èĬĤçº¦ çĶ¨æ°´
åĴĮ åĲĪä½ľ
æĸ°éĹ» æĸĩç«ł
å·¨å¤§çļĦ å½±åĵį
å¾Īå¥½ åľ°
çļĦçĹ Ľ
åĴĮ å®ĮåĸĦ
æīĭ å¥Ĺ
å®¡ åĪ¤
ä¸Ģç§į æĸ°åŀĭ
Ġ åĮ»çĸĹ
çļĦ åĲįåŃĹ
çļĦ è±¡å¾ģ
æľº ç¥¨
åĲį åįķ
åŀĥåľ¾ æ¡¶
åŁº åĩĨ
åİ» çľĭ
å¼Ģå§ĭ ä½įç½®
ä¿¯åį§ æĴĳ
âĢĿ ,
åĨĻ ä¸ĭ
å®« ä¿Ŀ
è² »
æĦ ģ
è®¿éĹ® æİ§åĪ¶
å£® è§ĤçļĦ
Ġ å½ĵ
ç²ī ä¸Ŀ
æłĩçĤ¹ ç¬¦åı·
Ġ r
çļĦ çĶ¨æĪ·
ä½ľ æģ¯
å¤§ ä¼ļ
ä¸Ģç§į æĸ°çļĦ
ä¸ĵä¸ļ äººåĳĺ
äºĨä¸Ģ ä»½
åģļåĩº æĽ´
è¸ ¢
å°ģ å»º
éĢĤ åº¦çļĦ
ç» Ĵ
çĶŁæ´» åĴĮ
å¤§å°ı çļĦ
æ®ĭ çĸ¾
åįİçĽĽ é¡¿
é Ĭ
éĹ¨ ç¥¨
åĳĬè¯ī ä½ł
ç¿»è¯ĳ æĪĲ
ä¼ĺæĥł åĪ¸
åı¤ è¿¹
çĥ ģ
æĢ» éĥ¨
é² į
æĪĸ è®¸
çĭ Ń
å¢ŀ è¿Ľ
è¿Ļæł· åģļ
åıĹåĪ° å½±åĵį
äººå·¥æĻºèĥ½åľ¨åĮ»çĸĹ é¢ĨåŁŁçļĦåºĶçĶ¨
å¹¶ å¼Ģå§ĭ
åħ» åĪĨ
è¯ŃéŁ³è¯ĨåĪ« åĴĮ
èĩªåĬ¨é©¾é©¶ æĬĢæľ¯
èĨ³é£Ł çº¤ç»´
çļĦç«ĭ åľº
è¿Ļä¸ª ä¸ĸçķĮ
éĩıåŃĲ è®¡ç®Ĺ
Ġt o
åģļ å¾Ĺ
ä¸»æĮģ äºº
æ²¹ èĦĤ
ä¿® å»º
æķĻèĤ²åĴĮ åŁ¹è®Ń
äººå·¥æĻºèĥ½ æĺ¯ä¸Ģç§į
ä¸»ä¹ī èĢħ
çĶŁåŃĺ çİ¯å¢ĥ
åĩĮ æĻ¨
åıį åĲĳ
ä¹Ł åŃĺåľ¨ä¸ĢäºĽ
åĢŁ æ¬¾
å´© æºĥ
ãĢĤ '
å°Ĩ æľīåĬ©äºİ
é¡ºåºı æİĴåĪĹ
æµĵ ç¼©
çĽ® åĩ»
æĮĩ éĴĪ
å§ĳ å¨ĺ
ä»İèĢĮ å½±åĵį
å®½ æķŀ
æĦŁæ¿Ģ ä¹ĭæĥħ
åĮĸ ç®Ģ
æĸĩæľ¬ æķ°æį®
200 1
èĢĲ åĬĽ
åľ¨éĩĳèŀį é¢ĨåŁŁ
ä¸įåĲĮ ç±»åŀĭ
æĥħ æ³ģ
ç½ĳ åıĭ
æĬķèµĦ åĨ³çŃĸ
èŁ ¹
åĴĮ è¶ĭåĬ¿
æĽ´åĬł ç¾İå¥½
åŃ¦çĶŁ ä»¬
çļĦåºĶçĶ¨ ç¨ĭåºı
çļĦ æķĪçİĩåĴĮ
ç· ļ
ä¸Ń åįĪ
ä¸Ģä¸ª æĸ°çļĦ
é¥° åĵģ
æľĢå¤§ éĻĲåº¦
æĪĲç«ĭ äºİ
æĸĩåĮĸ å·®å¼Ĥ
Ġ åħ¬åı¸
åĴĮ åĨ²çªģ
æĹł çĽĳçĿ£åŃ¦ä¹ł
æĺ¯åĲ¦ æŃ£ç¡®
çļĦ ä¼łæĴŃ
å·¥ä½ľ æĹ¶éĹ´
å¾® è§Ĥ
åĲĪ è§Ħ
çī¹ è´¨
è®® ä¼ļ
ç¤¾ä¼ļ éĹ®é¢ĺ
æ¿Ģ åħī
æłĳ çļĦ
éĹ ·
å¸®åĬ© ä¼ģä¸ļ
ç¼© å°ı
ä»ĸä»¬ èĥ½å¤Ł
çīĩ æ®µ
è¦ģ ç¡®ä¿Ŀ
æĿ¥ èİ·å¾Ĺ
å¸® ä½ł
çĥ ·
è¥¿ åįĹ
è¿Ļé¦ĸ æŃĮ
çĺ¦ èĤī
ä»¥ èİ·åıĸ
äºº ä¸İ
æĪĳ æľĢåĸľæ¬¢çļĦ
ä½ł åı¯ä»¥éĢļè¿ĩ
è´¨ æĦŁ
ãĢĤâĢĿ <|
åºĬ ä¸Ĭ
æĮĳæĪĺåĴĮ åĽ°éļ¾
ç§Ĵ éĴŁ
æ·± æµ·
âĢ ¢
ç®Ģ ç§°
å¸¦æĿ¥äºĨ è®¸å¤ļ
é¢Ħéĺ² çĸ¾çĹħ
åĴĮ ä»»åĬ¡
æĥħ äºº
ç¨ »
è®¡ç®Ĺæľº ç¨ĭåºı
çº· çº·
æĪĳ ä¸ºæĤ¨
ç¨³ åģ¥
ç» £
ä¸º ä¾ĭ
è¯į æĢ§
æĽ´å¤ļ ä¿¡æģ¯
æ£®æŀĹ éĩĮ
A pp
è¶Ĭ å¤§
çĻ¾ å¹´
èĽĭçĻ½è´¨ åĴĮ
ç¤¾äº¤åªĴä½ĵ åĴĮ
å¹¶ èĥ½å¤Ł
åĪĴ åĪĨä¸º
æĤ¨åı¯ä»¥ æł¹æį®èĩªå·±çļĦ
éľĩ æĴ¼
çļĦçĬ ¯
æĪª èĩ³
åĪĽä¸ļ èĢħ
æľī ä¸įåĲĮ
éĹª çĥģ
Ð ·
æĪĲä¸º äºĨä¸Ģä¸ª
éĩĩåıĸ äºĨ
æľī åĬĽ
å·¥ä½ľ æ³ķ
çľŁ çĽ¸
åĽŀçŃĶ ä¸ĭéĿ¢
èĪŀ èĢħ
åĲĪçĲĨ å®īæİĴ
æĭī æĸ¯
åĲ ĵ
åįĹ çĵľ
è¡ĮåĬ¨ è®¡åĪĴ
å°± åľ¨
æľĢåĲİ ä¸Ģä¸ª
çļĦ çĲĨè§£
è¿Ļ æľ¬
æĻº åķĨ
åıª éľĢ
u b
æĪĲ è¯Ń
äººå·¥æĻºèĥ½ å·²ç»ı
å¹¶ä¸Ķ èĥ½å¤Ł
ä½įç½® åĴĮ
ç¾İé£Ł åĴĮ
èĮ İ
æµģè¡Į éŁ³ä¹Ĳ
æĸ¹éĿ¢ çļĦåºĶçĶ¨
çħ§ å°Ħ
Ġ ä»İ
ç²¾ å¿ĥ
ä½įäºİ ä¸ŃåĽ½
æľīå®³ çī©è´¨
ç¤¾ æľĥ
ä¿ĿæĮģ ç§¯æŀģ
çĶ¨æĪ· éľĢæ±Ĥ
è´Łè´£ äºº
ĠØ ¨
æĺİ åªļ
çĶµè§Ĩ èĬĤçĽ®
ä¸Ń è¿Ľè¡Į
å»ºè®® åľ¨
æľĽ è¿ľ
çİĭ æľĿ
èĶ ¡
çļĦ å¤ĦçĲĨ
è° İ
èı Ĭ
åı¯ä»¥è®© äººä»¬
éĢıæĺİ åº¦åĴĮ
äºĮ åıī
æİ§åĪ¶ ç³»ç»Ł
æĽ¾ ä»»
ä¼ĺåħĪ å¤ĦçĲĨ
çļĦçĪ¶ æ¯į
è¯ģ ä¹¦
èĢ³ æľº
r i
æ¨¡ åĿĹ
éĺĲ æĺİ
Ġ ç¡®è®¤
æĿ¥ åŃ¦ä¹ł
éķ¿åº¦ ä¸º
è¶Ĭ é«ĺ
æĺ¯ä¸Ģä¸ª éĩįè¦ģçļĦ
éĵ Ń
éĩįå¤§ å½±åĵį
åľ° æ¯¯
éľĢè¦ģ æĹ¶
æĦŁ å®ĺ
æĿ¥è§£åĨ³ è¿Ļä¸ªéĹ®é¢ĺ
ä¸º é£Ł
éģĵ æŃī
åŃķ å¦ĩ
åĴĮ å¼¦
æīĭ åĨĮ
æĹł èģĬ
çŁ¥è¯Ĩ åĴĮ
å»ºè®® éĢīæĭ©
äººä»¬ åºĶè¯¥
el lo
é¸¡ ç²¾
åĲĦèĩª çļĦ
åı¯ä»¥ æĽ´åĬł
ä½¿ æĪĳä»¬
çļĦæĹ¶éĹ´ åĨħ
è¯· æĤ¨
è½¨ è¿¹
åĪĩç¢İ çļĦ
å¤§ çģ«
æķ° åįĥ
ç»ĵ äº¤
åľ¨ åŃ¦æł¡
å®ŀ ä¾ĭ
æĪ¿ ä»·
æ¯ı æĻļ
æµ· æµª
æĭ¿ éĵģ
åģļå¥½ åĩĨå¤ĩ
åĴĮ æ±¡æŁĵ
æĻºèĥ½ çļĦ
åĮħ è£¹
åĻ ¬
200 2
çĽ¸æ¯Ķ ä¹ĭä¸ĭ
è©ķ ä¼°
å»ºè®® åĲĹ
é©¬ ä¸Ĭ
S A
å¹¶ ä¸įä¼ļ
éĢļå¸¸ æľī
è¿Ļç§į è¡Įä¸º
èĮĥåĽ´ åĨħçļĦ
å¹³çŃī åĴĮ
çļĦç³ĸæŀľ æķ°
ä¸ ¸
é¢ĺ æĦı
çļĦç¥ŀ ç§ĺ
ä¿ Ĭ
æĽ´ ä½İ
æĸĩ æ¡Ī
è¿Ľ åº¦åĴĮ
èĭ¥ å¹²
é£İ åĬĽ
è£ ķ
ç¯ĩ å°ıè¯´
æ¤į æłĳ
æ¯ķä¸ļ äºİ
åĿ Ŀ
äººç±» å¯¹
éĻ ¨
æĪĸ å¤ļä¸ª
äºĨä¸Ģ ä½į
a x
è®° è½½
è¥¿ å®ī
åİĨåı² äºĭä»¶
åĪ¶ä½ľ æŃ¥éª¤
199 7
æıŃç¤º äºĨ
ä¼ļ æł¹æį®
åĲĦ é¡¹
åŁİ å¢Ļ
ä¹ĭéĹ´ åŃĺåľ¨
æĲ ŀ
èµ° åĬ¿
å½ĵåīį çļĦ
éļıæľº æ£®æŀĹ
éĽĨ ä½ĵ
å¥³ äºº
åħ¨çĲĥ æ°Ķæ¸©
åĸ· åıĳ
6 4
é¢ ł
æ¸¸æ³³ æ±ł
åĴĮ ç¤¾äº¤åªĴä½ĵ
çİ ²
ä½¿çĶ¨ çİ¯ä¿Ŀ
æ°ĶåĢĻåıĺåĮĸ å¯¹
çļĦ å·¥åħ·
æĺ¯ åķĬ
å½Ĵ ä¸º
é«ĺ çŃī
åħ¸ åŀĭ
ç½ĳç«Ļ ä¸Ĭ
èĸĦ çīĩ
çļĦçĩ ĥ
æĬķèµĦ çĽ®æłĩ
ä¼¯ çī¹
åĪĨ å¾Ĺ
çĹħ ä¾ĭ
åĪ©çĶ¨ äººå·¥æĻºèĥ½æĬĢæľ¯
æĦıè§ģ åĴĮå»ºè®®
ä¸Ģ éĹ¨
éľĢè¦ģ çĶ¨
åħ¥ çĿ¡
ç¦ ħ
é¢Ħæµĭ æľªæĿ¥çļĦ
å°Ĩ æĽ´åĬł
æ²īæµ¸ åľ¨
çĶ «
åĤ ħ
åĴĮ æłĩåĩĨ
è¥¿ åĮĹ
åı¯ä»¥ æľīæķĪ
çŃī æķ°æį®
åıĺ æį¢
Ġ ä¸ŃåĽ½
ä¸Ģ æĬĬ
æĺĵ æĩĤ
èĤ¡ ä¸ľ
çİĽä¸½ äºļ
æ»¡ äºĨ
è£ ½
åĽĽ åŃ£
å±ĭ é¡¶
çķªèĮĦ å·¥ä½ľæ³ķ
åĶ® ä»·
èµ° è¿ĩ
ä½ı åľ¨
ä¸ĥ å¹´
Ġ ä»ĸ
åĳ Ĩ
åħ³ç³» çļĦ
çľ¼ éķľ
åľ¨è®¸å¤ļ é¢ĨåŁŁ
éĤ ĵ
æŃ¥ ä¼Ĳ
ç¡®ä¿Ŀ åħ¶
åı¤åħ¸ éŁ³ä¹Ĳ
ä¸¤ ç»Ħ
åĭ¤ å¥ĭ
æģ° å½ĵ
åı¯ä»¥ å¿«éĢŁ
é¬ Ĩ
æ¶ ¡
åĲĮæĹ¶ ä¹Łæĺ¯
æĬĬ å®ĥä»¬
éģ© åĲĪ
æŃ· åı²
ä½ł æĥ³è¦ģ
çĩĥ æ²¹
å¥ ¢
çº¦ å®ļ
åı¯ä»¥å¸®åĬ©æĪĳä»¬ æĽ´å¥½åľ°
å¹¶å°Ĩ å®ĥä»¬
çļĦ åĬ¨ä½ľ
æľī ä¸Ģç§į
å¦Ĥä½ķ åºĶå¯¹
åĮ»çĸĹ æķ°æį®
ä¸įè¦ģ è®©
èĤ© èĨĢ
æĶĢ çĻ»
çļĦ ä¸Ń
èĬĤèĥ½ åĩıæİĴ
ç¯¡ æĶ¹
éķ¿ è¾¾
éĢīæĭ© éĢĤå½ĵçļĦ
a k
æĹł æ¯Ķ
ä¸» æµģ
äº® åº¦
è®©æĪĳ æĦŁåĪ°
æ²¿ æµ·
Ġ çĭĹ
ä»»åĬ¡ ä¸Ń
çģ¯ åħ·
åľ¨ è®¾è®¡
å¾Ī ä¹ħ
èĢĮ åĩº
éĢĤ åº¦
äººå·¥æĻºèĥ½ ç®Ĺæ³ķ
æł¹æį® å¯¹è¯ĿåĨħå®¹
2 50
æĹ¥ åĩº
è½¦ åŀĭ
è¨ĵ ç·´
çļĦ å½¢çĬ¶
äºĨ åĲĹ
æĿ¥ åĪ¤æĸŃ
èĩªå·± åľ¨
6 8
æŁ ¯
æ°´ åĪĨåŃĲ
æ½ ĺ
æĹ¥ ä¸ĬåįĪ
è½»è½» åľ°
éĩĩåıĸ ä¸ĢäºĽ
ç¢İ çīĩ
åĴĮ å¤§
éľĢè¦ģ æĹ¶éĹ´åĴĮ
èµ· è¯ī
åħ« å¹´
çļĩ åĲİ
AP I
æ»¡æĦıåº¦åĴĮ å¿łè¯ļåº¦
åºĹ éĵº
çıł å®Ŀ
å¤ļ ä½Ļ
æ¥ µ
ç»´æĬ¤ åĴĮ
à¹ Ī
è¡ Ķ
çĽ¸å¯¹ è¾ĥä½İ
é¢Ħéĺ² æİªæĸ½
Ġ æľºåĻ¨åŃ¦ä¹ł
ï¼ļ $
éĥ½ æ²¡æľī
åķĨä¸ļ è®¡åĪĴ
èĦĨ å¼±
åĲ¦ å®ļ
ä¹ĭéĹ´çļĦ èģĶç³»
å¤ļç§į åĽłç´ł
å½ĵ ä»ĸ
æľīä¸Ģ åıª
æĬĳ åĪ¶
æĪĳä»¬ æĹłæ³ķ
æĤ¨ è¿ĺåı¯ä»¥
æıĲé«ĺ åŃ¦ä¹ł
ï ¿
ä½ł æĺ¯åĲ¦
ç¡® å®ļçļĦ
é£Ł æĢ§
æģ¶ åĮĸ
æŀ ķ
ä¸Ĭ çº§
æĽ´åĬł çĶŁåĬ¨
å¢Ļ éĿ¢
Ð½ Ð°
åĽł æĸ¯åĿ¦
ç»Ħ è£ħ
åĽĽ å¤§
æķ°åŃ¦ éĹ®é¢ĺ
çļĦ ä¹¦
æĪĳä»¬éľĢè¦ģ åľ¨
æķĪæŀľ åĴĮ
çļĦç¬ ĳ
éĺ» ç¢į
ä¹Ĳ åĽŃ
ä¸¤ åıª
æĿİ åħĪçĶŁ
è®°å½ķ åĴĮ
åıį ä¹īè¯į
èµ° åľ¨
åĤ¨ å¤ĩ
åºĶçĶ¨ é¢ĨåŁŁ
é¦Ļ èıľ
æº¶ æ¶²
åĨ ¯
èģĮ åĬ¡
ä¸įè¦ģ è¿ĩåº¦
æľĢå¤§éĻĲåº¦ åľ°
ç» ĳ
åį Ĵ
æ¬² æľĽ
æł¹æį®ä»¥ä¸Ĭ è¿Ļæ®µå¯¹è¯ĿåĨħå®¹
æł¹æį®ä»¥ä¸Ĭè¿Ļæ®µå¯¹è¯ĿåĨħå®¹ åĽŀçŃĶ
èĥ½ éĩıçļĦ
éĿ¢ èĨľ
æĤ¨çļĦ éľĢæ±Ĥ
å°Ĩ æīĢæľī
éĩį å¤§çļĦ
åĮ»çĶŁ åĴĮ
ä¸ĩ çī©
å¹¶ä¸į æĦıåĳ³çĿĢ
i th
éģ £
æĸ° äºº
æİªæĸ½æĿ¥ ä¿ĿæĬ¤
éĤª æģ¶
åĴĮ å£°
é©¾ è½¦
çī¹ èī²çļĦ
å¤ĸ è¡¨
è½» ä¾¿
ä¹Ł ç§°ä¸º
åĬ Ŀ
å¸ Ĩ
çĶ¨ æĪ¶
æĪĲ å¹´
è§£åĨ³ çļĦéĹ®é¢ĺ
ç©Ĩ æĸ¯æŀĹ
åĪ° åºķ
å¹¶ æī¾åĪ°
æ°´ æĺŁ
æĹłè®º æĺ¯åľ¨
æİ¨çĲĨ è¿ĩç¨ĭ
å¯¹ èĩªå·±çļĦ
æĳ Ķ
æĬĹ æ°§åĮĸ
æĸ¹ å½¢çļĦ
æĽ´å¤ļ åħ³äºİ
åĪĨéħį åĪ°
èµŀ èµı
çķ¶ çĦ¶
ì Ŀ
ä¿Ŀ æļĸ
åĪĽéĢł æĽ´å¤ļçļĦ
çļĦç¤¼ çī©
çºł ç¼ł
èĤ¢ ä½ĵ
èĤ² åĦ¿
å±Ĥ çļĦ
çļĦçģ¯ åħī
é³ Ħ
åĽĽå·Ŀ çľģ
æ·· åĩĿ
è¦ ı
å®¤ å¤ĸ
ä¸Ģ åįĬ
ä¸į åĸľæ¬¢
éĤ£ä¹Ī ä»ĸ
åĴĮ èĥ½åĬĽ
æĪĳ åĽ½
æīĢ æľª
å¤ĸ åĩº
çĥ¦ æģ¼
å¦ ĥ
è¿ĻäºĽ åıĺåĮĸ
ä¸įåĲĮçļĦ äºº
Ø ¹
ä¼ģ æ¥Ń
åī©ä½Ļ çļĦ
æĽ´ éķ¿
ç¬¬ ä¸Ģä½į
é¸¡ ç¿ħ
çļĦç«ŀäºī åĬĽ
ä¿ĿæĮģ èº«ä½ĵ
æīĵ è´¥
çı Ĥ
å®¢æĪ· çļĦéĹ®é¢ĺ
å¯¹äºİ éĤ£äºĽ
æĮĳæĪĺ æĢ§
æ·±åº¦ åŃ¦ä¹łåĴĮ
ç©ºéĹ´ çļĦ
åģ¥åº·çļĦ é¥®é£Ł
è®© å¥¹
æłĳ æŀĹ
å°ļ æľª
æ£Ģæµĭ åĴĮ
âĢ Ļ
çļĦéĩįè¦ģ æĢ§åĴĮ
199 8
ç«ŀäºīå¯¹æīĭ çļĦ
éľĢè¦ģ ä¸ĢäºĽ
ä½¿çĶ¨ AI
å¢ŀ åĢ¼
æ¸Ĳ è¿Ľ
ä¸ĸçºª åĪĿ
çļĦçłĶç©¶ åĴĮ
æĥħèĬĤ åĴĮ
åı¯ä»¥ ç¡®ä¿Ŀ
çĶµ æ¢¯
éĢīæĭ© äºĨ
Ġ åħ³æ³¨
åıĳ åħī
èĥ½å¤Ł ä¸º
è½¦è¾Ĩ çļĦ
çļĦç ĵ
åĪ¶ä½ľ æĸ¹æ³ķ
å®«ä¿Ŀ é¸¡ä¸ģ
æĪĳ æľī
æĻºèĥ½ æľºåĻ¨äºº
æĽ´æ·±åħ¥ åľ°äºĨè§£
çļĦ äº§çĶŁ
åį Ķ
è¿ĺ åºĶè¯¥
åıĭ åĸĦ
èĳ µ
äºĨä¸Ģ æ®µ
èģĶç³» æĸ¹å¼ı
æ²ī è¿·
ç¬¬ åħŃ
ä¹° äºĨä¸Ģ
å½ĵ éĢī
æĶ¾ ä¸ĭ
çĮ« åĴĮ
æĶ¹ éĢł
äºĮ è¿ĽåĪ¶
èª į
åĢ¼å¾Ĺ æ³¨æĦı
çĸ«èĭĹ æİ¥ç§į
è¤ Ĳ
å¤§ èĩ´
ä¸įèĥ½ è¢«
äººæľº äº¤äºĴ
è¡Į æĿİ
å» £
åħ» æ®ĸ
è¿ĺåı¯ä»¥ çĶ¨äºİ
çĽ®åīį çļĦ
æķı æį·
ç§ĳå¹» å°ıè¯´
ç²¾ ç¾İ
å¤©ç©º ä¸Ń
åľ¨ æķ´ä¸ª
çļĦäºº æĿ¥è¯´
éļĲ æĤ£
ä¸º ä½ķ
åĲĥ çļĦ
è¿Ľä¸ĢæŃ¥ çļĦ
çĽ¸ä¼¼ åº¦
æµ® å®«
ï¼Į "
åľ¨ è¿Ļæ®µ
å¾Ĺ å¤ļ
æĪĳä»¬åı¯ä»¥ çľĭåĪ°
æĹı è£Ķ
ä¼ĺçĤ¹åĴĮ ç¼ºçĤ¹
çļĦ åįķè¯į
ä½¿ äººä»¬
å¼ĢæĶ¾ å¼ı
ä¸įèī¯ å½±åĵį
æĸĩçī© ä¿ĿæĬ¤
æľĪ èĩ³
åľ¨ åħ¨çĲĥèĮĥåĽ´åĨħ
æĪĳä»¬ å°±
å·¥ä½ľ æľºä¼ļ
èĹ »
æĸĹ äºī
å¼± çĤ¹
å®¶ çĶ¨
è¿ĻäºĽ éĥ½
åĵĪåĪ© æ³¢çī¹
çļĦ èī²å½©
ä¸º ä¸»é¢ĺ
äºļ åİĨ
åĮ»åŃ¦ åĽ¾åĥı
çļĦç¨ĭ åº¦
ä¸ĵ åĪ©
èĤ¡ç¥¨ å¸Ĥåľº
æĽ´ å¹¿æ³ĽçļĦ
æ°ĳ ä¼Ĺ
é¥° æ¼Ķ
æŃ£åĪĻ åĮĸ
åľ¨ ä»¥ä¸ĭ
äººå·¥æĻºèĥ½ åı¯ä»¥éĢļè¿ĩåĪĨæŀĲ
ä¸įçŁ¥éģĵ è¯¥
åĮĹæŀģ çĨĬ
ä¸Ń æľĢéĩįè¦ģçļĦ
è¿Ĳ è½¬
å¸¦ ä¸Ĭ
å¿« éĢĴ
éľĢæ±ĤåĴĮ åģıå¥½
à¥ Ģ
åĬł æ³ķ
è¯´ æľį
å¹¶ åĪĹåĩº
äººå·¥æĻºèĥ½ åı¯ä»¥å¸®åĬ©åĮ»çĶŁ
æľį é¥°
çĸ¾çĹħ çļĦé£İéĻ©
åĿĲ æłĩ
çļĦ åĩłä¸ª
åħ¨çĲĥ åĮĸ
æ¯Ĵ åĵģ
æĺĵäºİ çĲĨè§£
çŃīå¤ļä¸ª æĸ¹éĿ¢
åıĮæĸ¹ çļĦ
æĺ¯ èĩ³åħ³éĩįè¦ģçļĦ
èµ· åĪ°äºĨ
æº¶ è§£
éĩįè¦ģçļĦ ä»»åĬ¡
èħ¹ éĥ¨
çļĦçĬ¯ ç½ª
åĩĢåĮĸ åĻ¨
Ġ åħĭ
çĶ± æŃ¤
åĪ¶å®ļ ä¸Ģä»½
åĬ¨çī© åĽŃ
æĿ¾ é¼ł
å¼º åº¦åĴĮ
äºĶ èĬ±
è¥¿åħ° èĬ±
æĿı ä»ģ
é¢ĺçĽ® ä¸Ń
èĸª éħ¬
æĪĳ åİ»
å®ĥ æĺ¯ä¸Ģä¸ª
199 9
å¤§æ°Ķ ä¸Ń
æŀĹåĮ¹ åħĭ
åħ¬åħ± åľºæīĢ
å¤ļ å¹´çļĦ
èª ĵ
æµªè´¹ æĹ¶éĹ´
ä¼ļ åĩºçİ°
ä½ł æľīæ²¡æľī
é©¬ æĿ¥
çĳŀ å£«
æ··åĩĿ åľŁ
å¦ ¨
é¢ĺ æĿĲ
ä¸İ ä¹ĭ
å®¢æĪ· ä½ĵéªĮ
ç¥ Ģ
Î ½
ä¸¤ åĲį
çĽĳç®¡ åĴĮ
Ù Ĥ
æłĩåĩĨ åĴĮ
æĺ¾èĳĹ çļĦ
å³¡ è°·
L ED
æıĲä¾Ľ äºĨä¸Ģä¸ª
éŁ³ ç¬¦
æ¹ĸ åĮĹ
éģĩåĪ° åĽ°éļ¾
æĸ¯ ç§ĳ
ä¸ĭ è¾ĸ
åı¯èĥ½ åĩºçİ°
è®Ńç»ĥ éĽĨ
å·© åĽº
9 8
Ġ ä¸º
Ġ å¢ŀå¼º
ä¸Ń åĬłåħ¥
æı ī
æĽ´å¥½åľ°ç®¡çĲĨ æĹ¶éĹ´
æł¹æį® è¿Ļæ®µå¯¹è¯ĿåĨħå®¹
ä¸ľ éĥ¨
åĽĽ åįģ
èİ·å¾Ĺ æĽ´å¤ļçļĦ
åĴĮ æľªæĿ¥
ä¹Ł éĿŀå¸¸éĩįè¦ģ
å¸¦æĿ¥ æĽ´å¤ļ
éĹ®é¢ĺ ä¸Ń
è¢« è¿«
æ·±åº¦åŃ¦ä¹ł æ¨¡åŀĭ
ä¸¥ å³»
èĵ ¬
æķ£ åıĳ
çļĦæĸ¹å¼ı æĿ¥
199 4
å¦¥ åĸĦ
æł¹æį®è¿Ļæ®µå¯¹è¯ĿåĨħå®¹ åĽŀçŃĶéĹ®é¢ĺ
æ» ŀ
é±¼ èĤī
é¢Ĩå¯¼ åĬĽ
åŃ¦ä¹ł èĢħ
æ¹ĸ åįĹ
åıĺ å¼Ĥ
ä»¥ä¸ĭæĺ¯ åĩłç§į
å»ºçŃĳ çī©çļĦ
ãģ ®
åį¢ æµ®å®«
åľ¨ æĪĳçļĦ
è¾ °
åī ĩ
ç² ¹
æŀģ é«ĺçļĦ
çĽ´ è§Ĥ
éļ§ éģĵ
å¤ļ äºº
çī© èµĦ
åĲĥ æİī
é£ŀ ç¿Ķ
å°Ĩä¼ļ å¯¹
è¯·éļıæĹ¶ èģĶç³»
çļĦ æĮĩå¯¼
æ¿ Ĵ
æĹħæ¸¸ ä¸ļ
an e
è¯įæ±ĩ åĴĮ
åĿ¦ è¯ļ
å¹¶ å¸®åĬ©
æĶ¶çĽĬ çİĩ
åı¯ å¾Ĺ
äº§ éĩı
éĢļå¸¸ è¢«
æıĲé«ĺ åħ¬ä¼Ĺ
åĴĮ æ»¡è¶³
é² Ī
Ġ1 7
èĩª åľ¨
èĩª è±ª
å®¹ çº³
åįĬ çĲĥ
3 000
åĬ¨ æ¼«
èĩªæĪĳ æĦıè¯Ĩ
é¾Ļ èĻ¾
çļĦç¨³å®ļ æĢ§
é¼ĵåĬ± åĽ¢éĺŁæĪĲåĳĺ
åľºæĻ¯ ä¸Ń
åĥıäººç±» ä¸Ģæł·
Ġ åĮ»çĸĹä¿Ŀåģ¥
æķĻèĤ² çļĦ
éĽķ åĪ»
è¨ ĺ
å»ºç«ĭ ä¿¡ä»»
äººéĻħ äº¤å¾Ģ
æ¶Į çİ°
Ġ ä»·æł¼
å¼ Ľ
çĸ Ĩ
å§Ķ æīĺ
éħį èıľ
å¼Ł å¼Ł
ç³Ł ç³ķ
ä¸Ģ äºº
çļĦçŁ ĽçĽ¾
æŁĶè½¯ çļĦ
èĩ Ń
çĶµå½± è¯Ħè®º
èģĨ åĲ¬
çĿĢ ä½ł
ä¹ĭéĹ´çļĦ å·®å¼Ĥ
èĩªçĦ¶è¯Ńè¨Ģ çĶŁæĪĲ
DI Y
è¿ľ å¤Ħ
åŁĥ èı²å°Ķéĵģå¡Ķ
åı¯ä¿¡ åº¦
æĽ´ é«ĺæķĪçļĦ
æĺ¯ æŃ£ç¡®çļĦ
ä¸İ æĪĳä»¬
æģ Ń
æĦŁ äºº
è¿Ľè¡Į æ²ŁéĢļ
æĮĩ å®ļçļĦ
ä»į åľ¨
è´ ©
åĴĮ æĢĿèĢĥ
æľĽè¿ľ éķľ
åŃ¦ä¹łåĴĮ æĪĲéķ¿
é¢¨ æł¼
åı¯ä»¥çľĭ åĩº
æ°´ æ±¡æŁĵ
æ¯Ķçī¹ å¸ģ
å°Ĩ ä¸º
èµ· çĿĢ
æĶ¯ ç¬Ķ
ä¿ĿéĻ© åħ¬åı¸
Ġ éĩĳèŀį
åı¯ è¾¾
éļ Ļ
æŃ¥éª¤ å¦Ĥä¸ĭ
åĶ¯ä¸Ģ çļĦ
å¤±ä¸ļ çİĩ
è°¢è°¢ä½łçļĦ å»ºè®®
æŃ ¡
æķĻ ä¼ļ
åĪĻ åı¯ä»¥
çĪ± åĽłæĸ¯åĿ¦
èŀį èµĦ
æĿ ł
ä¸Ń åĲ«æľī
ç»¿ èĮ¶
æľĢå¤§ ç¨ĭåº¦
ä¹Łå¾Ī éĩįè¦ģ
è ¬
ä½ľ æĪĺ
çº¦ ä¼ļ
æĹ¶éĹ´åĴĮ èµĦæºĲ
å®łçī© çĭĹ
åĴĮ ç¤¾äº¤
åı¯ è¯»
é£Ł æ¬²
æīĭ åĬ¿
åĸľæ¬¢ åľ¨
S E
è¿ĺ åı¯ä»¥åľ¨
æ¹ ĺ
æīĢéľĢ æĿĲæĸĻ
èĴ¸ åıĳ
çļĦ çī©è´¨
åľ¨ çİ°ä»£ç¤¾ä¼ļä¸Ń
à¤ Ĥ
éķ¿ é¢Ī
å¤ļåħĥ åĮĸçļĦ
çļĦ èĥ½éĩı
éľ ŀ
ä»¥ ä¿ĥè¿Ľ
âĢĿ ï¼ļ
çĻ½ ç³ĸ
å¹¶ æĮīçħ§
å®ĥ ä¹Ł
å¸½ åŃĲ
æł¹æį®å¯¹è¯ĿåĨħå®¹ åĽŀçŃĶè¿Ļä¸ªéĹ®é¢ĺ
èĩªåĬ¨ åĮĸçļĦ
æĿĥ è¡¡
çļĦçª ģ
åĴĮ çĽĲ
èĪĴ ç¼ĵ
æ¬¢è¿İ æĿ¥åĪ°
åĪĨç»Ļ ä»ĸçļĦ
æµ· åºķ
å»¶ ä¼¸
åı¯èĥ½æĺ¯ åĽłä¸º
æĻ´ æľĹ
Ġ åĪĨéĴŁ
å½ Ĺ
è¿ĺ åħ·æľī
ç©ºæ°Ķ ä¸ŃçļĦ
åĲŀ åĻ¬
æµ· æ»¨
äº« æľī
å¯»æī¾ æĸ°çļĦ
Ġ5 00
æ¨¡åŀĭçļĦ æĢ§èĥ½
åīµ éĢł
åĳ µ
çļĦä¸»è¦ģ è§ĤçĤ¹
æĪĳå¾Ī ä¹ĲæĦı
æ§ ĭ
ä»¥ å¢ŀå¼º
æĹ¥æľ¬ çļĦ
S am
T r
è¯¥ äº§åĵģ
æº ī
æľīæķĪ çļĦæĸ¹æ³ķ
æĺ¯ä¸Ģ æľ¬
ç«ĭ åĪ»
è®¸ åı¯
è¯ģæĺİ äºĨ
çº ±
è§ĦåĪĴ åĴĮ
æī© æķ£
çĥ§ çĥ¤
é£ ²
è¨Ģ è¯Ń
éĿŀå¸¸ é«ĺ
è½¬ åıĺ
Ġ V
Ġ is
è® ¶
æĪĳä»¬åı¯ä»¥ åľ¨
åĪ¶ä½ľ ä¸Ģä»½
éļıæĹ¶éļı åľ°
e m
éĺ ±
æĮĩ æĺİ
ä½ł åı¯ä»¥ä½¿çĶ¨
åĢ ¦
éĶĢåĶ® éĩı
æ³ķå¾ĭ è§Ħå®ļ
äºĭ çī©çļĦ
å¨ģ å»ī
åħī æĺİ
è®¸å¤ļ ä¸įåĲĮçļĦ
åĨ² æµª
èĥĮæĻ¯ ä¸ĭ
ç»Ļå®ļçļĦ æĸĩæľ¬
ä¸Ńç§ĭ èĬĤ
æķ ²
è£ Ŀ
åľ£æ¯į éĻ¢
åĨĻ çļĦ
è¯ļ ä¿¡
äººçī© çļĦ
ä»»åĬ¡çļĦ ä¼ĺåħĪçº§
å¤© æķ°
å®ī è¿ª
æłĳ ä¸Ĭ
ä»¥ç¡®ä¿Ŀ æĤ¨
æĳ§ æ¯ģ
å¹¶ ä»İä¸Ń
è®¸å¤ļ é¢ĨåŁŁ
ç§Ł éĩĳ
å» ĵ
æ°´ è´¨
å®Ŀ è´µ
éģĵè·¯ ä¸Ĭ
G B
åįİ ä¸º
ç¥ĸ çĪ¶
éĢ ®
åĪĨæķ£ æĬķèµĦ
ä»İèĢĮ éĻįä½İ
å¿ Į
å¿« é¤Ĳ
å½ĵåľ° äºº
æ¯į è¯Ń
çļĦçħ§ çīĩ
å° ¸
äºĨ æĪĳ
åºĶè¯¥ åĮħæĭ¬
åªĴ ä»ĭ
éł ħ
äººå·¥æĻºèĥ½åĴĮ æľºåĻ¨åŃ¦ä¹ł
èĥ½å¤Ł æıĲä¾Ľ
æĸ½ åĬł
ä¹¾ éļĨ
åĪĨ ä¹ĭä¸Ģ
æķĻ æĿĲ
çº§ çļĦ
å»ºçŃĳ å¸Ī
å½Ĵ å¹¶
à¹Ģ à¸
ï¿ ¥
æĢİä¹Ī åģļ
èĤ łéģĵ
ä¸ĢäºĽ æĮĳæĪĺ
å¸®åĬ© åĴĮæĶ¯æĮģ
æĺ¯ä¸Ģ éĹ¨
ä¸Ĭæµ· å¸Ĥ
åĩºè¡Į æĸ¹å¼ı
çķ Ķ
æľĢå°ı åĢ¼
av id
ç± ½
å¥ĩ å¦Ļ
èĲ¥åħ» ä»·åĢ¼
åı¯ éĢī
èĤ ļ
è¯¥ çĶµå½±
ç¡®ä¿Ŀ ä½łçļĦ
å¿« èµ°
çļĦ è´¡çĮ®
å°ı åŃ©
æĢ» åĴĮ
éĵ Ŀ
åĭ ¿
èıł èıľ
åĴĮ çĶŁæĢģç³»ç»Ł
çŃī åħĥç´ł
æµ· è±ļ
æľĭåıĭ æĪĸ
è°ĥåĳ³ åĵģ
å¤§æ°Ķ æ±¡æŁĵ
éļľç¢į çī©
ä¸į å¹¸
æīĢ å¸¦æĿ¥çļĦ
çĹ ´
å¹¿ è¥¿
å¤ª å¤ļçļĦ
o p
æľīæķĪ æĢ§
ç©¿ ä¸Ĭ
éĶ¦ æłĩ
Ġ é¥®é£Ł
åĴĮ å¹¸ç¦ı
å¤§ åĬĽ
èĢĮ æľīæīĢä¸įåĲĮ
è§£åĨ³ è¿ĻäºĽéĹ®é¢ĺ
æĢ¥ æķĳ
ä¸įåĲĮç§įç±» çļĦ
æīĢ èĥ½
åŃ¦ä¹ł èµĦæºĲ
ä¼łç»Ł èĬĤæĹ¥
åŃ¦ åĴĮ
éĴ ¦
ç¬¬äºĮ å¤©
æĿĢ æŃ»
æĬ¢ åĬ«
è¾© æĬ¤
èĥ½æºĲ æķĪçİĩ
éĻ¶ çĵ·
Ġo f
çļĦ æĿ¥æºĲ
ä¸į ç¬¦åĲĪ
éĢļè¿ĩ å°Ĩ
æĳ Ĭ
åĴĸåķ¡ åºĹ
æĥĬ è®¶
å£® è§Ĥ
çļĦ åĮºåŁŁ
å®¡ è§Ĩ
èĩªä¸» åŃ¦ä¹ł
ä¼Ĭæĸ¯ åħ°
ä¹ł æĢ§
äº¤ è°Ī
æĪĲ éĥ½
èĥ½å¤Ł å¿«éĢŁ
æ¸ħæĻ ¨
Ġà¤ ķ
åľ¨ ä»ĸçļĦ
ä»İ æĿ¥
ä¸¤ä¸ª æľĭåıĭ
æīįèĥ½ æĽ´å¥½åľ°
å¹¶ æľĢç»Ī
è¯¥ åħ¬åı¸çļĦ
èĵ ī
9 6
çļ Ĥ
çļĦ æŃ£ç¡®
ä¸ĭ æ¬¡
æľĪ åĪĿ
ä¼ĳæģ¯ åĴĮ
è¾ĥ å°ĳ
é¢Ħæµĭ æľªæĿ¥
ä¹Ł æĹłæ³ķ
à¸ ±
AIæĬĢæľ¯ åı¯ä»¥å¸®åĬ©
é¡¶ éĥ¨
çļĦ è¡¨æ¼Ķ
åı¯ä»¥ éģ¿åħį
èĩªå·±çļĦ å·¥ä½ľ
æŃ§è§Ĩ åĴĮ
æĢĿç»´ èĥ½åĬĽ
ä»° åį§
æĿ¥ å¢ŀå¼º
éķ¿ æ±Ł
çĪ Ń
äºĨè§£ ä¸Ģä¸ĭ
è½¯ä»¶ åĴĮ
Ġ å®¶åºŃ
ç¥ ¸
éĢłæĪĲ è´ŁéĿ¢å½±åĵį
åı¯ä»¥è¢« å½Ĵç±»ä¸º
æľ´ç´ł è´Ŀåı¶æĸ¯
çļĦ æĳĺè¦ģ
çī º
æĹ¶ è£ħ
ç¤¾ä¼ļ è´£ä»»
ãĢĤ ï¼Ī
æľī å¤ļç§į
å¼Ģ æĭĵ
ä½ĵéªĮ åĪ°
çļĦçķ Į
çļĦ ç»ĨèĬĤ
å¦Ĥ æľī
æīį æĺ¯
is t
æłĩå¿Ĺ æĢ§
æķıæĦŁ ä¿¡æģ¯
æĹ¥ç¨ĭ å®īæİĴ
æĹłå°½ çļĦ
7 2
è½¦ éģĵ
åı° é£İ
ä»įçĦ¶ åŃĺåľ¨
W i
åĴĮ èĩªçĶ±
å®ŀçİ° åı¯æĮģç»Ńåıĳå±ķ
éļıçĿĢæĬĢæľ¯çļĦ ä¸įæĸŃè¿ĽæŃ¥
ä½¿çĶ¨ åı¯åĨįçĶŁèĥ½æºĲ
æ°´ é¾Ļå¤´
èī² ç´ł
çĥŃ èĥ½
çļĦ åĲįç§°
æĽ´ åħ·æľī
äº¤ åĵį
æľīçĿĢ å¹¿æ³ĽçļĦåºĶçĶ¨
ä¸Ŀ ç»¸
Ġ å°Ŀè¯ķ
èĢĮ è¿ĻäºĽ
ç§ĳåŃ¦ çļĦ
çŃĸçķ¥ åĴĮ
éłĲ æ¸¬
äºº æĸĩ
å¯¹ è¿ĻäºĽ
å¹¶ è¢«
å±± é¡¶
ç¡®å®ļ åĵªäºĽ
åĪĩ çīĩ
éģİ ç¨ĭ
éĺ´ å½±
åł ±
æķ°çĻ¾ ä¸ĩ
è¿Ľè¡Į äº¤äºĴ
å¦Ĥä½ķ å½±åĵį
æ°ĳ äºĭ
è®¡ç®Ĺ èµĦæºĲ
æ³¢ éĤ£
è¿Ŀæ³ķ è¡Įä¸º
çīº çī²
çĦ ¯
æĽ´åĬł æ·±åħ¥
éĩįè¦ģçļĦ å½±åĵį
AIæĬĢæľ¯ åľ¨
åİ¿ äºº
æľīè¶£ åĴĮ
æĪ·å¤ĸ è¿ĲåĬ¨
ä»ĸ åĨ³å®ļ
èĭ¹æŀľ åħ¬åı¸
èİİ å£«
è®® åĳĺ
èº«ä½ĵ ç´łè´¨
èĢĮ æĿ¥
æĿ¾ å¼Ľ
æĪĳä»¬ æŃ£åľ¨
æįķ é£Ł
æ¿ĢçĥĪ çļĦ
çĽ¸ éĹľ
æľĢç»Ī çļĦ
æ°ĶåĢĻåıĺåĮĸ çļĦå½±åĵį
éŁ³ ç®±
åĴ¨è¯¢ åĮ»çĶŁ
çĽĨ æł½
äºĶèĬ± èĤī
éľĢè¦ģ ä¿ĿæĮģ
æĶ¾ å¿ĥ
ä¸¤ä¸ª åı¥åŃĲ
å½Ĺ æĺŁ
æ³¢éĤ£ å¥ĳ
äºĨ ä»ĸ
è¿ĻäºĽ æĮĳæĪĺ
èĦ ¾
ç¿ ģ
åģļåĩº æĽ´å¥½çļĦ
æ·»åĬł åĪ°
èĸĦ èį·
çĮİ çī©
æĭ Ń
åı² ä¸Ĭ
åĵģå°Ŀ åĪ°
åľ¨ ä½ł
éĺ³åħī åĴĮ
é²ľ å«©
æĹħæ¸¸ èĥľåľ°
åĨľ ä½ľçī©
åŁºç¡Ģ ä¸Ĭ
æĿ¯ ä¸Ń
å²Ľ ä¸Ĭ
éĢĿ ä¸ĸ
4 3
ä¸Ń æĿ¥
éĥ½ å°Ĩ
éĻ· éĺ±
èİİå£« æ¯Ķäºļ
å¤į åı¤
æĸĲ æ³¢éĤ£å¥ĳ
ç´ł æĿĲ
ä¸ªäºº åĴĮ
åĴ Ļ
æĪĳ æĦŁåĪ°
æĤ¨ è®¤ä¸º
çĥ «
àµ į
æĮ £
ä¼ł å¥ĩ
é¦ĸ éĥ½
æĬĬ è¿ĻäºĽ
åĳ¼ æ°Ķ
éª¨ å¤´
ä¼ļ è®¡
åĪ¶ åĬ¨
åĨ³ å®ļçļĦ
ä¸Ģå®ļ ç¨ĭåº¦ä¸Ĭ
å°ı åŃ¦çĶŁ
æľĢ æľī
éĹ®é¢ĺ æĺ¯
èº«ä½ĵåĴĮ å¿ĥçĲĨåģ¥åº·
éĢĤ ä¸Ń
æ¸ħ æĺİ
è¿ģ ç§»
Ġ J
æ²ŁéĢļ æĸ¹å¼ı
æĬ ĸ
åħī è°±
ä»¥ä¸ĭæĺ¯ä¸ĢäºĽ åħ³äºİ
äº¬ éĥ½
ç®Ģåįķ èĢĮ
è¯´ çļĦ
ç¤¼ åĵģ
åĸī åĴĻ
éĺ²çģ« å¢Ļ
ä¸į äºĨ
äºĭ åģļèµ·
æī¾ ä¸Ģä¸ª
èĥ½ åĪĨåĪ°
æį® è¯´
ä¼ł æŁĵ
æ¸¸ è®°
è´Ń æĪ¿
å¯¹è¯Ŀ çļĦä¸»è¦ģåĨħå®¹
æķı éĶĲ
å¤ļ æĸ¹éĿ¢
ä»»åĬ¡ æĹ¶
åħ¶ä»ĸ äººçļĦ
åĪĽæĦı åĴĮ
èĪ¹ åıª
éĿŀå¸¸ åĸľæ¬¢
å¸Ĥåľº ç«ŀäºī
å¼± åĬ¿
è¿Ŀ è§Ħ
æĿŃ å·ŀ
å¯¹ èº«ä½ĵ
æ´»åĬ¨ çŃī
åľ¨è¿Ļä¸ª ä¾ĭåŃĲä¸Ń
åı¯ æī©å±ķ
çļĦç Ĩ
è¯Ń æĸĩ
ä»¥ä¸Ĭ å¯¹è¯ĿçļĦä¸»è¦ģåĨħå®¹
å±Ģ éĥ¨
è¯·æĢ»ç»ĵ ä»¥ä¸Ĭå¯¹è¯ĿçļĦä¸»è¦ģåĨħå®¹
a p
Ġ åŁºäºİ
æĺ¯ä¸Ģ æ¬¡
å®ĥä»¬ ä¼ļ
æª ¢
åĴĮ åĩıå°ĳ
å®ĥ åĢĳ
è» į
ä¹ĭéĹ´çļĦ è·Ŀç¦»
ç»ĵæĿŁ ä½įç½®
Â ¥
ä¸Ģ æĸ¹
å¹¶ å¢ŀåĬł
åĮĹ æĸ¹
å¤įæĿĤ åĴĮ
éĶĢåĶ® æķ°æį®
å°į æĸ¼
ä»ĭ è´¨
å¤ªç©º ä¸Ń
åĪĨæķ£ æ³¨æĦıåĬĽ
æ³¡ æīĵç²ī
åĴĮä¸į è¶³
çĽĸèĮ¨ æ¯Ķ
äºī åĲµ
èĦļ æŃ¥
çļĦ çĽ®çļĦæĺ¯
è¿Ļ ä¸¤ç§į
å·¥ä½ľ å²Ĺä½į
è·Ł éŀĭ
an s
Ċ ĠĠĠĠĠĠĠĠ
çļĦ æķĻèĤ²
ä½Ĩ å¦Ĥæŀľ
ç»Ļ ä»ĸ
E R
åı¯ä»¥ æĶ¹åĸĦ
åĲĮ æŃ¥
å¹´ è¢«
è¿Ļä¸ª é¡¹çĽ®
å¾® é£İ
æķ°æį®åĪĨæŀĲ åĴĮ
çļĦ åıįåºĶ
éļ Ľ
éħ¥ èĦĨ
Ġ æľī
çļĦ å¹³åĿĩ
æ³ķ å¼ı
é» ı
äºĨè§£ ä½łçļĦ
ä»¥ä¸ĭæĺ¯ åħ¶ä¸Ńä¸ĢäºĽ
å¾¡ åı²
n e
ä¿Ŀ æ¹¿
ä½Ĩ å¥¹
æĪĲ çļĦ
åĩĨç¡® åº¦
æĿ¥ ä¼ĺåĮĸ
ä½Ĩ ä»ĸä»¬
çľĭ ä½ľ
åĵ²åŃ¦ å®¶
å½ Ń
åĿļ å®ŀ
ä»¤äºº åħ´å¥ĭ
çļĦ æĻºèĥ½
ç³ĸ éĨĭ
åºķ èķ´
çĶµè§Ĩ æľº
åı¯ä»¥å¹«åĬ© æĤ¨
ç®Ĺæ³ķåĴĮ æ¨¡åŀĭ
å¸¸ æķ°
èĩ³ éĩĳé»Ħèī²
å¸ ħ
çļĦ åĲĦç§į
åıĳçİ° èĩªå·±çļĦ
çĨ Ķ
ç»Ļåĩº åħ·ä½ĵçļĦ
éķĩ åĮº
åķ¦ åķ¦
æµģ éĢļ
æ·± è¹²
æĽ´æ·±åħ¥ çļĦ
é«ĺ ç§ĳæĬĢ
éĢīæĭ© åĲĪéĢĤ
å½¢ åĬ¿
ä¾µ æĿĥ
èĩªæ²» åĮº
çŃī è®¾å¤ĩ
åĲĪ çº¦
ä¸ºäºĨ ä¿ĿæĬ¤
çĶľ èľľ
Ð½ Ð¸
çļĦ æĢ§èĥ½
çļĦ æľĢå¤§
ä¸į å¼Ģ
æ¢¦ å¢ĥ
çļĩ å®¶
çļĦçı į
åĵģçīĮçŁ¥åĲį åº¦
å¹¶ ä¿ĥè¿Ľ
ä¹ĭ éĸĵ
å®ĥä»¬ èĥ½å¤Ł
æĶ¶éĽĨ åĪ°
åĽº ä½ĵ
199 5
çļĦç¬¬ äºĮ
å¿ħä¸įåı¯ å°ĳçļĦ
ä¸º x
éĹ® åĢĻ
æł¹æį® ä¸įåĲĮçļĦ
åįł çĶ¨
æ½ľåľ¨ çļĦé£İéĻ©
æĪĲå°± æĦŁ
æ¼Ĥäº® çļĦ
éķ¿é¢Ī é¹¿
åı¯ä»¥ ä½ľä¸º
å¤§ å¸Ī
æķħ ä¹¡
æ£ĭ åŃĲ
å¸¸ è¯Ĩ
åº§ æ¤ħ
æĢ§ ä»·
åıĳçİ° äºĨä¸Ģä¸ª
å°ı çĨĬ
åħ¬ å°º
å¯¹åºĶ çļĦ
è¿ĩ å¤§
æıĲä¾Ľ æľīåħ³
åĪ¶å®ļ çĽ¸åºĶçļĦ
ç»Ļåĩº çļĦ
çİ°éĩĳ æµģ
åĪĽå§ĭ äºº
æĪĸèĢħ åħ¶ä»ĸ
é£ŀ èĪ¹
æĭ¿ çĿĢ
çļĦçľŁ æŃ£
è¿Ľ é£Ł
è´Ł è´£ä»»
è¯¸ å¦Ĥ
æ°´ æµģ
èįī åĿª
éĴĪå¯¹ æĢ§
çļĦ è¯ĹæŃĮ
èĩª åĬ©
éľĢè¦ģ æĶ¹è¿Ľ
å¾Ī æ£Ĵ
åįģ äºĶ
æµĭè¯ķ åĴĮ
å¸Ĥ éķ¿
å®īåħ¨ æİªæĸ½
ç®¡çĲĨ æĹ¶éĹ´
æķĻèĤ² é¢ĨåŁŁ
åı¯ä»¥ è®ĵ
ä¸Ń ä¿ĿæĮģ
å± ĳ
ä½ł æľĢåĸľæ¬¢çļĦ
è¿Ļä¸ª æĸĩæľ¬
èª¿ æķ´
Ġ ä¸Ģä¸ª
æīĢ å±ŀ
æĹ¢ æľī
åħ¨çĲĥ æ°ĶåĢĻ
åī§ éĻ¢
å¯¹çİ¯å¢ĥçļĦ æ±¡æŁĵ
h t
åľ¨æľªæĿ¥ çļĦåıĳå±ķ
çļĦä¸»é¢ĺ æĺ¯
è¿Ļé¡¹ æĬĢæľ¯
çº¿æĢ§ åĽŀå½Ĵ
ç²ī èī²
äººåĳĺ çļĦ
æ²ī é»ĺ
è¦ģ æĥ³
åıĳ è¨Ģ
è®Ńç»ĥ åĴĮ
å¹¸ è¿Ĳ
ä½¿åħ¶ æĽ´åĬł
åĲİ åĨį
ä½Ĩ æĪĳåı¯ä»¥
åīį æīĢæľª
åĩĢ åĪ©æ¶¦
ç»¿èī² èĥ½æºĲ
æĺ¯ æıĲé«ĺ
ä¸ºäºĨ éģ¿åħį
Ġ é¸¡èĽĭ
æĽ´ é«ĺæķĪåľ°
åĩº èº«
æ°´ æĻ¶
æıĲä¾Ľ åĲĦç§į
åĲį äºº
æĬ¤ å£«
éĢŁ çİĩ
ç©¿ æĪ´
æııç»ĺ äºĨ
æĮ«æĬĺ åĴĮ
à¤ ¨
èĢ ķ
ç´§ åĩĳ
åŃ¤ åįķ
çİ«çĳ° èĬ±
åľ¨ å¤§
æĪĸ çŁŃè¯Ń
è®® ç¨ĭ
åĴĮæķ°æį® å®īåħ¨
æĩĤ å¾Ĺ
0 5
çļĦ åħ³æ³¨
äº ¨
çī¹ æĸ¯æĭī
åĪĹ ä¸º
åİĨåı² ä¸ĬæľĢ
ç®Ģåįķ åľ°
è¿Ľè¡Į ä¼ĺåĮĸ
è¯¥ ç³»ç»Ł
äºĭ åıĳ
æĳĦ åıĸ
éĽ· è¾¾
æľī ä½ķ
è½ ī
åĽłç´ł ä¹ĭä¸Ģ
ä¸ĵæ³¨ åĬĽ
èĨĿ çĽĸ
åŃ¦ä¹ł æĸ°çļĦ
ç³»ç»Ł çŃī
èĲ½ ä¸ĭ
æĪĳä¼ļ èĢĥèĻĳ
çļĦç¿ »
åİŁåĽł æĺ¯
åľ¨ äºĨ
éĿŀå¸¸ å¤§
äºĮ æĪĺ
åįģ ä¸Ģ
åįİ ä¸½
Ñģ Ðº
è¡ĮæĶ¿ åĮº
ä¾¦ æŁ¥
éĶ¦æłĩ èµĽ
åħ¶ ä½Ļ
å°ıæĺİ å®¶
å®Ŀ è´µçļĦ
an t
Â °
åĪ ®
éľĢè¦ģ å®ļæľŁ
å¥¶ æ³¡
æ½ľ åĬĽåĴĮ
åĴĮ é£İæł¼
ç¾İ å¦Ļ
å·§åħĭåĬĽ èĽĭç³ķ
è¿ĩæ»¤ åĻ¨
I D
â ĸ
è¿ĩ é«ĺ
å·²ç»ı æľī
è·Ł æĪĳ
æķ°æį®è¿Ľè¡Į åĪĨæŀĲ
ä¸Ń èį¯
æŃ£ æĺ¯
è¿Ļä¸¤ä¸ª åı¥åŃĲ
ç¬Ķè®°æľ¬ çĶµèĦĳ
D avid
or d
èĳ£ äºĭ
ç» ½
æĿ¥ æĶ¹åĸĦ
ä¸»è¦ģ çĶ±
é¢Ĺ ç³ĸ
éĿ¢ç§¯ ä¸º
ä½¿çĶ¨ ä¸įåĲĮçļĦ
çĽ¸ è¿ŀ
å¹³ ç¨³
çª Ħ
åħ¨çĲĥ æĢ§
éĢĥ éģ¿
æ´ĭèĳ± åĴĮ
åı¯ä»¥ æ»¡è¶³
ä¸º äºº
æ¸ħ åĩī
çĽ İ
ä¸ĢäºĽ å°ı
éĺ³ å¸Ĥ
è®¤ä¸º æĺ¯
éĢ ¢
ä¼ļ åıĳçĶŁ
è¥¿ è£ħ
å¥³ ä¸»è§Ĵ
é¼ĵ èĪŀ
éĢĤåºĶ æĸ°çļĦ
åĪĿ åĪĽ
æĸĩçī©ä¿ĿæĬ¤ åįķä½į
è¯· è®°ä½ı
çŁ¥åĲį çļĦ
åľ¨ èĩªçĦ¶è¯Ńè¨Ģå¤ĦçĲĨ
çĶŁ æ°Ķ
ç§ĳ çłĶ
å»ºçŃĳ é£İæł¼
ä½ı äºĨ
æľºåĻ¨äºº æĬĢæľ¯
æĥ³æ³ķåĴĮ æĦŁåıĹ
ä¸ºäºĨ ç¡®ä¿Ŀ
è¶ĬæĿ¥è¶Ĭ éĩįè¦ģçļĦä½ľçĶ¨
è°Ī è¯Ŀ
æĤ¨ å°Ĩ
ä¹łæĥ¯ åĴĮ
ç²® é£Ł
è¿· äººçļĦ
å¹¶ æľª
å¹³è¡¡ åĴĮ
éĺ³åħī ä¸ĭ
é«Ķ é©Ĺ
Ġ æĿ¯
ä¹¦ ä¸Ń
æ¯ıä¸ª å°ıæľĭåıĭ
ä½ľä¸º AIè¯Ńè¨Ģæ¨¡åŀĭ
ä¸Ģä¸ª å¤§
åı² ä¸ĬçļĦ
è¡¨è¾¾ å¯¹
åĿļ å®ļçļĦ
è¿Ļæ®µ æĸĩåŃĹ
æł¹æį®ä»¥ä¸ĭ æĸĩæľ¬
æĺ¯åĲ¦ ä¸º
è®¡ç®Ĺæľº ç³»ç»Ł
åŀĥåľ¾ å¤ĦçĲĨ
æİ¢éĻ© å®¶
çĶŁ å§ľ
åĥ¹ åĢ¼
ç¾İ å¦ĻçļĦ
èĩªåĬ¨ è°ĥæķ´
æĦıä¹ī çļĦ
ä¸Ģèĩ´ æĢ§
Ġ æĸ°
æĻ ĥ
éĻ Ģ
åıĤä¸İ åº¦
çĶµåĬ¨ è½¦
éĽĩ ä½£
åĮ ł
ä½ĵ çİ°åľ¨
è¯¦ç»Ĩ åĽŀçŃĶ
èĬĿ éº»
è³ĩ æºĲ
5 4
çĶŁ æĦı
æĶ¾åħ¥ éĶħä¸Ń
ç·´ ç¿Ĵ
çļĦ åĵģè´¨
æĢ ¡
æĹ¶éĹ´ ä¸º
ç¼ ¸
æµ· ä¸Ĭ
æŀģ å¤§
éłĺ åŁŁ
åľ¨ ä¸Ģ
äº¤éĢļ æµģéĩı
å¤« å¦ĩ
Ġ æ·±åĳ¼åĲ¸
èİ·å¾Ĺ æĽ´å¥½çļĦ
Ð ±
æ¸© æ³ī
å¾· éĩĮ
å´ ĸ
å¼ķåıĳ äºĨ
Ġ å®ŀæĸ½
åĴĮ æĸ°
ä¹ĭ åĴĮ
æľįåĬ¡ äºİ
åĭ ĺ
åŁİå¸Ĥ ä¸Ń
é»ĳ çĻ½
æī¹ ç¤º
è½¬åĮĸ çİĩ
æīĵ çĶµè¯Ŀ
æľĢåĲİ ä¸Ģ
è¡ĮåĬ¨ èµ·æĿ¥
çļĦç«ŀäºī å¯¹æīĭ
Ġ åĹ¯
æĺ¯ ä½ł
æĭ ¾
èĩªçĶ± åľ°
æĺ¨ æĻļ
âĢ ĺ
éĥ½æľīåħ¶ çĭ¬çī¹çļĦ
Ġ çĦ¶åĲİ
Ġ çĿ¡çľł
éľĢè¦ģ åĬłå¼º
åĽŀ åĪ°äºĨ
ç»ķ çĿĢ
ç»³ åŃĲ
çļĦ éĤ£
æĪĳä»¬ çŁ¥éģĵ
å¹¶ è¯´æĺİ
ä¾Ľ åıĤèĢĥ
äººå·¥æĻºèĥ½ åºĶçĶ¨
éĢīæĭ© åĵªç§į
æıĲä¾ĽäºĨ ä¸ĢäºĽ
éªĳ å£«
Ġ åĪĽéĢł
åĴĮ è¿ĲåĬ¨
çĶ¨ æ³ķ
ä¸º æ¯ıä¸ª
AI ç³»ç»ŁçļĦ
çģ« çĦ°
çıį è´µ
çļĦç¥ Ŀ
åĽłæŀľ åħ³ç³»
éĢļ è´§
è®© æĽ´å¤ļçļĦäºº
éľ² èĲ¥
Ġ ë
ä½Ĩæĺ¯ å®ĥä»¬
éĺ² æ²»
åĴĮ éĿŀ
ä¸ĸçķĮ å¤§æĪĺ
å°¼ è¥¿äºļ
è¿Ļæĺ¯ä¸Ģ éģĵ
æķ° åįģ
éĴ ī
ä»¥ä¸Ĭ å°±æĺ¯
ä»Ķç»Ĩ éĺħè¯»
çİĭ åŃĲ
é¼ĵåĬ± ä»ĸä»¬
åĴĮ ç²¾ç¥ŀ
è¡¨çİ° ä¸º
æŃ¦ æ±ī
çļĦ éĻĲåĪ¶
èĩª å®ļä¹ī
å¹¶ äºİ
çĸ¾çĹħ è¯ĬæĸŃ
åįł æľī
æĭ¼ åĽ¾
çĻ¼ çı¾
ä¾ĽåºĶéĵ¾ ç®¡çĲĨ
ç³» æķ°
ä»¥ä¸ĭ æĸ¹æ³ķ
ç§¯æŀģ çļĦæĥħæĦŁ
èĬĤå¥ı åĴĮ
å°ı çĶ·åŃ©
äºĨä¸Ģ é¡¹
å·´ å·´
ä¹Ŀ å¹´
æīŃ æĽ²
Ġ {
æĽ´ åģ¥åº·
çļĦæĹ¶éĹ´ è¡¨
çļĦ æŃĮæĽ²
åĩº åı°
å¤ª æŀģ
äºº éĢł
å®ĥ å¯¹
æĻºèĥ½ åĮ»çĸĹ
åı¯èĥ½ä¼ļ éĿ¢ä¸´
åĵªäºĽ æĸ¹éĿ¢
åĨĴ æ³¡
çľĭ ä¼¼
åİĨåı² æĸĩåĮĸ
éĺ² æ°´
æİ¢ç´¢ æĸ°çļĦ
è¾ĸ åĮº
åĢ¼å¾Ĺæ³¨æĦı çļĦæĺ¯
å®¢æĪ· åħ³ç³»
å¥¥ æŀĹåĮ¹åħĭ
ä¹Ĳ éĺŁ
å¤± æİ§
å¸¦æĿ¥ è®¸å¤ļ
çļĦä¸Ģ åº§
Ġ ç¤¾äº¤
å¼Ģ äºĨ
æıĲé«ĺ æķĪçİĩåĴĮ
æİ¥ åı£
çļĦåİĨåı² åĴĮ
éĿ¢ åĴĮ
éª ļ
AI åı¯ä»¥éĢļè¿ĩåĪĨæŀĲ
T F
èĪ ±
Ø§ Ø
ç£¨ æįŁ
åĪĨ å·¥
èĥ½å¤Ł çĲĨè§£
æ¿Ģ æ´»
è¡¨æĺİ äºĨ
æĮīæĹ¶ å®ĮæĪĲ
æĿ¥ è°ĥæķ´
è¯· ä½ł
èĲ½ åľ°
æľºåĻ¨åŃ¦ä¹łåĴĮ æ·±åº¦åŃ¦ä¹ł
å¼ķäºº æ³¨
æĿ¥ åĲ¸å¼ķ
çĶµ çº¿
çłĤ ç³ĸ
çļĦ æĥ³æ³ķ
åĪ° ä¸Ģä¸ª
æıĲ èµ·
è¿Ľ çĲĥ
åĪĩ å®ŀ
æ¯Ľ å·¾
5 8
æį® äºĨè§£
è¿Ļç§į çİ°è±¡
åĪĽæĸ° èĥ½åĬĽ
ä¸Ģ ä»£
çº º
åĲİ åĬłåħ¥
åķ ¸
AIæĬĢæľ¯ çļĦåºĶçĶ¨
ä¹Łä¼ļ å¯¹
1 10
åŃ¦ ä¸ļ
å¤ļ å±Ĥ
å¿ĥçĲĨ çĬ¶æĢģ
å§Ķ ä¹¦è®°
ç¦»å¼Ģ äºĨ
B M
u e
éĶ ¤
è¿Ļå¹ħ çĶ»
çļĦ èģĮä¸ļ
çļĦ å¤ĸè§Ĥ
åĸ §
æł· å¼ı
é£ŁçĶ¨ æ²¹
åĤ³ çµ±
çªģåıĳ äºĭä»¶
5 7
æıĲ åıĬ
éĥ¨ éĺŁ
åĲĦ ç¨®
èĢĮ è¢«
éĢģ ç»Ļ
éĿ¢å¯¹ éĿ¢
D P
çļĦ æĹ¶åĪ»
æĮ ª
æĹł çĸĳ
åľ°çĲĥ èĩªè½¬
æļĤ æĹ¶
æĿ¥ èİ·åıĸ
æķ°æį® å®īåħ¨
åħ·æľī éĩįè¦ģ
éĻĦ åĬł
çļĦ è´£ä»»
å¤© åľ°
åı¯ä»¥å¹«åĬ© ä½ł
ä¸º èĩªå·±
æľĪ åħī
åĲ¬ åĪ°äºĨ
å¸ĮæľĽ æĤ¨
é©¬ éĩĮ
åĤ¨ çī©
Ġ æĶ¯æĮģ
å½ĵ ä¸ĭ
æ·± èī²
æĺł å°Ħ
åĢŁ éī´
å¦Ĥæŀľ ä¸į
æ·± åº¦åĴĮ
æııè¿° å¦Ĥä½ķ
åĲ ¾
ä¸Ń éĢīæĭ©
ä¿ ±
æ°Ķ è´¨
çİ¯ä¿Ŀ çļĦéĩįè¦ģæĢ§
æķ°åŃĹåĮĸ è½¬åŀĭ
ä¸Ģ è·¯
ä¸ª æķ°
æĪĳä»¬ æ¯ıä¸ªäººéĥ½
èĥĮ éĥ¨
å½ĵåľ° å±ħæ°ĳ
åı³ ä¾§
Î µ
èĥ½å¤Ł æıĲé«ĺ
èĢģ æĬ½
ä¸Ń éĿŀå¸¸éĩįè¦ģçļĦ
ä½¿ äºº
æ¬ºè¯Ī è¡Įä¸º
I P
Ġ in
æĶ¶ è´¹
ä¸Ģ åı°
æĭ ±
åĪĨ åŃĲçļĦ
å¤© ä¸ĭ
ç±³ çļĦ
è¿Ļå°Ĩ ä½¿
éĴ» çŁ³
æŁĵ èī²
è¾¹ éķ¿
æ¤įçī© çĶŁéķ¿
çļĦå·¥ä½ľ çİ¯å¢ĥ
åı¯èĥ½æĺ¯ çĶ±äºİ
åı¯éĩįå¤į ä½¿çĶ¨çļĦ
æ³ĽåĮĸ èĥ½åĬĽ
e e
åı¯ä»¥ äºĨè§£
å¼Ģ è®¾
ä¸įä¼ļ è¢«
åĿĩåĮĢ åľ°
è¿Ļç¯ĩæĸĩç«ł ä¸Ń
åľ°éĿ¢ ä¸Ĭ
åĴĮ æĦŁåıĹ
éĴ ©
æĤ£ çĹħ
éħįå¤ĩ äºĨ
åģļåĩºæĽ´ æĺİæĻº
ä½¿çĶ¨ AIæĬĢæľ¯
è´¨ çĸĳ
èĩªçĦ¶ çİ°è±¡
åĲ¸å¼ķ åĬĽçļĦ
æ°´æŀľ åĴĮ
Ø§ ÙĨ
å¾Ģå¾Ģ ä¼ļ
å½Ĵå¹¶ æİĴåºı
o v
åľ¨ ä»ĸ
ãĢĭ -
æııè¿° ä¸º
é£Łåĵģ å®īåħ¨
Ñ ħ
åıĤåĬł äºĨ
è¿ĻéĩĮ æľī
çŃ¾ è®¢
A R
è¯· ç¡®ä¿Ŀ
Ġ åģļ
Ġ å¦Ĥä½ķ
èĪ Ī
åĪ¤ å¤Ħ
é¥± åĴĮèĦĤèĤª
Ġ å®īè£ħ
æĮĩ å¼ķ
æŃĮ åĶ±
çļĦåľ° ä½į
å°Ī æ¥Ń
éģĵ çļĦ
æ¯Ķ åĪĨ
éĶĢåĶ® æ¸łéģĵ
æĺ¥ å¤©çļĦ
æľī å¸®åĬ©
ä½İ èĦĤ
äº® çĤ¹
è¡ĮæĺŁ çļĦ
çĵ¶ é¢Ī
æĸĩæĺİ çļĦ
Ġ åħ¶ä»ĸ
ä»İèĢĮ å¸®åĬ©
æ°ĶåĢĻåıĺåĮĸ çļĦ
è£Ķ ç¾İåĽ½
] ï¼Į
Ķ ×
å°Ĩ äºİ
æłĳ ç«ĭ
çĽ¸å½ĵ äºİ
èĩªçĦ¶è¯Ńè¨Ģå¤ĦçĲĨ æĬĢæľ¯æĿ¥
çļĦç¨³å®ļ æĢ§åĴĮ
ä»² è£ģ
å¾ħ åĬŀ
æĭ¿ åĩº
åĪ¶ çļĦ
æ¯ı ä¸Ģä¸ªäºº
äºĨä¸Ģ åıª
éķ¿æľŁ æĬķèµĦ
åĺ´ å·´
åĴĮ åĪ©çĶ¨
ä¹Ł è¢«ç§°ä¸º
ç»ıéªĮ ä¸°å¯Į
åĴĮ èº«ä½ĵ
åĪĽéĢł äºĨ
è¶ħè¿ĩ äºĨ
ä¸§ å¤±
æį® æĤī
å£° æĺİ
å¹¶ç»Ļåĩº è¯¦ç»ĨçļĦ
éĹ® æĪĳ
æıĲä¾Ľ è¶³å¤ŁçļĦ
åĳ¨ äºĶ
éĿĻ éĿĻ
ç¼ĵè§£ çĦ¦èĻĳ
æĦıæĢĿ æĺ¯
çļĦçĹħ æĥħ
äºĮ æīĭ
åı¯ä»¥è¢« åĪĨç±»ä¸º
æİĴ æĸ¥
æ¬¢ å¿«
éĤ£ä¹Ī å®ĥ
è®© å®ĥä»¬
åĬ¡ å¿ħ
äººå·¥æĻºèĥ½ åıĳå±ķ
äººä»¬ å¯¹äºİ
èµ° åĩº
åĨ³çŃĸ åĴĮ
çļĦç½ ª
ĠÙ Ī
çĶµåķĨ å¹³åı°
å¸¦æĿ¥äºĨ å¾Īå¤ļ
æľªç»ı æİĪæĿĥ
åĴĮ åĬªåĬĽ
æķ° çĽ®
å¤ļ ä¹Ī
éĥ¨ çĶµå½±
æĺ¯ å»ºç«ĭ
åľŁ èĢ³
èģĮä¸ļ è§ĦåĪĴ
è¯¦ç»Ĩ ä¿¡æģ¯
å¥¥ ç§ĺ
à¯ į
ä¹ĭ ç¾İ
ä½¿çĶ¨ åĴĮ
åŃ¦ä¹ł ä½ĵéªĮ
è¯¥ æĸĩç«ł
ä¸ŃçļĦ ä¸Ģç§į
éĩĳ é»Ħ
å½ĵåľ° ç¾İé£Ł
äººå·¥æĻºèĥ½ åı¯ä»¥çĶ¨äºİ
æ²Ļæ»© ä¸Ĭ
å¤§ åį«
å¾Ī ä¸įéĶĻ
çļĦç¾İ åĽ½
è§£åĨ³éĹ®é¢ĺçļĦ èĥ½åĬĽ
åı¯ä»¥ å¾Ĺåĩº
å¸Ĥåľº åıĺåĮĸ
èĲ¥éĶĢ æ´»åĬ¨
ä¼ĺåħĪçº§ æİĴåºı
æĢ§è´¨ åĴĮ
å°Ĩ å¯¹
å¼Ģ æľĹ
å¤ĸ éĿ¢
åĩı å°ı
ä»Ĭ æĹ¥
æ´» åĬĽçļĦ
ä¹Ĳ è§ĤçļĦ
éĢĤåĲĪ çļĦ
èŃ¦ è§ī
çļĦçĥ¤ç®± ä¸Ń
éľĢè¦ģ ç¡®ä¿Ŀ
à¦ °
5 2
éĶ® çĽĺ
èº«ä»½ è¯ģ
å°± è¦ģ
åļ ¼
å¤ļ åĬŁèĥ½
é«ĺ å±±
åĿ İ
èŀº ä¸Ŀ
ï¼ļ <|
æĪĳ èĥ½
ä¹Ł æĪĲä¸ºäºĨ
åĪĨæŀĲ çŃī
æĦŁ åı¹
éľĢè¦ģ èĬ±è´¹
æĤ¨ æĥ³è¦ģ
é¹ ¤
åı¯çĶ¨ æĢ§
Ġâī Ī
Ġ æĶ¹åĸĦ
ä»¥ä¾¿ æĤ¨åı¯ä»¥
è´Ńçī© æ¸ħåįķ
Ġ ç»Ļ
é«ĺ åİĭ
è¿Ľè¡Į å¤ĦçĲĨ
æµģ ä¼ł
éĩĳ èī²
åĲĮ æĥħ
æıĲä¾Ľ å¿ħè¦ģçļĦ
ç§ĺ ä¹¦
èĮĦ åŃĲ
åı£åĳ³ çļĦ
çĲĥ åľº
æŃ¤ åĲİ
ç§ĳæĬĢ è¿ĽæŃ¥
çļĦ ç§įç±»
éª Ħ
äººå·¥æĻºèĥ½æĬĢæľ¯ åľ¨
éĢ® æįķ
åĴĮ æľĢ
ä½Ĩ æĪĳä»¬
æŁĲ ä¸Ģ
æıĲä¾Ľ åķĨ
ç¾İä¸½çļĦ æµ·æ»©
Ġ æİ¥åıĹ
çģµ éŃĤ
ç«¹ åŃĲ
äºº æĪĸ
æľī ä»¥ä¸ĭ
åİ» çļĦ
çŁ¥è¯Ĩ çĤ¹
éº» å©Ĩ
Ġ Y
æĸ¹ è¨Ģ
è®º çĤ¹
è¿ĲåĬ¨ æĸ¹å¼ı
è¿Ļæ®µ å¯¹è¯Ŀ
é¸ ¿
çĿ¡ åīį
æĽ¿ä»£ åĵģ
çļĦ ä¸¤ä¸ª
æĸ¹ ä½į
çļĦäººéĻħ åħ³ç³»
å®ĥ åħ·æľī
è¢« çĽĹ
çĶ¨æĪ· è¾ĵåħ¥
åħ´ èµ·
éĢīæĭ©éĢĤåĲĪ çļĦ
æıĲ çĲ´
ä¸į æ»¡æĦı
æĮĩ åĲĳ
çħ Į
åľ¨åĮ»çĸĹ é¢ĨåŁŁçļĦåºĶçĶ¨
ä½ł æīĢ
æ· ®
ä»Ĭå¤© æĺ¯
åĪĨå¸ĥ åľ¨
è´¦ åįķ
åŁºçĿ£ æķĻ
7 7
éĿ¢ ç³Ĭ
ä¸ĢäºĽ ç®ĢåįķçļĦ
åĲĦ æĸ¹
è·¯ çĶ±
èĬ¯ çīĩ
æ´ŀ ç©´
æĬ Ħ
ä¸į åıĬ
ä»¥å¸®åĬ© ä»ĸä»¬
å¤ĩåıĹ åħ³æ³¨
çĪ¬è¡Į åĬ¨çī©
çĶ¨ èĩªå·±çļĦ
åħ¶ å¯¹
ers on
çļĦçĻ ¼
ä¿® è¾ŀ
é¡º çķħ
ä¸įåĲĮ äºİ
à¸ µ
æĿ° åĩº
æ²ŁéĢļåĴĮ åįıä½ľ
é¥º åŃĲ
åľŁèĢ³ åħ¶
0 1
ä¸Ģ éģį
æĿ¥ è¯ĨåĪ«
çľĭåĪ° çļĦ
åľ£ è¯ŀ
å¤§ è¡Ĺ
æĶ¾ è¿Ľ
åĽŀæĶ¶ åĪ©çĶ¨
çĸ¯ çĭĤ
æĪĳ çİ°åľ¨
å¼ ĵ
å¹¶ åĪĨæŀĲ
ä½łçļĦ æĥ³æ³ķ
ä¸ĭ æĸ¹
åĽł çĤº
æĹ¥ è®¯
æľīå¾Īå¤ļ ç§į
åĭĩæķ¢ åľ°
çį ¨
éħµ æ¯į
Ġ X
èĩª å¾ĭ
æ³ķ è¯Ń
åģľ çķĻ
æĿ° åĩºçļĦ
ä¸İåħ¶ä»ĸ äºº
æľĢå°ı åĮĸ
è¤ ĩ
æĺ Ķ
åĪ» çĶ»
å°ļ ä¹¦
i k
åĴĮ äºĴåĬ¨
è¯· æıĲä¾Ľ
ç¤¾äº¤åªĴä½ĵ ä¸ĬçļĦ
åı¯ä»¥ å¯»æ±Ĥ
çĿĢ éĩį
åİĨåı² çļĦ
åį° èĬ±
çģĮ æºī
å¸ĸ åŃĲ
è¡¨è¾¾äºĨ å¯¹
çŃ Ŀ
ä¸į éĢĤåĲĪ
è¿ĻäºĽ æĬĢå·§
å§ ¬
åºŁ æ°Ķ
é»ĺ é»ĺ
åĴĮ è®¾å¤ĩ
åĪĨéħį æĹ¶éĹ´
æĪĳå°Ĩ ä¸ºæĤ¨
çłĶç©¶ çļĦ
æ°´å¹³ çļĦ
åĴĸåķ¡ æľº
è© ŀ
æĬµ å¾¡
åĴĮ æĦıä¹ī
æĿ¥ ç¡®ä¿Ŀ
åĵ¥ ä¼¦
ç° ¡
èĬ± çĵ£
å½Ĵ å±ŀ
åĲ¸å¼ķ çĿĢ
æ¸ħæ´Ĺ åĴĮ
æŀ «
å½ĵ ä¸Ģä¸ª
äºĨè§£ äºĨ
åĽŀçŃĶéĹ®é¢ĺ å¹¶ç»Ļåĩºè¯¦ç»ĨçļĦ
åĽŀçŃĶéĹ®é¢ĺå¹¶ç»Ļåĩºè¯¦ç»ĨçļĦ æİ¨çĲĨè¿ĩç¨ĭ
ä¸į èĪĴæľį
ä»ĸä»¬ ä¸Ģèµ·
å¢ŀ å¤ļ
æĮ ½
çļĦ ä¸ī
à¦ ¾
ä¿¡åı· çģ¯
Ġ æľ¬
æ·± å±Ĥæ¬¡
ä»Ģä¹Ī æĹ¶åĢĻ
å¤ļæł· æĢ§çļĦ
å´ İ
æĭĵ å®½
èıł èĲĿ
ä¸Ń éĺŁ
ä»ĸ è®¤ä¸º
å·¦ ä¾§
æ¼« éķ¿
å°½éĩı åĩıå°ĳ
åľ¨ åĪ¶å®ļ
æ² Ĳ
èĩªçĦ¶ åĴĮ
ä»·åĢ¼ çļĦ
é»Ħ å±±
é¢ĳ éģĵ
éĿĴ èĽĻ
éº»å©Ĩ è±ĨèħĲ
è½® å»ĵ
åĤ¬ åĮĸ
åľ¨ æ¸¸æĪıä¸Ń
åı¯ä»¥ å¤§å¤§
åºĶ èģĺ
éĽ £
æĶ¹ åĨĻ
å¹² è¾£æ¤Ĵ
å·Ŀ èıľ
åľ¨ æľ¬
è´ ¼
åľ° å¸¦
çº ¬
å®ĥ çĶ±
é¢Ħæµĭ æ¨¡åŀĭ
èŃ¦ æĬ¥
å¤© ä¸»æķĻ
ä»İ ç»Ļå®ļçļĦ
åı£ éŁ³
åĨį åĬłä¸Ĭ
ä»ĸ ä¹Ł
åĪ¶ å¤ĩ
ä»¥ä¸ĭ æĸĩç«ł
éĿ¢è¯ķ å®ĺ
çħ®çĨŁ çļĦ
æĤŁ ç©º
ç¾½æ¯Ľ çĲĥ
åĽł åŃĲ
ä»ª åĻ¨
å¦¹ å¦¹
ä¸Ģä¸ª å¥½çļĦ
è¿Ľè¡Į é¢Ħæµĭ
è§£æĶ¾ åĨĽ
éľĢè¦ģ æİĮæı¡
ä½¿çĶ¨ èĢħ
æĶ¾æĿ¾ èº«ä½ĵ
åŁ¹è®Ń è¯¾ç¨ĭ
è¿· å®«
éģŃ åĪ°
æĸ¹ æĸ¹éĿ¢
åİĨ ä»»
çĶŁäº§ è¿ĩç¨ĭ
åĨľ èį¯
éĹ ¯
çŃī çĹĩçĬ¶
æĪĳä»¬éľĢè¦ģ èĢĥèĻĳ
åį¡ å°Ķ
åĴĮ æĽ´æĸ°
æĦŁ çļĦ
ä»¥ä¸ĭæĺ¯ä¸ĢäºĽ å¸¸è§ģ
æīįèĥ½ çľŁæŃ£
çļĦ äºĭå®ŀ
åĴĮ ç®Ĺæ³ķ
è¿Ľè¡Į äº¤æµģ
åĪ¶å®ļ æĽ´åĬł
è¿· è·¯
çļĦ åĪĨæŀĲ
ä¹Ł åŃĺåľ¨
çĪ± å¿ĥ
èįī åľ°ä¸Ĭ
èĤº éĥ¨
èĢĮ å®ļ
æ¶ Ľ
èĥ º
äºĨä¸Ģ å®ļçļĦ
çļĦçĹĽ èĭ¦
f orm
è´ ŀ
èµ· ä¼ı
éĺ³åħī æĺİåªļ
çļĦ éľĢæ±ĤåĴĮ
åħ³ åį¡
åºĶè¯¥ æľī
å¤į ä»ĩ
åį³ æĹ¶
åĪ¶ä½ľ ä¸Ģä¸ª
è¶³å¤ŁçļĦ æ°´
è± Ĳ
å®ŀéªĮ ç»ĵæŀľ
è¿Ļ ç±»
ä¿ Ĥ
æĭĽ çīĮ
çķ¶ åľ°
åľ¨ ä»»ä½ķ
æĪĳ åıĳçİ°
äºĨ ä»ĸçļĦ
æ· ¹
è½¯ä»¶ å¼Ģåıĳ
M L
ä½ľ æĸĩ
æ¯Ķ çİĩ
çĻ½ äºĳ
åĽ¢éĺŁ å»ºè®¾
ä¹Łæĺ¯ éĿŀå¸¸éĩįè¦ģçļĦ
åĬłå·¥ é£Łåĵģ
4 1
åĴĮ åķĨä¸ļ
çĶ ¸
éħ ¿
è¢« åıĳçİ°
å¾Ĵ åĪĳ
äº¤åıī éªĮè¯ģ
å®ĥ ä½¿çĶ¨
åħ¶ä¸Ń åĮħåĲ«
èİ·å¾Ĺ çļĦ
è¢Ń åĩ»
é¢ ĩ
è®© åĳĺå·¥
å¿ł å®ŀ
æķ°æį® éļĲç§ģåĴĮå®īåħ¨
æ¸¸ çİ©
é¥® æ°´
åĪĨç±» æĸ¹å¼ı
æĭ¼åĨĻ éĶĻè¯¯
æĶ¯ä»ĺ æĸ¹å¼ı
æľĢå¤§ç¨ĭåº¦ åľ°
çļĦ åİŁçĲĨ
è® Ģ
èĬ Ń
æĢ§ä»· æ¯Ķ
éĢļå¸¸ æĥħåĨµä¸ĭ
æĮģç»Ń çļĦ
çļĦ çĶŁéķ¿
çĶ¨ æīĭ
å»ºè®® ä½¿çĶ¨
åºĶè¯¥ æł¹æį®
åĩıå°ĳ åŀĥåľ¾
æĲŃ å»º
æ¶² æĢģ
çļĦ æīĭ
æĪĳä»¬ ä¸Ģèµ·
å¥ĩ è¿¹
çļĦçĿ¡çľł æĹ¶éĹ´
é į
åĳĺå·¥ çļĦå·¥ä½ľ
èĦ¸ ä¸Ĭ
åĩı åİĭ
å¨ģ å°Ķ
Ñģ ÑĤ
è¿ĻäºĽ ç®Ĺæ³ķ
äººå·¥æĻºèĥ½ æĺ¯
ç· Ĵ
çļĦ å¹³æĸ¹
åı¯èĥ½ åľ¨
æĽ´åĬł æĻºèĥ½
ä½İ èĦĤèĤª
à¤ ¤
çİĭ æĺİ
è¡¨çİ° åĩºäºĨ
æ±Ł åįĹ
åĬł çıŃ
æĸ° é¢ĸ
åĪĽ åĬŀ
åĢį æķ°
æĪĳ æĺ¯ä¸ĢåĲį
äº§ çī©
éķ¿ å¤§
åįķ åĵģ
æĭ¥ æĮ¤
å¼Ģåıĳ åĩº
æľĢå¥½çļĦ æľĭåıĭ
æ¸ħ æ·¡
è¡¨çİ° å¾Ĺ
æ¤įçī© åĴĮ
éĢļè´§ èĨ¨èĥĢ
l a
æĽ´ åħ¨éĿ¢
çģ £
çģ ¿
åĲĦç§į ä»»åĬ¡
åıĤåĬł ä¸ĢäºĽ
è© ±
å¤§è§Ħæ¨¡ çļĦ
æ±Ĥ åĬ©
æ¯ıä¸ªäººçļĦ è´£ä»»
à§ į
å¥½ ä¸»æĦı
ä¹ĭ ä»¥
èµ¤ éģĵ
å¥¥æĸ¯ åį¡
I I
e b
çļĦ æĢĿæĥ³
æľĢ å¾Į
èĲ½ å®ŀ
æķ°æį® æ³Ħéľ²
ä¿¡ å¿ĥåĴĮ
ä½Ĩ åį´
åĿ į
å¯¹äººç±» ç¤¾ä¼ļ
å°ıçİĭ åŃĲ
æ¶ ©
å¯» å¸¸
ä¸¥éĩį å½±åĵį
æİ¢æµĭ åĻ¨
åĽ´ç»ķ çĿĢ
V R
æķ°éĩı åĴĮ
æĦıå¤§åĪ©éĿ¢ æĿ¡
æ¨¡æĭŁäººç±» æĻºèĥ½
Ñ Ĩ
Ľ èµ·
ä¸» ä½ĵ
æķĻ åĮº
èĶ ĵ
æľĿ çĿĢ
çļĦ å®ŀçİ°
ä»ĸ è¦ģ
é«ĺ ç³ĸ
ä»» åĳ½
ä»»åĬ¡ æ¸ħåįķ
å¯¹äºİ ä¸ĢäºĽ
æīį ä¼ļ
æľ¨ æĿ¿
å¹³åºķ éĶħä¸Ń
åħ¨ éķ¿
ä¸ºäºĨ å®ŀçİ°
å¹» æĥ³
Ġå»ºç«ĭ èī¯å¥½çļĦ
ä¸º æĪĳä»¬çļĦ
ç´ °
çĶ² çĥ·
åı¯ä»¥ å¤ĦçĲĨ
æŀ £
åı¤ åŁİ
çĭĹ åĴĮ
å·¥ä¸ļ åĮĸ
ç¥ĸ åħĪ
å¯¹ ä¸ŃåĽ½
èĥ½å¤Ł èĩªåĬ¨
çłĶç©¶ æīĢ
è®² åº§
åĽ°éļ¾ åĴĮ
æĤ² åī§
çļĦ ä¸¤
åĮ»çĸĹ è¯ĬæĸŃ
ä¹ĭéĹ´çļĦ äºĴåĬ¨
çŁ¥è¯Ĩ çļĦ
åį±éĻ© çļĦ
Ġ èĩªæĪĳ
Ġ æĦıå¤§åĪ©
æĦŁ æĤŁ
çļĦäºº æķ°
éŃĶæ³ķ å¸Ī
å°ı åĪļ
è´Ńçī© ä¸Ńå¿ĥ
çļĦç¬¬ ä¸Ģ
é¥¥ é¥¿
æķ°æį® éĩı
æĻļ å®´
éĻĪ æŁĲ
æĿ¥æºĲ äºİ
Ï ĥ
æľī æ¯Ĵ
ä¸Ń ä½įæķ°
ä¹ĭ åľ°
çĨ ±
éĻĪ ä»£è°¢
Ñ ĩ
æĹ¶ æľº
å¥½ è¯Ħ
æ½ Ń
) ^
åĴĮ ä½ĵéªĮ
æķ°æį® æĹ¶
ï¼ī ãĢĤ<|
èĢĥ åı¤
èĲ½ åı¶
ä»£è¡¨ æĢ§
å« ģ
Ġ çĮ«
åĴĮ å¸®åĬ©
çĽ® åħī
æĺŁ åº§
ç®¡çĲĨ åĳĺ
åĬłåħ¥ åĪ°
è¿Ļæĺ¯ çĶ±äºİ
åıĳæĮ¥ äºĨ
åī¯ è¯į
åĴĮä¸į å®ī
çªĥ åıĸ
r am
çļĦ åĽ½å®¶
è¡Į çĤº
çľ ¾
åīį åĲİ
æ¸ħ æĸ°çļĦ
æ··åĲĪ åĿĩåĮĢ
çļĦç¼ĸ ç¨ĭ
åħ± è®¡
åģıè§ģ åĴĮæŃ§è§Ĩ
å¿ħéľĢ åĵģ
æĺ¯å¾Ī éĩįè¦ģçļĦ
æĪĳ æĺİçĻ½äºĨ
åĲĮæĹ¶ è¿ĺ
åĪ©çĶ¨ æķĪçİĩ
çĻ¾ åĪĨ
çļĦçĪ± å¥½
éĹľ ä¿Ĥ
åŀ Ĵ
å®¢ æĪ¿
æ¢ Ń
8 7
åħ¬ çº¦
å®ī éĺ²
åľ¨ å®ŀéĻħ
åı£ å¤´
ç»Ń èĪª
èĳĹ ç§°
é£ŀ éĢŁ
çļĦç¾ ¤
å¥ī çĮ®
çĽ¸ åĮ¹éħį
çıį çıł
å¥ĸåĬ± åĴĮ
èĸ¯ çīĩ
çļĦ å±±
çļĦ æ³ķå¾ĭ
ä¸į å¿ħ
ä¸ĩ åİĨ
æĪĲéķ¿ åĴĮåıĳå±ķ
199 6
æµĵç¼© åĴĸåķ¡
e g
æİ¨ æµĭ
çĶµè§Ĩ åı°
æµªæ¼« çļĦ
åĴĮ åĲĦç§į
åĪĻ ä¼ļ
çĶµå½± éĻ¢
åıĳçİ° æĸ°çļĦ
åĨ³çŃĸ è¿ĩç¨ĭ
æĸ¹æĸ¹éĿ¢ éĿ¢
æĺ¯ ç§¯æŀģçļĦ
çĶ¨ å¿ĥ
åľ° ä½¿çĶ¨
æľĢ åĲĪéĢĤçļĦ
éĩĳ çīĮ
éĻįä½İ é£İéĻ©
è¯¦ç»Ĩ åĽŀçŃĶä¸ĬéĿ¢çļĦéĹ®é¢ĺ
èĤĮèĤī åĴĮ
å°Ĩ æĸĩæľ¬
èĥĮ åĮħ
åĪĿ ä¸Ń
åĲĮæĹ¶ä¹Ł èĥ½
å¿ĺ äºĨ
éĢĢ è´§
åı¯ä»¥ éļıæĹ¶
åŃ¦ åİĨ
èīºæľ¯ åĴĮ
åĪ» æĿ¿
åĨ³å®ļ äºĨ
æµ·æ»© ä¸Ĭ
éľĢè¦ģæł¹æį® åħ·ä½ĵæĥħåĨµ
æĪĳä»¬ åı¯èĥ½ä¼ļ
ä¹Ł éĿ¢ä¸´çĿĢ
å¨ģ å°¼æĸ¯
è¿Ļéģĵ èıľ
è¯ģ è¨Ģ
è´¨éĩı çļĦ
åĲ¬ è§ī
è¯Ħ çº§
æ¸© æ°´
éĿĻ æŃ¢
æ´Ĺ åıĳ
ä½łåı¯ä»¥ èĢĥèĻĳ
å¼ĢæĶ¾ åĴĮ
è£ģ åĪ¤
å®ĥ åı¯ä»¥éĢļè¿ĩ
ç»ıæµİ çļĦ
åľ¨ æĹ¥æľ¬
æĵ¦ æĭŃ
å·¥ä½ľ ç»ıéªĮ
èĢĥ å¯Ł
å¤± è¯¯
åİļ åº¦
å¤ķ éĺ³
æĸĲæ³¢éĤ£å¥ĳ æķ°åĪĹ
N BA
å¦ ĸ
å®ŀ åľ¨
çĤ¹ ç¼Ģ
è¿ĻäºĽ å»ºè®®
åĲĦ æľī
ç¼ĸ åı·
ä¸į æĺĵ
å¹´ åĲİ
ä¸İ ä¼łç»Ł
å°± ç®Ĺ
è¿ħéĢŁ åıĳå±ķ
åŀ ¢
è®© å®¢æĪ·
çħ§ äº®
ä¸ª é¸¡èĽĭ
æľº å¯Ĩ
åı¯ä»¥è®© äºº
å¥ĸ éĩĳ
S S
åĴĮ æµ·æ´ĭ
åĲĮæĹ¶ è¿ĺåı¯ä»¥
æłĩé¢ĺ åĴĮ
Ġ ç¾İåĽ½
éķ¿ ä¹ħ
æĪĸèĢħ ä½¿çĶ¨
æľªçŁ¥ çļĦ
å¥½ åĲ§
çĥ ¯
çĶµå½± ä¸ŃçļĦ
åĴĮ è§£
å¯ĵ æĦı
å¤§ çĲĨ
èĩªå·± çĭ¬çī¹çļĦ
è½» å¾®
é£ŁæĿĲ åĴĮ
åıĹå®³ èĢħ
è¯Ħè®º èĢħ
çį ²
åĴĮ æĶ¿æ²»
åı¯ä»¥ å°Ĩåħ¶
è° Ľ
æľŁ å¾ĴåĪĳ
æĲ ı
æĮĳ æĪ°
è®¨ ä¼ļ
éĴ¢ éĵģ
æĹ¶å°ļ çļĦ
åĲ¬èµ·æĿ¥å¾Ī ä¸įéĶĻ
åľ¨ æĸ°
æĥ ¨
åŃ¦ä¹ł åĪ°
æŃ£ç¡® ä½¿çĶ¨
çº¸ å·¾
æŀģç«¯å¤©æ°Ķ äºĭä»¶
åŃĲ ä¸Ĭ
åħ¨ ä¸ĸçķĮ
çĽ¸åħ³ éĥ¨éĹ¨
çĶŁäº§ åĬĽåĴĮ
ä¸¥ è°¨
è¿Ļå°ĨæľīåĬ©äºİ æĤ¨
çŃī æĮĩæłĩ
è¿ĩ åĪĨ
å»º æĪĲ
AI å°Ĩ
èĽĭ é»Ħ
å¾ħåĬŀ äºĭé¡¹
é« ĵ
ä½ł åĸľæ¬¢
èĩªå·±çļĦ çĶŁæ´»
è¸ ©
ç»Ļåĩº ä»¥ä¸ĭ
è¾£ åĳ³
çļĦä¸» æĹ¨
Ġ åıĸåĩº
è¿Ļä¸ª åľ°æĸ¹
æī¾åĪ° éĢĤåĲĪèĩªå·±çļĦ
ç¾İ åŃ¦
é«ĺçļĦ å±±å³°
æłĩåĩĨ åĮĸ
ç¼ĵè§£ åİĭåĬĽåĴĮçĦ¦èĻĳ
çµ ¦
$ ï¼Į
9 7
ä½Ĩ å®ŀéĻħä¸Ĭ
ç®Ĺ åĩº
æŃ£ ä¼ł
å®ĮæĪĲ çļĦ
ä¼ĺåħĪ èĢĥèĻĳ
èµ¶åĪ° çİ°åľº
åľ ĺ
å®¶ å±ŀ
æĥħ æĬ¥
äº ı
å¾Ī éĩįè¦ģçļĦ
å°Ŀè¯ķ ä¸įåĲĮçļĦ
è¿Ľä¸ĢæŃ¥ åıĳå±ķ
å¹¶ äºĨè§£
è° ħ
ä»İ ä¸Ģä¸ª
æĻ¯ åĮº
åĢĭ äºº
ç³¯ ç±³
çļĦ åĪ¶å®ļ
çļĦ æĬĢèĥ½
åľ¨ æ¯ĶèµĽä¸Ń
æĹ¶ ä¼ļ
æĽ ¸
å¤§ æ¦Ĥ
ï¼ī -
é© ³
èĸ ĩ
çļĦ è§ĤçĤ¹
çļĦçģµ éŃĤ
æĪĳ æĦŁè§ī
ç¦ ½
çĹħ èĻ«å®³
å½ĵæĹ¶ çļĦ
æĪĲ çĤº
æĽ´å¥½åľ° å¤ĦçĲĨ
åĨľ åľº
èĦĬæ¤İ åĬ¨çī©
ä¹ĭ æĪĺ
ç»ĵ è¯Ĩ
æ³¢ ç½Ĺ
çī¹å¾ģ éĢīæĭ©
çļĦ èĥ½æºĲ
ä¸į æĸ·
æĮĩ ä»£
åŃĺåĤ¨ åľ¨
åĹħ è§ī
èģ ²
æŃ£ åĲĳ
ç§ĳæĬĢ é¢ĨåŁŁ
å¸ĮæľĽ åĴĮ
åľ¨çº¿ è¯¾ç¨ĭ
åĪĨæŀĲåĴĮ å¤ĦçĲĨ
çĥĺ çĥ¤
e ter
ä¸º æĤ¨çļĦ
ä»¥ä¸ĭæĺ¯ æĪĳçļĦ
ç¿ ©
éĽ¶ ä»¶
èħ¿ éĥ¨
l y
ä»İ éĤ£
çİ© æ³ķ
æĪĳä¼ļ å°½åĬĽ
çļĦäº§åĵģ åĴĮæľįåĬ¡
ĠÐ½ Ð°
éľĢè¦ģ èĢĲå¿ĥåĴĮ
çļĦç¾İ åĳ³
äº«åıĹ çĿĢ
ç½ª çĬ¯
ç£ ·
ä¿ĿæĬ¤æĪĳä»¬çļĦ çİ¯å¢ĥ
çļĦç¦ »
åĽŀçŃĶä¸ĭéĿ¢ çļĦéĹ®é¢ĺ
æĸ° æľĭåıĭ
æŁ Ħ
æķ°æį® è´¨éĩı
æĺĵ çĶ¨
åĭ ĭ
æ£®æŀĹ çłįä¼Ĳ
è´¦ åı·
è°ľ é¢ĺ
æĻºèĥ½ åĬ©æīĭ
æĶ¶ ç¼©
é»Ħ æ²³
æĺ¯æĮĩ éĢļè¿ĩ
çļĦç¼º çĤ¹
éĩĳ å±±
çķĮ çļĦ
åıĺ è½¯
ä¸»è¦ģ è§ĤçĤ¹
çĳľä¼½ çŃī
çĬ¹ å¤ª
äºº ä½ĵçļĦ
è¦ º
åĽł äºº
è¢« å®³
å¾Ī åĸľæ¬¢
å¸¦æĿ¥ çļĦå½±åĵį
æł¡ éķ¿
çº¢èī² åĴĮ
198 4
ä¼Ł å¤§
æ·±åĪ»çļĦ åį°è±¡
çļĦ æ°ĶåĢĻ
çļĦ å½¢è±¡
æĦı å¢ĥ
ç¨ĭ åº¦åĴĮ
ï¼ģ ï¼ģ
æİ¨çĲĨ éĢ»è¾ĳ
è¯¯ å¯¼
æľ¨ è´¨
åºŀ å¤§
è¿Ľ äºĨ
æİ¨ è¡Į
ä¸ī åĽ½
æ¯ıåĳ¨ èĩ³å°ĳ
ä¸Ń ä¸ĸçºª
å±Ģ éķ¿
åľ¨çº¿ æķĻèĤ²
çŃī æĵįä½ľ
æĪĳä»¬ ä¹ŁåºĶè¯¥
à¤ ¯
çĪ±æĥħ çļĦ
å¢ŀéķ¿ çİĩ
æłĩå¿Ĺ çĿĢ
è¦ģ åŃ¦ä¼ļ
å®ĥ åı¯ä»¥å¸®åĬ©
ç¨ĭåº¦ çļĦ
çĤĴ é¦Ļ
æ£Ĵ äºĨ
çº¢ çĲĥ
éĢĤåĲĪ åľ¨
å»ºçŃĳ ä¹ĭä¸Ģ
ä¸ĢçĽ´ ä»¥æĿ¥
å®½ å®¹
ä¸Ģç³»åĪĹ çļĦ
åıį æĬĹ
åģļ çļĦäºĭæĥħ
æ³¢ åħ°
å¥¶ å¥¶
è¾£æ¤Ĵ ç²ī
éĺ²æĻĴ éľľ
ä¸į å·²
æ¯ı ä¸Ģæ¬¡
æ£ į
å®¶åºŃ æķĻèĤ²
åĲ¸å¼ķ äºº
äººæ°ĳ æĶ¿åºľ
è¡¨ çı¾
æĽ´åĬł é«ĺæķĪåľ°
çļĦç¿» è¯ĳ
ç»½ æĶ¾
ä¸ª å°ı
è®© æķ´ä¸ª
å»ºè®® æ¯ıå¤©
ç»Ĩ å¿ĥ
) ï¼ļ
ä¸į ä¾¿
ä¹ĭ æīĢä»¥
æĹł åĬ©
äººç±» åľ¨
å·² ç¶ĵ
èĻ¾ ä»ģ
æ©ŁåĻ¨ äºº
èĢĮ åı¦
ç© į
æ¶ ħ
å½ĵåľ° çļĦç¾İé£Ł
å¤§å®¶ å¥½
å¸ĮæľĽè¿ĻäºĽ æĸ¹æ³ķ
ç»Ļåĩºåħ·ä½ĵçļĦ æİ¨çĲĨéĢ»è¾ĳ
ç§į ç¾¤
è¿ĻäºĽ çĽ®æłĩ
ç»´ åº¦
ä¾Ĩ èªª
çŃīå¤ļä¸ª é¢ĨåŁŁ
å¾ Ļ
198 0
èºº åľ¨
éħį ä¹Ĳ
åħ» èĢģ
ä»¥ä¾¿ äºİ
çĳŀ åħ¸
åĴĮ åºĶå¯¹
åĨĻ æŃĮè¯į
é¥®é£Ł ä¸Ń
æ§ ½
Ġ ç¤¾äº¤åªĴä½ĵ
æķ°æį® çŃī
éĿŀ çº¿æĢ§
åģļ é¥Ń
çļĦåľ° çĲĨ
åľºæĻ¯ åĴĮ
è´µ å·ŀ
è¿¹ è±¡
è¶³çĲĥ æ¯ĶèµĽ
è±Ĳ å¯Į
åĴĮ éĶĢåĶ®
æĽ´ è½»æĿ¾åľ°
æĽ´ åĢ¾åĲĳäºİ
ä»¥åıĬ åľ¨
æ¨¡åŀĭ è®Ńç»ĥ
åı¯ä»¥éĢīæĭ© ä¸ĢäºĽ
ä¸Ĭ æĸ¹
å°ĳ è®¸
æĪĳä»¬çļĦ åħ¬åı¸
æľīçĶ¨ çļĦå»ºè®®
éļĲ åĸ»
æĶ¹è¿Ľ å»ºè®®
æ¾ Ħ
æĪ¿éĹ´ çļĦ
åŃĶ åŃĲ
ä¿ĿæĮģåģ¥åº· çļĦçĶŁæ´»æĸ¹å¼ı
v er
åĲ¸ æ°Ķ
çļĦç¿ ħ
æĿ¥ è§£åĨ³éĹ®é¢ĺ
å°ı åħĶåŃĲ
æł· åŃĲ
ĠÐ ¸
é«ĺåº¦ çļĦ
æ³Ħ æ¼ı
åıį èĢĮ
å¤ª æ£ĴäºĨ
çļĦç² ī
é¦Ļèįī ç²¾
Ù ĥ
åĴĮ åĨ¥æĥ³
åİ ķ
æİĴ åľ¨
æİĴ çīĪ
ä»¥ä¾¿ æĽ´å¥½åľ°äºĨè§£
åĪĨ æīĭ
æ¿Ģ ç´ł
å´ Ľèµ·
æıĲé«ĺ å®¢æĪ·æ»¡æĦıåº¦
èĬ± æĹ¶éĹ´
å¸ĥ é²ģ
æĻ® æŁ¥
éľĢè¦ģèĢĥèĻĳ ä»¥ä¸ĭåĩłä¸ªæĸ¹éĿ¢
ä¹Ł æľīåĬ©äºİ
æł¹æį® çĶ¨æĪ·çļĦ
æķĻèĤ² æľºæŀĦ
çļĦä¸Ģ æ¬¡
è´Ńä¹° çļĦ
éĻ¨ çŁ³
çļĦ åİĭåĬĽ
åıĳ èµ·
æĽ´åĬł æľī
è¡¨çİ° åĴĮ
èīºæľ¯ å®¶çļĦ
åĴĮå·¥ä½ľ æĸ¹å¼ı
æ¶Īéĺ² å®ĺåħµ
çļĦçĪ±æĥħ æķħäºĭ
åı¯ä»¥ æĲŃéħį
å¤ļ æķ°
ç¼ ļ
æĽ´åĬł åħ³æ³¨
åħī åŃ¦
ä¸Ń å±±
åĴ¨è¯¢ å¸Ī
åĴĮ åħ³æ³¨
å®¶ å¸¸
æĹ¥ æĻļ
è¿ĻäºĽ å·¥åħ·
ç¬¬ ä¸ĥ
åįģ åŃĹ
ç»ĵåĲĪ èµ·æĿ¥
ä¸Ģ ä¸ĸ
æĽ´ åħ·ä½ĵ
å½ĵ æ¶īåıĬåĪ°
æĬ¥ çº¸
çĥŃ éĩıçļĦ
æĮĩåįĹ éĴĪ
å¹¶ ä¸įæĸŃ
èī² åĪĹ
åŃ¦ä¹ł çĽ®æłĩ
èģ ½
æ¨¡ åħ·
æĪĺ å£«
ä¸ºçĶ¨æĪ· æıĲä¾Ľ
æĶ¹åıĺæĪĳä»¬çļĦ çĶŁæ´»æĸ¹å¼ı
çĶŁåŃĺ åĴĮ
åħ½ åĮ»
Ï ģ
å¾Ī å¼ºçļĦ
çİ¯ä¿Ŀ åĴĮ
åįł æĢ»
èµŀ èªī
çļĦ éĴ±
åŁİå¸Ĥ åĴĮ
åįł åľ°
çħ¸çĤĴ èĩ³
åıĳ åŀĭ
éĢļ çĶ¨
æ¸ Ĭ
åĬŁ çİĩ
çĶŁäº§ æĸ¹å¼ı
è¢ ģ
æĹł æķĪ
çļĦç¿ħ èĨĢ
9 2
æĦ Ľ
éĢļ è¡Į
åı· çłģ
åĽ¾åĥı åĴĮ
ĠØ§ÙĦ Ø
å¹² éħª
æĺ¥ ç§ĭ
æİ¨åĬ¨ ç¤¾ä¼ļ
çĥ§ å¼Ģ
è¿Ļå°Ĩ å¸®åĬ©æĤ¨
åŃĲ ä¸Ń
èµ· åĿĲ
è§£åĨ³ åĨ²çªģ
ç²¾ æ¹Ľ
èĭ± æł¼åħ°
æ·± æĥħ
éĢĻ ç¨®
çļĦçĻ ¾
åĵĪå¸Į è¡¨
Ġ è¯¥
éĹ®é¢ĺ çŃī
å¸Ĥåľº ä¸ĬçļĦ
ä¸įåĲĮçļĦ ç±»åĪ«
å¹² æ¶ī
èīºæľ¯ çļĦ
ç»ĵæŀĦ çļĦ
çĶŁåĳ½ ä¸Ń
çļĦ ä¾Ŀèµĸ
ä»£ ä»·
æĺ¯ äººå·¥æĻºèĥ½
äºº ç§°
ä¾¿ äºİ
ç§ĳå¹» çĶµå½±
æĹ¥ç¨ĭ è¡¨
åĬ¨ éĩı
æ°¸ ä¹ħ
ãĢĢ ãĢĢ
åīįæīĢæľª æľīçļĦ
åĴĮ æĶ¿çŃĸ
æĺ¯ ä½įäºİ
æĶ Ŀ
ä¼ļ ä¸Ĭ
æĥħ ä¾£
é¢Ħ çº¦
åĳ½ é¢ĺ
éĻį æ°´
é£Łçī© éĵ¾
å ¬
ä»¥ ç¢ºä¿Ŀ
ä¸į å®¹
è§ģåĪ° ä½ł
ä¸į ä¸Ģå®ļ
ç¥ ī
çľŁ çĲĨ
åİ¿ åħ¬å®īå±Ģ
çī©ç§į çļĦ
ä»¥ä¸ĭ åħ¬å¼ı
éľĢæ±Ĥ çļĦ
å¸¦æĿ¥ æĸ°çļĦ
ä¹ĭéĹ´çļĦ çĽ¸äºĴä½ľçĶ¨
äº¬ åī§
èĩªçĶ± æĦıå¿Ĺ
åı« å£°
åĺī éĿĸ
é ®
Ġ çĳľä¼½
ä¸į ä½ı
åħ¬ åĳĬ
å®¢æĪ· å¯¹
æĹħ éĢĶ
ç³ĸ æµĨ
en d
ä¸Ĭ è¡£
å¸Ĥ çļĦ
çī¹èī² ç¾İé£Ł
çļĦ åĲĹ
åıĳ çĥŃ
æĥħ ç·Ĵ
å¼Ģåıĳ èĢħ
åĪĽä½ľ åĩº
æµ· åŁŁ
æŀģ åº¦
æ²¹ åĴĮ
å¾Īå¤§çļĦ å½±åĵį
åľ į
å§ĭ äºİ
åĩŃ åĢŁ
ä¹Ł æ¯Ķè¾ĥ
èĲ Į
ä¼ģä¸ļ åľ¨
æ³Ĭ å°Ķ
è¾© è®º
åı¯ä»¥ åħĪ
è¿Ļ çīĩ
AI æ¨¡åŀĭ
åĪĽä½ľ çļĦ
é«ĺ å¼ºåº¦
äººä»¬ å¼Ģå§ĭ
éģĩ è§ģ
åĩºçīĪ ç¤¾
èĤĿ èĦı
é©¬æĿ¥ è¥¿äºļ
ä¹Łåı¯ä»¥ åľ¨
Ðµ ÑĢ
æĪĳä»¬ æ¯ıä¸ªäººéĥ½åºĶè¯¥
é¢Ħç®Ĺ è®¡åĪĴ
å¨±ä¹Ĳ æ´»åĬ¨
Ġ <
æĺ¯ è¦ģ
å¯ «
é«ĺ çĥŃéĩı
åħ·æľī éĩįè¦ģçļĦ
çłĶç©¶ åıĳçİ°
æĨ ¾
çļĦ ç§ĳåŃ¦
æĺ¯ ä½¿çĶ¨
æıĲ åĢ¡
çĶ¨æĪ· å¯¹
éĥ½æľī èĩªå·±çļĦ
AI æĬĢè¡ĵ
çľ¼ åīį
ar t
ä¼Ĭ æľĹ
æĹĭå¾ĭ åĴĮ
G AN
éĹ®é¢ĺ éľĢè¦ģ
æ¸ħ éĨĴ
è±¡ æ£ĭ
æĬ± æĢ¨
çļĦç£ ģ
éĿŀå¸¸ å¹¿éĺĶ
æ¸¸ ä¹Ĳ
ä¸įä»ħ èĥ½å¤Ł
å½ķ éŁ³
åŁ¹è®Ń åĴĮåıĳå±ķ
æľĢ å°ĳ
éĢļè¿ĩ ä¸İ
åģ¥åº· ç®¡çĲĨ
è¯Ħä¼° åĴĮ
è½¬ æĬĺ
æīĢåľ¨ çļĦ
Ġ ç±³
éĨĴ æĿ¥
åľĨ å½¢çļĦ
èĴ¸ æ°Ķ
çļĦ è§Ħå®ļ
éĹ´ æİ¥
åı¯ä»¥å¸®åĬ© ä»ĸä»¬
ä»¥ä¸ĭæĺ¯ä¸Ģ ä»½
à¸² à¸
ä¸Ń æ·»åĬł
åĪĨ å±Ģ
æıĲä¾Ľ æĽ´å¤ļ
ç¼ ħ
æĸ¹éĿ¢ çļĦéĹ®é¢ĺ
åĪĨéĴŁ å·¦åı³
åĪ©çĽĬ çĽ¸åħ³
çĶŁæĪĲä¸Ģç¯ĩ åħ³äºİ
Ġ è®¾ç½®
åĴĮ æ¤įçī©
ä»¥ å¤ĸ
åĲ¬ åĲ¬
æŃ¥éª¤ åĴĮ
æ·±åĪ» çļĦå½±åĵį
èĦĤèĤª åĴĮ
ä¸Ĭ å¸Ŀ
éĹ®åį· è°ĥæŁ¥
ä¼ļ ä¸įä¼ļ
ä¸Ĭ ä¼ł
æ¬ Ĭ
ä½łåı¯ä»¥ éĢīæĭ©
Ġ å®ļä¹ī
åĴĮ èĩªä¿¡
å£« å°¼
éĩı åĮĸ
ä»ĭç»į ä¸Ģç§į
åĲ¸å¼ķ äººçļĦ
å¹¶ å¯»æī¾
ä½Ĩ æľĢç»Ī
ç¯ ·
æķ°åŃĹ æĺ¯
åı¶ çīĩ
éĹª èĢĢ
æĹ¥å¸¸çĶŁæ´» ä¸ŃçļĦ
äººå·¥æĻºèĥ½åľ¨åĮ»çĸĹ é¢ĨåŁŁ
å°Ĩä¼ļ åľ¨
å¸ĮæľĽè¿ĻäºĽ ä¿¡æģ¯
çļĦçī¹çĤ¹ åĴĮ
æĥ³è±¡ åĬĽåĴĮ
æĭĸå»¶ çĹĩ
æĪĳä»¬ å¸ĮæľĽ
è§Ĥ åħī
ä¸ī ä½ĵ
ä¸ī æ¬¡
å¸ĥ æĭī
o g
Ġ åı¯
æĬĢæľ¯ çļĦåºĶçĶ¨
æīĭ ç»Ń
åħī ç»ª
çĶŁåĳ½ åĴĮ
èĭ¹æŀľ åĴĮ
è·¯ è¾¹
åħ§ å®¹
é©¬æĭī éĽħ
Ġ æīĵå¼Ģ
æľ¬ é±¼
å°± èĥ½å¤Ł
è¯Ńè¨Ģ åŃ¦ä¹ł
, âĢľ
ä¸Ģ èĤ¡
ä¸į è®º
èĢĥ éªĮ
äººä»¬ éľĢè¦ģ
èĪªç©º åħ¬åı¸
å§Ĳ å§Ĳ
éĢļå¸¸ æĺ¯çĶ±
åĺī å®¾
ä¸Ģ ä¼ļåĦ¿
ç» ļ
å¾Ĺ å¾Ī
è®¡ æĹ¶
æµ· å¤ĸ
ä»»ä½ķ äºº
ä¸º ä¸Ńå¿ĥ
è¯¥ åľ°åĮº
ç´§ è¿«
æĤ¬ çĸĳ
å¯»æ±Ĥä¸ĵä¸ļ å¸®åĬ©
æĹ¥ çĶµ
äºĨä¸Ģ åĲį
æİ¨èįĲ ä¸ĢäºĽ
åĽ½å®¶åĴĮ åľ°åĮº
æĪĸ ä¸ŃæĢ§
è·¯ åĨµ
æīįèĥ½ å®ŀçİ°
æĸĩåĮĸåĴĮ ç¤¾ä¼ļ
è¿ª å£«å°¼
å®ĮåĸĦ çļĦ
å¼Ģ éĩĩ
åİĨåı² æķ°æį®
çĶŁäº§ æĪĲæľ¬
èĦ± é¢ĸ
æľĢå¤ļ åı¯ä»¥
æ²¥ å¹²
åĽłäºº èĢĮå¼Ĥ
åĬł åĪ©
æĪĸ åľ¨
å¸¦ ç»Ļ
Ġ è§Ĥå¯Ł
èĪ Ĩ
å°¼ æ³Ĭå°Ķ
çİ©å®¶ éľĢè¦ģ
åįĵè¶Ĭ çļĦ
æĪĳ ä¸įçŁ¥éģĵ
åħ¨çĲĥ æĢ§çļĦ
æĥ¯ æĢ§
ä»ĸ è¢«
ä½ĵ åĬĽ
æĬĢæľ¯ æĶ¯æĮģ
åĽŀ å®¶çļĦ
ç§ĳåŃ¦ åĴĮ
è¯´æĺİ äºĨ
æĭĽ åĭŁ
ä¼ļ å°Ĩ
å¢ ħ
åĴĮ é¢ľèī²
æĮĩ è´£
éĢłæĪĲ å½±åĵį
çļĦ åİŁåĪĻ
åĩº å¸Ń
åĮĸåŃ¦ åĵģ
æ² Ľ
éĢĤåºĶ èĥ½åĬĽ
åĽ¾åĥı å¤ĦçĲĨ
æ£®æŀĹ ä¸Ń
199 2
åĿļæŀľ åĴĮ
åº ¸
æĿ¥ åºĶå¯¹
çº¿ ä¸ĭ
è´Ńçī© ä½ĵéªĮ
çļĦç³ĸæŀľ æķ°éĩı
ä¼ļ è®©
é£Ł èĤī
è¾¹ å¢ĥ
æĪĳåı¯ä»¥ ä¸ºæĤ¨æıĲä¾Ľ
çıĬçĳļ ç¤ģ
åĴĮ å¿«ä¹Ĳ
è·¯ éĿ¢
ä¸»è¦ģ æľī
å£° æ³¢
åĬłå¯Ĩ æĬĢæľ¯
çļĦ è¯Ħä»·
ä½ł å·²ç»ı
è°ĥ çĶ¨
å¤§å¤ļæķ° äºº
ä»°åį§ èµ·åĿĲ
æĪĳ æĥ³è¦ģ
å¯¹ èĩªå·±
ä¸ĭ æĸĩ
å¹¶ å°½åı¯èĥ½
æľªæĿ¥ ç§ĳæĬĢ
çłĶ è®¨ä¼ļ
ä¸įè¦ģ å®³æĢķ
ä¹³ èħº
æĿ¥ åĨ³å®ļ
ä»ĸ åıĳçİ°
éľĢè¦ģ ä¸Ģä¸ª
éľĢè¦ģ ä»¥ä¸ĭæŃ¥éª¤
äº¤ æĽ¿
é¢Ĩ åľŁ
é¡¹ éĵ¾
æĪĳä»¬çļĦ åĽ¢éĺŁ
é¤ Ĭ
Ġ å¤©
çļĦ å®ŀæĸ½
åĿļæĮģ ä¸ĭåİ»
éº¦ åħĭ
åį«çĶŁ éĹ´
æĮĳæĪĺåĴĮ æľºéģĩ
åŃĻ æĤŁç©º
æµĻæ±Ł çľģ
åĪĨ éļĶ
çĿĢ æĪĳ
çĶŁçī© çļĦ
éĿĴ èıľ
èĿ ł
ä¸Ģ æĹ¥
ä¿ ©
æĻºèĥ½ è®¾å¤ĩ
èµĦ è®¯
æĮĩ çĤ¹
æ²¹ çĤ¸
åŁºç¡Ģ çŁ¥è¯Ĩ
ç«ĭ ä½ĵ
es s
äºº æķ°ä¸º
æĿ¥ ä¿ĿæĮģ
éĢłæĪĲ ä¼¤å®³
ä»İå°ı åĪ°
åı¯åı¯ ç²ī
çļĦ ä¹¦ç±į
åŁ Ķ
åĮħæĭ¬ åħ¶
éģ¿åħį åĩºçİ°
Ġå¯»æ±Ĥ æĶ¯æĮģ
åĴĮ ä»ĸ
ç¬ Ľ
ä»¥ä¾¿ æĽ´å¥½åľ°çĲĨè§£
Ġ éĢīæĭ©åĲĪéĢĤçļĦ
æĤ¨ åı¯èĥ½éľĢè¦ģ
çķ ľ
ç«ĭ æ³ķ
åĲ¯ çĶ¨
æ¦ľ æł·
çļĦ ä¹Ĳè¶£
éľĢè¦ģ æĽ´å¤ļ
æ¯ı å¹´çļĦ
å°ĳ å¥³
åı¤ åŁĥåıĬ
è¯ŃéŁ³ åĲĪæĪĲ
åįķè¯į çļĦ
è§¦ æĳ¸
éĵ¶è¡Į åĴĮ
ç²Ĵ åŃĲçļĦ
çĺ ¾
6 3
æĪĳ æĽ¾ç»ı
ä½ł èĥ½å¤Ł
çĶ¨æĪ·çļĦ éļĲç§ģ
èĤº çĻĮ
á Ł
æ£Ģ ç´¢
åĳĺå·¥ æıĲä¾Ľ
çļ® éĿ©
æķĳ åĬ©
æ°¢ æ°Ķ
è¡Į è½¦
åĬł éĩį
æŁ ļ
æĹ¥ åŃĲéĩĮ
æ²»çĸĹ åĴĮ
éĢģ å¾Ģ
äººæ°ĳ æ³ķéĻ¢
ç²¾ç¡® çļĦ
çĪ· çĪ·
åĮ» æĬ¤
æł¹æį® ä¸ªäºº
å¸¦ åħ¥
ç½Ĺ çĲ³
æĬ½ åıĸåĩº
èī¾ ä¼¦
çļĦçĦ¦ èĻĳ
J ane
ä¸Ń åŃĺåľ¨
æĪĳä»¬åı¯ä»¥ èĢĥèĻĳ
A l
åĺ Ľ
æĳĦåħ¥ è¶³å¤ŁçļĦ
å¥Ĺ é¤Ĳ
é²ģ æ£Ĵ
èĬ± ç²ī
Ù ģ
å¤ļ èĬ¬
è½¦ èº«
ç¥ŀç»ı ç³»ç»Ł
å¼ §
ä½¿ ä»ĸä»¬
ä¸ŃåĽ½ æĶ¿åºľ
æķĻèĤ² èµĦæºĲ
å·¡ éĢ»
ç¼´ çº³
× ¨
ä¸į æ¸ħ
æķ°æį® å¤ĦçĲĨ
çŀ ©
éĢĹ åı·
çļĦ å¿ħè¦ģ
ä»¥ èī²åĪĹ
ä¸¤ ç±»
æ¸ħæ´ģ åĴĮ
er ry
çŃ¾ è¯ģ
å¹¶ å»ºç«ĭ
äº² èĩª
ĠÐ º
ç»ıåħ¸ ä¹ĭä½ľ
çĥ¹ åĪ¶
I M
æľŁ çļĦ
éĺ¶ å±Ĥ
è§Ħå¾ĭ çļĦ
åľ¨ éĿ¢è¯ķ
çŃī éĥ½æĺ¯
éĥ½ å±ŀäºİ
è¿Ľä¸ĢæŃ¥ æıĲé«ĺ
å¹¶ è¦ģæ±Ĥ
æķĻ å®¤
åħ·æľī ä¸įåĲĮçļĦ
çļĦåıĳå±ķ è¶ĭåĬ¿
åĩº ä»»
åįģ åħŃ
å¿«éĢŁ åľ°
å¦ĤæŀľæĤ¨ æĥ³è¦ģ
è·¨ åĽ½
æľīéĻĲ çļĦ
æĢ» åħ±æľī
æĥħæĦŁ çĬ¶æĢģ
è¡¨çİ° äºĨ
à¤ ²
çºª å¾ĭ
åĴĮ åı¯
ä½İ æ¸©
å°¤ ä¸º
èĩ³åħ³ éĩįè¦ģçļĦä½ľçĶ¨
é«ĺ è·Łéŀĭ
é£İ ä¿Ĺ
åı¯èĥ½ä¼ļ æľī
è¿ĩåº¦ ä½¿çĶ¨
åľ¨ è¿Ļç¯ĩæĸĩç«łä¸Ń
ä¸Ń ä¹Ł
èĤ ĩ
ä½Ĩ å®ĥä»¬çļĦ
æĹ¥ åīį
åĩłä¸ª æľĪ
å®īéĿĻ çļĦåľ°æĸ¹
èĢĮæĪĲ çļĦ
æīĵ æĬĺ
ä¼ģä¸ļ éľĢè¦ģ
ç¾ ŀ
çļĦçĭ¬ ç«ĭ
å°Ķ å¤«
çĶŁåĳ½ ä½ĵ
åĭĩæķ¢ çļĦ
å¤©æĸĩåŃ¦ å®¶
æĪĳ çľĭ
æĪĳä»¬ çİ°åľ¨
åĲĮ è¡Į
æĸ° äºĭçī©
éĢĢ æ¬¾
åĪĺ æŁĲ
è¿ĺ éľĢè¦ģèĢĥèĻĳ
åĲĦç§į éĹ®é¢ĺ
æ¯ıå¤© éĥ½
åĴĮ å®¢æĪ·
åľ¨ åı¤ä»£
æľ¬ äºº
æİ¨ åĩºçļĦ
å¤ª å¤§
15 00
æĺ¯ åĵª
ä»»åĬ¡ åĪĨéħį
åı¯ä»¥éĢļè¿ĩ å¯¹
æ¢ Ŀ
å°¾ éħĴ
åĨħ ç½®
åĽłä¸º è¿ĻäºĽ
æ¢ Ĺ
å¦ĤæŀľæĤ¨ åĸľæ¬¢
å±ķç¤º èĩªå·±çļĦ
æĿŁ ç¼ļ
åħ¬å®ī æľºåħ³
åĲ ı
æĺ¯ æĹł
åıĳçİ° åĴĮ
çļĦéĹ®é¢ĺ åĴĮ
Y Y
é §
å¦Ĥä½ķ ä¿ĿæĬ¤
èĩªåĬ¨ çĶŁæĪĲ
å®ĩå®Ļ ä¸ŃçļĦ
ĠS t
å¹³æĿ¿ çĶµèĦĳ
æĤ¨ æīĢ
åĸľ é©¬æĭīéĽħ
åĬ¿ åĬĽ
çļĦ æłĩåĩĨ
æĵ Ĭ
ç§¯æŀģ æĢ§
ä¸ªæĢ§åĮĸ åĴĮ
å°¾ æ°Ķ
æľīçĽĬ äºİ
çļĦ æĹ¥æľŁ
çŃī æĿĲæĸĻ
å®ĥ æĺ¯çĶ±
åĩł çĤ¹
æĶ¹åıĺ çĿĢ
åį°è±¡ æ·±åĪ»
çļĦ æķĪçİĩåĴĮè´¨éĩı
äºº ä¸İäºº
åįĹ ç¾İæ´²
ĠÐ ¾
è§Ħå¾ĭ åĴĮ
çļĦåħī èĬĴ
æ¨± èĬ±
ä¸į æĹ¶
çŃī æīĭæ®µ
ç»Ħ ä»¶
å»ºè®® ä½ł
éĺħè¯» åĴĮ
èģĶç³» èµ·æĿ¥
çº³ åħ¥
å®¶äºº æĪĸ
è¯·éļıæĹ¶ åĳĬè¯īæĪĳ
æ±Łèĭı çľģ
åĸ Ģ
åı£ çº¢
çĽ² çĽ®
ä¸Ń å¹´
å¹´ èµ·
ä¹ĭ åŃĲ
æĦı éĿ¢
çº¿ åĴĮ
çĶµå½± åĲįç§°
çī©è´¨ åĴĮ
å»¶ è¯¯
éĻĪè¿° åı¥
å°ı èĬ±
ä¹Ĳ æĽ²
æĿ¡ çº¹
æĺİç¡® çļĦçĽ®æłĩ
åħħæ»¡ çĿĢ
æ¸©åº¦ åįĩé«ĺ
ä»Ĭå¤© æĹ©ä¸Ĭ
è®¢ éĺħ
éĺ¿çĶĺ æŃ£ä¼ł
åĴĮ çİ¯ä¿Ŀ
æĺ¯ æľºåĻ¨åŃ¦ä¹ł
ç¦ Ħ
æİ¥ä¸ĭæĿ¥ çļĦ
) ,
ä½Ĩ ä»į
åįİ ä¸½çļĦ
è®©æĪĳ æĿ¥
åįł é¢Ĩ
è´Ŀ å¤ļèĬ¬
èĬ±åĽŃ éĩĮ
èĥ½ åĴĮ
åı¯ä»¥ å½±åĵį
è½ °
æ·»åĬł åīĤ
çļĦ æ¨¡åŀĭ
å¦Ĥ å¤ªéĺ³èĥ½
åİ ¢
åı¶ ç»¿
å¼ķåĬĽ åľº
äººå·¥æĻºèĥ½ çļĦæĸĩç«ł
åĬłå¼º çİ¯ä¿Ŀ
éĿĴ å²Ľ
æĥĬ éĻ©
åĪ»æĿ¿ åį°è±¡
çĤ¹ çĩĥ
æ½ľåľ¨ é£İéĻ©
æŀĦå»º ä¸Ģä¸ª
éĢĤåĲĪ æĤ¨çļĦ
æģ¶æĦı è½¯ä»¶
æ·ĺ å®Ŀ
Ġ æĸĩæľ¬
ä¹ Ĵ
ä¸¤ æĿ¡
çĶ¨æĪ·çļĦ éľĢæ±Ĥ
ä¹¡ è¯ķ
åºŁå¼ĥ çī©çļĦ
æĬ¬ èµ·
ç½ķ è§ģ
åĴĮ ç¾İé£Ł
æºĲ å¤´
çĽ´ æĴŃ
ä¸ĢåĲį å¹´è½»çļĦ
ç¡ķ å£«
åľ¨ çĶŁæ´»ä¸Ń
è¿ĻäºĽ äºº
é¥Ń åºĹ
ä¸ĸçºª æľ«
å¤įæĿĤçļĦ ä»»åĬ¡
æĬµ è¾¾
å®ª æ³ķ
ä¸Ģ åı¥
ä¸» ç®¡
äººå·¥æĻºèĥ½ åĬ©æīĭ
èĵĿ å¤©
Ġ çīĽå¥¶
åĵ¥ åĵ¥
åĪĨè¾¨ çİĩ
åĲĳ ä¸ĬçļĦ
ä¸ĭ ä¸Ģæ¬¡
å¼º åº¦çļĦ
ä»İèĢĮ å¢ŀåĬł
ĠçĥŃ éĶħ
éĺ¿éĩĮ å·´å·´
åºĶè¯¥ è¢«
Ġå¯»æ±Ĥ ä¸ĵä¸ļ
å¸® æĤ¨
é¸¡ å°¾éħĴ
åľ¨ äº¤éĢļ
æĹłæ³ķ å®Įåħ¨
äºĨä¸Ģ ä¸ĭ
ä¸ºäºĨ è®©
éĸ Ģ
çĻ» éĻĨ
199 3
çļĦç¥ ĸ
æ²Ĳ æµ´
Ġ do
å¾Ī æĦŁåħ´è¶£
å¤ªéĺ³ è¾Ĳå°Ħ
å»ºçŃĳ è®¾è®¡
ä½¿ å®ĥä»¬
åįĬ å²Ľ
èĦ±é¢ĸ èĢĮåĩº
çĸĳ èĻĳ
äº¤æĺĵ æīĢ
èĤ¤ èī²
è¿Ŀåıį äºĨ
à¸Ļ à¸
éŃħ åĬĽåĴĮ
é«ĺ æ¡£
å®¶ äººçļĦ
ç½ ¢
èĩªå·±çļĦ è¡Įä¸º
æĹ¶éĹ´ç®¡çĲĨ å·¥åħ·
æ»ĭ æ¶¦
æİ ł
è§Ĩ åĬĽ
å¤ļ ä¹ħ
è¿ĩ æ¸¡
çŁ¥ èŃĺ
ç©ºæ°Ķ åĩĢåĮĸåĻ¨
åĩ¯ çī¹
ä¸ĭ åĳ¨
å¯¼ ä½ĵ
æĭ¥æľī è®¸å¤ļ
éľĢè¦ģ åħĪ
æį® æĬ¥éģĵ
å½ĵ ä¸Ń
éĽ Į
çļĦç¾İ å¦Ļ
æĢİ æł·çļĦ
åĴĮå®īåħ¨ æĢ§
æĪĳ åĲĮæĦı
ä½ľ ä¹ĭä¸Ģ
é«ĺ é£İéĻ©
æķ°æį® éĽĨä¸Ń
åĴĮæĸĩåĮĸ èĥĮæĻ¯
éĿŀå¸¸ æľīè¶£
ä¸¾ äºº
è°Ī è°Ī
å°ı å¥³åŃ©
æĽ´å¥½åľ° éĢĤåºĶ
æ³¢ æĸ¯
æĺ¾ çĦ¶
Ð¾Ð ²
åį·ç§¯ ç¥ŀç»ıç½ĳç»ľ
æ¸ħ ä»£
æĻ® æĭī
ä¼łè¾¾ äºĨ
P erson
çļĦçŁ¥ åĲį
æ¸ħæ¥ļ åľ°
æĹłäººé©¾é©¶ æ±½è½¦
å¸Ĥ æĶ¿åºľ
æĹ¥ èµ·
ç»Ŀ æľĽ
æĻ¶ ä½ĵ
ç¡ ħ
æĸ° éĻĪä»£è°¢
åı¯èĥ½ ä¸İ
ä»·æł¼ ä¸º
æĶ¶éĽĨ åĴĮ
å¹´è½» äººçļĦ
è¡¥ è´´
æĪ ļ
ä½ł åĳ¢
èĤº çĤİ
è¤Ĳ èī²
Ġ ä¸ªäºº
Ġ æ²¡æľī
çļĦ å¯¹è¯Ŀ
åºĬ åŀ«
ä¸į å¿ħè¦ģ
æµģ æ°´
è§Ħ æł¼
è¦ģæ±Ĥ çļĦ
å¦Ĥæŀľä½ł åĸľæ¬¢
çĽ¸ä¼¼ æĢ§
å¿½çķ¥ äºĨ
D æīĵåį°
ä½ĵ ä¼ļ
åı¯èĥ½ è¢«
åĲĳ ä½ł
æıĲä¾ĽæĽ´åĬł ä¸ªæĢ§åĮĸçļĦ
åĲĳ å¾Ģ
æĽ´ å°ıçļĦ
æ°´ çĶŁ
èģ ·
æĬ½ åĩº
½ åŃĲ
çļĦ çĽ¸åħ³
å± ¯
æĪĸ è¿ĩ
Ġ ä¸Ģ
éĶ Ī
çĶ¨æĪ· åı¯ä»¥éĢļè¿ĩ
ä¹¦ æŀ¶
æħ¢æĢ§ çĸ¾çĹħ
Ġ é¢Ħæµĭ
ä¸į åŃĺåľ¨
æ³ »
äººä»¬ åı¯ä»¥éĢļè¿ĩ
åĤ į
ä¸¾ æĬ¥
æľīä»·åĢ¼ çļĦ
åĥı ç´ł
çĶ±äºİ åħ¶
ç¹ģ åįİ
æ¯ıåĳ¨ è¿Ľè¡Į
ä¿ĿæĬ¤æĪĳä»¬çļĦ æĺŁçĲĥ
æĬ Ĵ
èµĦ æ·±
èį «
ä¸ĸçķĮ éĩĮ
å·´ å¡ŀ
5 1
ç«ĭ åľº
èī²å½© åĴĮ
è®¤çľŁ èĢĥèĻĳ
çŃī æĥħåĨµ
æĭ¥æľī çļĦ
æĪĲéķ¿ åĴĮ
åħĪè¿Ľ çļĦæĬĢæľ¯
å¯ĨåĪĩ çĽ¸åħ³
éľĢè¦ģ æĶ¿åºľ
æ°´ åºĵ
å¿ĥ è·³
éĢīæĭ© ä¸įåĲĮçļĦ
æĽ´åĬł åģ¥åº·
çļĦéĩįè¦ģ æīĭæ®µ
èĹ ©
æ°´åĪĨ åĴĮ
åłµ å¡ŀ
åĴĮ çŁŃè¯Ń
åĮº éĹ´
ä¸¤ è¾¹
ä»·æł¼ åĴĮ
è§Ĵåº¦ æĿ¥çľĭ
æİ¥è§¦ åĪ°
æıĲä¾Ľ æĶ¯æĮģ
è®¤ å®ļ
æĪĺäºī ä¸Ń
åį³ä½¿ åľ¨
ä¸ĭ è·Į
éĥ½ ä¸įåĲĮ
ç¡®ä¿Ŀ æ¯ıä¸ª
ä¸įæĺ¯ å¾Ī
é¤Ĳåİħ èĢģæĿ¿
å¥ł å®ļäºĨ
è¦ģ èĢĥèĻĳ
å®¢ äººçļĦ
å·¥ä½ľ æĸ¹å¼ı
åº· çĨĻ
åıĺåĮĸ çļĦ
æĽ² çĽ®
çĻ» è®°
è¶ĬæĿ¥è¶Ĭå¤ļçļĦäºº å¼Ģå§ĭ
çļĦçĦ¦ çĤ¹
åĸ ĺ
æ·± åİļçļĦ
è¯· ä¸įè¦ģ
è¿Ļä¸Ģ å¤©
6 2
Ġ éķ¿
å°ı å°ıçļĦ
åī ĸ
åħī åĴĮ
è´Ńçī© è¢ĭ
æľºåĬ¨ è½¦
7 9
æĸ° å¹´
ä¿ĿæĬ¤ åĮº
å¦ĤæŀľæĤ¨ éľĢè¦ģæĽ´å¤ļçļĦ
çļĦ æķ´ä½ĵ
èĥĮ åĲİçļĦ
Ġ ç®¡çĲĨ
åı¯ä»¥ çĽ´æİ¥
ä¸į æĦ¿æĦı
å¸¦ åĽŀ
æ½ľ åĬĽçļĦ
ä¸¤ç§į ä¸įåĲĮçļĦ
ä»¥ä¸ĭ åĽłç´ł
æł¹æį® è¾ĵåħ¥
äººä»¬ è¶ĬæĿ¥è¶Ĭ
æ¸¯ åı£
èĸ¯ æĿ¡
S O
ä¹Ł ä¸įèĥ½
ä¸ĢäºĽ å»ºè®®
ä½Ĩ åħ¶
æİ¨ åĩºäºĨ
åºĶè¯¥ éĩĩåıĸ
åªĴ é«Ķ
åĩłä¸ª èĭ¹æŀľ
S te
é¸ ¦
çļĦçĥŃ æĥħ
æİ¥ç§į çĸ«èĭĹ
Ġ ç¼ºä¹ı
æľĢ çŁŃ
ä½¿çĶ¨ æĸ¹æ³ķ
æ¯ıå¤© æĹ©ä¸Ĭ
çļĦåģ¥åº· çĬ¶åĨµ
æĺ¯åĲ¦ æĺ¯
æµ´ å®¤
åĪĨ åĪ°çļĦ
å°ı ç±³
åľº éĿ¢
æĽ´åĬł ä¸°å¯Į
åĪĨå¸ĥ äºİ
åĴĮ ä¸ĵä¸ļ
è½¦ è½®
å®ĥä»¬ éĢļå¸¸
ç§¯æŀģ å½±åĵį
çļĦæķħäºĭ æĥħèĬĤ
ĠÙ ģ
å¸Ĥåľº çłĶç©¶
éĸĭ çĻ¼
çĽ¸ çĪ±
å¯¹äºİ ç»Ļå®ļçļĦ
ä½³ èĤ´
å¹³çŃī çļĦæľºä¼ļ
ä¸Ńåįİ æ°ĳåĽ½
çļĦ åĬªåĬĽ
äº ŀ
åľ¨ ä¸Ģæ¬¡
å¦Ĥæŀľ è¦ģ
åĲĳ å®¢æĪ·
åıªæľī ä¸Ģä¸ª
ç¿»çĤĴ èĩ³
éªĦ åĤ²
Ġ æ·»åĬł
çļĦ è¯įè¯Ń
çļĦ æ°Ķæģ¯
çģ ¶
åķĨåĵģ çļĦ
Ð¾Ð ´
æķ°æį® çĤ¹
é© Ł
éĢł çº¸
æĪĳä»¬éľĢè¦ģ ç¡®ä¿Ŀ
è¿Ľåħ¥ äºĨ
è®°å¿Ĩ åĬĽ
å¹¶ éĢīæĭ©
å´ Ķ
èı² å¾ĭ
æĪĴ çĥŁ
èĥ½ ä¸įèĥ½
æľī æľŁå¾ĴåĪĳ
æĿ¥ è®Ńç»ĥ
è¡¨ éģĶ
åħ¥ ä½ı
ç¾İ æĦŁ
å¦Ĥæŀľ ä¸Ģä¸ªäºº
æĢĿèĢĥ å¦Ĥä½ķ
æļĤ åģľ
æ¬ºè¯Ī æ£Ģæµĭ
åľ° å£³
ä»¥ä¸ĭ æĸ¹å¼ı
æıĲé«ĺ å®¢æĪ·
çŁ¥ åİ¿
éĺ³ åı°
åĲ¸ åħ¥
å¯Ĩ å°ģ
ç»ĵæĿŁ æĹ¶
Ġ èĭ¹æŀľ
æĹ ·
åľ¨æķĻèĤ² é¢ĨåŁŁ
5 9
åĴĮ å®ŀæĸ½
åľ¨ ä¸Ģå®¶
å¯¹ äººç±»çļĦ
å¥½ çľĭ
éĶ ¥
äºĨè§£ åħ¬åı¸çļĦ
è¯· åĴ¨è¯¢
æĸ¯ çļĦ
çļĦ è®¤è¯Ĩ
ä¸ĭ èĲ½
è¶ ģ
ä»İèĢĮ ä¸º
åĿļ åĽº
åĭĩ å£«
éĩįæĸ° è¯Ħä¼°
ä¼łæĦŁåĻ¨ åĴĮ
éĤ£ ä½ł
å¤ĦçĲĨ åĻ¨
éŁµ å¾ĭ
å¹¿ä¸ľ çľģ
æĬĢ èīº
è¯Ń æĸĻ
çĭ Ħ
è¿ľ è¿ľ
æī§è¡Į ä»»åĬ¡
å°ĺ åŁĥ
çĩķéº¦ çīĩ
çļĦç¥Ŀ ç¦ı
Ġ èĶ¬èıľ
ãĢĤ ï¼Į
å¹¶ æııè¿°
å¤Ħ ç½®
åĬłå¼º äºĨ
k g
Ġ çİĭ
ç®¡çĲĨ çŃī
æ¯ıä¸ª æľĪ
çļĦç© ¿
åĮĹ æµ·
å¦Ĥæŀľä½ł æľī
æıĴ åº§
çĽ®åĩ» èĢħ
èĲ İ
åįķ ä¸ª
Ġ æ¯Ķè¾ĥ
çļĦ æİ§åĪ¶
åľ¨ å¸Ĥåľºä¸Ĭ
çķ ´
è¢« åĬ¨
æŃ¥ é©Ł
å¯¼ æ¸¸
æĮĩ çļĦ
å¾® å°ıçļĦ
ä¸¾ ä¾ĭ
çļĦé¢ľèī² åĴĮ
6 9
åı¯ä»¥ éĢļéģİ
èĪ ī
éļ¾ åħ³
èĶ ½
åıĺå¾ĹæĽ´åĬł ç¾İå¥½
åĴĮ åĳ¼åĲ¸
åĽ ļ
åģ¥èº« åĻ¨æĿĲ
èĿ Ļ
log n
ä¸ļ ä¸»
å¾Ī éķ¿æĹ¶éĹ´
åĲ¸ åıĸ
åľ°çĲĥ åĴĮ
çīĽå¥¶ åĴĮ
çļĦ æĹħè¡Į
ä¸Ģ æĹł
äººç±» ç¤¾ä¼ļçļĦ
å¤« äºº
åħ¨è°· ç±»
èĢĮ åħ¶ä»ĸ
å°± åĮ»
è¶³ è¿¹
é»ĳ äºº
çĦ¶åĲİ ä½¿çĶ¨
æİĮæı¡ äºĨ
è´¨éĩıåĴĮ æķĪçİĩ
æĸ¹ç¨ĭ ç»Ħ
èĵĿèī² åĴĮ
èĿĻ èĿł
æĿ¥ åĪ¶å®ļ
åĪ« å¢ħ
è°· çī©
åı¯èĥ½ æĺ¯ä¸Ģä¸ª
è¾ĥ éķ¿
åĽĽ èĤ¢
èĤ¡ç¥¨ æĬķèµĦ
åį°åº¦ å°¼è¥¿äºļ
ç´ Ħ
åıĳå±ķ è¶ĭåĬ¿
å¸ĮæľĽ éĢĻäºĽ
éĶĻè¯¯ åĴĮ
å¹¶ å®ŀçİ°
ä¸¤ å¹´
ä¸įæĸŃ æıĲé«ĺèĩªå·±çļĦ
åĳ½åĲį å®ŀä½ĵè¯ĨåĪ«
çļĦç¥ŀç»ı ç½ĳç»ľ
